<unk>	0
<s>	1
</s>	2
▁,	3
▁的	4
▁不	5
▁我	6
▁了	7
▁。	8
▁你	9
▁是	10
▁一	11
▁就	12
▁!	13
▁这	14
▁有	15
▁?	16
▁好	17
▁[	18
▁没	19
▁]	20
▁还	21
▁个	22
▁都	23
▁也	24
▁.	25
▁可	26
▁看	27
▁啊	28
▁那	29
▁在	30
▁大	31
▁人	32
▁..	33
▁...	34
▁说	35
▁要	36
▁上	37
▁吗	38
什么	39
▁吧	40
▁去	41
▁多	42
▁很	43
▁他	44
▁想	45
▁可以	46
▁小	47
▁什么	48
▁哈	49
▁自	50
▁不是	51
▁到	52
▁1	53
▁和	54
▁真	55
▁会	56
▁没有	57
▁出	58
▁点	59
▁只	60
▁怎	61
▁下	62
▁就是	63
▁时	64
▁过	65
▁来	66
▁怎么	67
▁天	68
▁对	69
▁最	70
▁能	71
▁现	72
▁太	73
▁打	74
▁用	75
▁开	76
▁这个	77
▁吃	78
▁给	79
▁知	80
▁买	81
▁自己	82
▁还是	83
▁老	84
▁哈哈	85
▁比	86
▁现在	87
▁感	88
▁发	89
▁知道	90
▁2	91
▁回	92
▁学	93
▁呢	94
▁中	95
▁但	96
▁为	97
▁得	98
▁哪	99
▁做	100
▁以	101
▁年	102
▁几	103
▁高	104
▁喜	105
▁被	106
▁问	107
▁别	108
▁如	109
▁觉	110
▁:	111
▁两	112
▁喜欢	113
▁三	114
▁女	115
▁里	116
▁觉得	117
▁后	118
▁心	119
▁才	120
▁爱	121
▁又	122
▁么	123
▁电	124
▁分	125
▁把	126
▁再	127
▁着	128
▁之	129
▁手	130
▁她	131
▁玩	132
▁~	133
▁所	134
▁时候	135
00	136
▁话	137
▁我们	138
▁无	139
▁男	140
▁找	141
▁(	142
▁家	143
▁生	144
▁第	145
▁c	146
▁成	147
▁地	148
▁跟	149
▁快	150
▁当	151
▁加	152
▁、	153
▁也是	154
▁3	155
▁这么	156
▁其	157
▁～	158
▁感觉	159
▁让	160
▁笑	161
▁)	162
▁等	163
▁月	164
▁而	165
▁这样	166
▁今	167
▁新	168
▁应	169
▁不会	170
▁明	171
▁还有	172
do	173
ge	174
▁已	175
▁主	176
▁更	177
▁但是	178
▁本	179
▁长	180
▁因	181
▁起	182
▁微	183
doge	184
▁次	185
▁二	186
▁如果	187
▁然	188
▁关	189
▁美	190
▁应该	191
▁带	192
▁不过	193
▁前	194
▁谁	195
▁放	196
▁啦	197
▁因为	198
▁不能	199
▁同	200
▁正	201
▁可能	202
▁一下	203
▁不要	204
▁那个	205
▁难	206
▁事	207
▁全	208
▁钱	209
▁完	210
▁黑	211
▁哦	212
▁啥	213
▁出来	214
▁已经	215
▁你们	216
▁公	217
▁东	218
▁5	219
▁进	220
▁所以	221
▁考	222
▁一样	223
▁问题	224
▁每	225
▁水	226
▁4	227
▁朋	228
ry	229
▁工	230
▁朋友	231
\#	232
▁重	233
▁然后	234
▁直	235
▁走	236
▁早	237
▁意	238
▁死	239
▁结	240
▁呀	241
▁那么	242
▁差	243
▁cry	244
▁从	245
▁反	246
▁换	247
▁行	248
▁原	249
▁求	250
▁国	251
▁日	252
▁白	253
▁网	254
▁刚	255
▁睡	256
▁今天	257
▁图	258
▁时间	259
▁干	260
▁机	261
▁特	262
▁听	263
▁晚	264
▁相	265
▁或	266
▁号	267
▁嘛	268
▁实	269
▁看到	270
▁安	271
▁6	272
▁一起	273
▁拜	274
▁办	275
▁个人	276
▁信	277
▁挺	278
▁多少	279
▁身	280
▁张	281
▁花	282
▁需	283
▁算	284
▁\#	285
▁😂	286
▁为什么	287
▁叫	288
▁情	289
▁车	290
▁单	291
▁四	292
▁请	293
▁其实	294
▁看看	295
▁第一	296
▁比较	297
▁他们	298
▁收	299
▁只是	300
▁方	301
▁拿	302
▁眼	303
▁楼	304
▁总	305
▁拜拜	306
▁表	307
▁十	308
▁嗯	309
▁一直	310
▁泪	311
▁少	312
▁先	313
▁狗	314
▁这种	315
▁超	316
▁外	317
▁认	318
▁不错	319
▁谢	320
▁很多	321
▁需要	322
▁变	323
▁见	324
▁卡	325
▁专	326
▁清	327
▁手机	328
▁头	329
▁经	330
▁路	331
▁卖	332
▁保	333
▁周	334
▁内	335
▁越	336
▁游	337
▁好像	338
▁文	339
▁理	340
▁红	341
▁记	342
▁妈	343
▁东西	344
▁宝	345
▁五	346
▁提	347
▁偷	348
▁神	349
▁【	350
▁开始	351
▁作	352
▁帮	353
▁平	354
▁9	355
▁选	356
▁一般	357
▁而且	358
▁8	359
▁强	360
▁半	361
▁粉	362
▁名	363
▁懂	364
▁接	365
▁基	366
▁谢谢	367
▁亲	368
▁拍	369
▁金	370
▁动	371
▁妹	372
▁不了	373
▁哥	374
▁”	375
▁“	376
▁照	377
▁以后	378
▁s	379
▁别人	380
▁毕	381
▁各	382
▁包	383
▁面	384
▁确	385
▁b	386
▁改	387
▁像	388
▁7	389
▁鼻	390
▁写	391
▁起来	392
▁哪里	393
▁直接	394
▁合	395
▁连	396
▁装	397
▁只有	398
▁肯	399
▁喝	400
▁建	401
▁】	402
▁价	403
▁或者	404
▁一定	405
▁教	406
▁活	407
▁意思	408
▁学校	409
▁阿	410
▁马	411
孩子	412
▁害	413
▁][	414
▁性	415
▁好看	416
▁姐	417
▁种	418
▁10	419
▁跑	420
▁解	421
▁推	422
▁交	423
▁希	424
▁儿	425
▁搞	426
▁游戏	427
▁转	428
▁双	429
▁脸	430
▁呵	431
▁万	432
▁必	433
▁肯定	434
▁试	435
▁送	436
▁王	437
▁体	438
▁空	439
▁部	440
▁住	441
▁它	442
▁医	443
▁条	444
▁刷	445
▁系	446
▁之前	447
▁回来	448
▁20	449
▁a	450
▁大家	451
▁准	452
▁伤	453
▁穿	454
▁p	455
▁版	456
▁怕	457
▁火	458
▁m	459
▁可是	460
▁希望	461
▁毛	462
▁挖	463
▁世	464
▁北	465
▁非	466
▁百	467
▁以前	468
▁只能	469
▁样	470
▁西	471
▁剧	472
▁热	473
▁最后	474
▁拉	475
▁配	476
▁简	477
▁根	478
▁球	479
▁i	480
▁工作	481
▁其他	482
▁低	483
▁左	484
▁呵呵	485
▁几个	486
▁块	487
▁风	488
▁通	489
▁报	490
▁不用	491
▁_	492
▁告	493
▁逼	494
▁地方	495
▁洗	496
▁口	497
▁].	498
▁可爱	499
▁并	500
▁中国	501
▁战	502
▁明天	503
▁微笑	504
▁节	505
▁法	506
▁好好	507
000	508
▁指	509
▁~~	510
▁期	511
▁估	512
▁黄	513
▁套	514
▁处	515
▁不行	516
▁英	517
▁最好	518
▁晚上	519
▁代	520
▁养	521
▁注	522
▁最近	523
▁哪个	524
▁昨	525
▁嘻	526
▁贵	527
▁发现	528
▁孩子	529
▁满	530
▁人家	531
▁估计	532
▁联	533
▁海	534
▁随	535
▁偷笑	536
▁容	537
▁级	538
▁错	539
▁南	540
▁店	541
▁该	542
▁嘻嘻	543
▁星	544
▁t	545
▁服	546
▁整	547
▁证	548
▁以为	549
▁微博	550
▁句	551
▁哎	552
▁假	553
▁深	554
▁除	555
▁害羞	556
▁失	557
▁·	558
▁们	559
▁咋	560
▁区	561
▁特别	562
▁虽	563
▁流	564
▁数	565
▁情况	566
▁反正	567
▁排	568
▁飞	569
▁好多	570
▁房	571
▁帅	572
▁喵	573
▁补	574
▁入	575
▁开心	576
▁支	577
▁画	578
▁管	579
▁消	580
▁里面	581
▁目	582
▁精	583
▁首	584
▁站	585
▁靠	586
▁掉	587
▁光	588
▁与	589
▁留	590
▁悲	591
▁告诉	592
▁设	593
▁-	594
▁离	595
▁关系	596
▁虽然	597
▁只要	598
▁运	599
▁道	600
▁气	601
▁慢	602
▁鸡	603
▁演	604
▁倒	605
▁梦	606
▁建议	607
▁八	608
▁这些	609
▁适	610
▁专业	611
▁绝	612
▁容易	613
▁字	614
▁思	615
▁正常	616
▁世界	617
▁爆	618
▁要是	619
▁l	620
▁皮	621
▁怎么样	622
▁萌	623
▁坐	624
▁便	625
▁确实	626
▁受	627
▁准备	628
▁位	629
▁线	630
▁老师	631
▁o	632
▁书	633
▁w	634
▁脑	635
▁=	636
▁12	637
▁台	638
▁岁	639
▁冷	640
▁传	641
▁哭	642
▁场	643
▁技	644
▁广	645
▁麻	646
▁影	647
▁队	648
▁生活	649
▁山	650
▁至	651
▁修	652
▁组	653
▁0	654
▁显	655
▁基本	656
▁一些	657
▁定	658
▁有的	659
▁歌	660
▁主要	661
▁为了	662
▁元	663
▁毕竟	664
▁青	665
▁弄	666
▁厉	667
▁调	668
▁讲	669
▁喵喵	670
▁任	671
▁资	672
▁城	673
▁结果	674
▁每天	675
▁那种	676
▁复	677
▁够	678
▁厉害	679
▁子	680
▁退	681
▁六	682
▁翻	683
▁破	684
▁昨天	685
▁科	686
▁*	687
▁记得	688
▁按	689
▁牛	690
▁当然	691
▁武	692
▁约	693
▁加油	694
不多	695
▁之后	696
▁值	697
▁差不多	698
▁忘	699
▁市	700
▁顺	701
▁要不	702
▁没事	703
▁门	704
▁突	705
▁评	706
▁胖	707
▁衣	708
▁药	709
▁d	710
▁坑	711
▁集	712
▁大学	713
▁抱	714
▁还要	715
▁本来	716
▁n	717
▁查	718
▁价格	719
▁七	720
▁远	721
▁哇	722
▁票	723
▁哒	724
▁g	725
▁这里	726
▁米	727
▁软	728
▁15	729
▁出去	730
▁电影	731
▁片	732
▁优	733
in	734
▁您	735
▁左右	736
▁杀	737
▁傻	738
▁居	739
▁初	740
▁抽	741
▁小时	742
▁哼	743
▁压	744
▁奶	745
▁背	746
▁预	747
▁推荐	748
▁聊	749
▁贴	750
▁力	751
▁遇	752
▁我家	753
▁输	754
▁天天	755
▁段	756
▁他的	757
▁师	758
▁电脑	759
▁血	760
▁视	761
▁终	762
▁今年	763
▁声	764
▁果	765
▁宝宝	766
▁木	767
▁病	768
▁公司	769
▁怪	770
▁赶	771
▁团	772
▁认识	773
▁客	774
▁注意	775
▁投	776
▁妹子	777
▁短	778
▁油	779
▁回家	780
▁如何	781
▁颜	782
▁爸	783
▁土	784
▁圈	785
▁减	786
▁商	787
▁而已	788
▁继	789
▁品	790
▁李	791
▁那些	792
▁》	793
▁蓝	794
▁治	795
▁照片	796
▁骂	797
▁类	798
▁饭	799
▁不敢	800
▁选择	801
▁原来	802
▁千	803
▁还在	804
▁化	805
▁追	806
▁累	807
▁完全	808
▁读	809
▁名字	810
▁挂	811
▁还好	812
▁效	813
▁有些	814
▁男人	815
▁存	816
▁俩	817
▁《	818
▁香	819
▁使	820
▁电话	821
▁幸	822
▁官	823
▁难道	824
▁各种	825
▁悲伤	826
▁不如	827
▁瘦	828
▁下来	829
▁事情	830
▁阴	831
▁银	832
▁温	833
▁便宜	834
▁h	835
▁怀	836
▁咯	837
▁练	838
▁停	839
▁抓	840
▁班	841
▁除了	842
▁防	843
▁另	844
▁过来	845
▁蛋	846
▁猫	847
▁怒	848
▁请问	849
▁讨	850
▁未	851
▁肉	852
▁升	853
▁龙	854
▁华	855
▁于	856
▁赞	857
▁办法	858
▁领	859
▁稳	860
▁11	861
▁普	862
时候	863
▁费	864
▁想要	865
▁色	866
▁款	867
▁骗	868
▁属	869
▁衣服	870
▁充	871
▁坏	872
▁某	873
▁居然	874
▁继续	875
▁鬼	876
▁就会	877
▁毕业	878
▁恶	879
▁还能	880
▁大概	881
▁何	882
▁姐姐	883
▁才能	884
▁坚	885
▁医院	886
▁过去	887
▁怎样	888
▁语	889
▁必须	890
▁重要	891
▁省	892
▁适合	893
▁故	894
▁考虑	895
▁音	896
▁屏	897
▁友	898
▁找到	899
▁抢	900
an	901
▁标	902
▁硬	903
▁x	904
▁试试	905
▁学习	906
▁所有	907
▁17	908
▁16	909
▁删	910
▁淘	911
▁你好	912
▁吹	913
▁e	914
▁智	915
▁参	916
▁跳	917
▁韩	918
▁看着	919
▁造	920
▁度	921
▁大神	922
▁f	923
▁件	924
▁r	925
▁社	926
▁结婚	927
▁九	928
▁绿	929
▁系统	930
▁产	931
▁角	932
▁愿	933
▁呗	934
▁北京	935
▁清楚	936
▁说话	937
▁群	938
▁样子	939
▁分钟	940
▁睡觉	941
▁下去	942
▁上班	943
▁模	944
▁**	945
▁铁	946
▁恩	947
▁欧	948
▁突然	949
▁不然	950
▁酒	951
▁漂	952
▁根本	953
▁往	954
▁努	955
▁关注	956
▁魔	957
▁+	958
▁后来	959
▁烦	960
▁功	961
▁影响	962
▁回去	963
▁具	964
▁效果	965
▁就算	966
▁18	967
▁痛	968
▁冲	969
▁赛	970
▁祝	971
▁唱	972
▁导	973
▁严	974
▁食	975
▁快乐	976
▁货	977
▁同学	978
▁额	979
▁然而	980
▁乱	981
▁物	982
▁永	983
▁每次	984
▁味	985
▁招	986
▁喷	987
▁决	988
▁急	989
▁鱼	990
▁秒	991
▁却	992
▁后面	993
▁咱	994
▁缺	995
▁;	996
▁观	997
▁丑	998
▁不同	999
▁努力	1000
▁女生	1001
▁出现	1002
▁滴	1003
▁乐	1004
▁奇	1005
▁当时	1006
▁搜	1007
▁q	1008
▁课	1009
▁那里	1010
▁控	1011
▁轻	1012
▁女人	1013
▁100	1014
▁→	1015
▁看见	1016
▁30	1017
▁非常	1018
▁检	1019
▁吓	1020
▁刀	1021
▁近	1022
▁A	1023
▁夏	1024
▁敢	1025
▁201	1026
▁陪	1027
▁好吃	1028
▁辣	1029
▁谈	1030
▁兄	1031
▁取	1032
▁军	1033
▁支持	1034
▁不够	1035
▁将	1036
▁甜	1037
▁江	1038
▁校	1039
▁即	1040
▁老哥	1041
▁看来	1042
▁免	1043
▁别的	1044
▁~~~	1045
▁要求	1046
▁不得	1047
▁福	1048
▁到底	1049
▁v	1050
▁干嘛	1051
▁夜	1052
▁疼	1053
▁丢	1054
▁些	1055
▁视频	1056
▁简单	1057
50	1058
▁纸	1059
▁健	1060
▁顶	1061
▁速	1062
er	1063
▁终于	1064
▁慢慢	1065
▁相信	1066
▁对象	1067
▁唉	1068
▁身体	1069
▁机会	1070
▁久	1071
▁目前	1072
▁石	1073
▁汉	1074
▁鼻屎	1075
▁遇到	1076
▁简直	1077
▁思考	1078
▁噢	1079
▁国家	1080
▁巴	1081
▁百度	1082
▁混	1083
▁话说	1084
▁边	1085
▁经常	1086
▁恋	1087
▁漂亮	1088
▁豆	1089
▁听说	1090
▁原因	1091
▁偶	1092
▁邮	1093
▁脚	1094
▁电视	1095
▁底	1096
▁网上	1097
▁看过	1098
▁心里	1099
▁每个	1100
▁休	1101
▁不管	1102
▁利	1103
▁T	1104
▁吸	1105
▁表示	1106
▁挺好	1107
▁借	1108
▁日本	1109
▁攻	1110
▁为啥	1111
▁介	1112
▁计	1113
▁云	1114
▁古	1115
▁耶	1116
▁忍	1117
▁棒	1118
▁上海	1119
▁苏	1120
▁纯	1121
▁右	1122
▁菜	1123
▁吃饭	1124
on	1125
▁制	1126
▁欢	1127
▁猪	1128
▁牌	1129
▁软件	1130
▁耳	1131
▁礼	1132
▁下午	1133
▁细	1134
▁奥	1135
▁常	1136
▁嗯嗯	1137
▁浪	1138
▁冰	1139
▁暴	1140
▁笔	1141
▁迷	1142
▁吐	1143
▁签	1144
▁随便	1145
▁更新	1146
▁绝对	1147
▁理解	1148
▁真心	1149
▁尽	1150
▁可怜	1151
▁环	1152
▁早上	1153
▁y	1154
▁来说	1155
▁嘴	1156
▁就能	1157
▁兔	1158
▁好久	1159
▁足	1160
▁蛮	1161
▁宿	1162
▁素	1163
▁23	1164
▁可惜	1165
▁回复	1166
▁淘宝	1167
▁赢	1168
▁下载	1169
▁德	1170
▁活动	1171
▁质	1172
▁习	1173
▁考试	1174
▁鞋	1175
▁草	1176
▁莫	1177
▁瞎	1178
▁刚刚	1179
▁打算	1180
▁兄弟	1181
▁好不	1182
▁粉丝	1183
▁幸福	1184
▁去年	1185
▁赚	1186
▁向	1187
▁进去	1188
▁激	1189
▁联系	1190
▁想到	1191
▁了解	1192
▁实在	1193
▁纠	1194
▁心情	1195
▁旅	1196
▁酷	1197
▁男的	1198
▁竟	1199
▁k	1200
▁具体	1201
▁眼睛	1202
▁姑	1203
▁刘	1204
▁使用	1205
▁舒	1206
▁极	1207
▁规	1208
▁腿	1209
▁喂	1210
▁兴	1211
▁嘿	1212
▁关键	1213
▁民	1214
▁50	1215
▁格	1216
▁比如	1217
▁垃	1218
▁能力	1219
▁局	1220
▁操	1221
▁巨	1222
▁封	1223
▁13	1224
▁懒	1225
▁骑	1226
▁垃圾	1227
▁斤	1228
▁剪	1229
10	1230
▁担	1231
▁泡	1232
▁超级	1233
▁汗	1234
▁盘	1235
意思	1236
▁父	1237
▁确定	1238
▁河	1239
▁春	1240
▁技术	1241
▁互	1242
▁学生	1243
▁老公	1244
▁断	1245
▁博	1246
▁头发	1247
▁u	1248
▁炸	1249
▁疯	1250
▁偏	1251
▁印	1252
▁渣	1253
▁哥哥	1254
▁摸	1255
▁秀	1256
▁这次	1257
▁明白	1258
▁评论	1259
▁皇	1260
▁形	1261
▁题	1262
▁—	1263
▁申	1264
▁--	1265
▁胡	1266
▁怒骂	1267
▁达	1268
▁附	1269
▁维	1270
▁貌	1271
▁状	1272
▁19	1273
▁Q	1274
▁坚持	1275
▁挑	1276
▁引	1277
▁独	1278
▁步	1279
▁命	1280
▁😭	1281
▁上面	1282
▁露	1283
▁下次	1284
▁切	1285
▁哟	1286
▁忙	1287
oo	1288
▁感情	1289
▁说明	1290
▁习惯	1291
▁麻烦	1292
▁降	1293
▁明明	1294
▁猜	1295
▁j	1296
▁负	1297
▁医生	1298
▁越来	1299
▁见过	1300
▁农	1301
▁工资	1302
▁散	1303
▁依	1304
▁护	1305
▁滚	1306
▁职	1307
▁安全	1308
▁明显	1309
▁认为	1310
▁轮	1311
▁好想	1312
▁貌似	1313
▁/	1314
▁宿舍	1315
▁季	1316
▁牙	1317
▁碰	1318
▁生日	1319
▁竟然	1320
▁不好	1321
▁不好意思	1322
▁搭	1323
▁太阳	1324
▁雪	1325
▁妈妈	1326
▁录	1327
▁完了	1328
▁美国	1329
▁14	1330
▁立	1331
▁增	1332
▁总是	1333
▁弱	1334
▁变成	1335
▁困	1336
▁纠结	1337
▁野	1338
▁陈	1339
▁苹	1340
▁拼	1341
▁要不要	1342
▁诶	1343
▁营	1344
▁治疗	1345
▁愿意	1346
▁苹果	1347
▁成功	1348
▁那样	1349
▁折	1350
▁存在	1351
▁多久	1352
▁仙	1353
▁拆	1354
▁普通	1355
▁承	1356
▁惹	1357
▁头像	1358
▁人生	1359
▁接受	1360
.5	1361
▁付	1362
▁运动	1363
▁待	1364
▁晚安	1365
▁图片	1366
▁阳	1367
▁故事	1368
▁雷	1369
▁想想	1370
▁至少	1371
▁爽	1372
▁城市	1373
▁解决	1374
20	1375
os	1376
▁虐	1377
▁不对	1378
▁杨	1379
▁所谓	1380
▁密	1381
▁脱	1382
▁姑娘	1383
▁码	1384
▁问问	1385
▁杯	1386
▁熟	1387
▁男生	1388
▁婚	1389
▁异	1390
▁湖	1391
▁属于	1392
▁剑	1393
▁醒	1394
▁编	1395
▁者	1396
▁C	1397
▁伤害	1398
▁室	1399
▁厂	1400
▁插	1401
▁合适	1402
▁烧	1403
▁儿子	1404
▁大佬	1405
▁晒	1406
▁期待	1407
▁克	1408
▁恶心	1409
▁无法	1410
▁打脸	1411
▁也想	1412
▁房子	1413
▁冬	1414
▁方面	1415
▁星期	1416
▁批	1417
▁饿	1418
▁苦	1419
▁答	1420
▁研	1421
▁这边	1422
▁看完	1423
▁一切	1424
▁直播	1425
▁年轻	1426
▁讨厌	1427
▁床	1428
▁亚	1429
▁卫	1430
▁皮肤	1431
▁型	1432
▁有时候	1433
▁测	1434
▁伤心	1435
▁晕	1436
▁隔	1437
▁暖	1438
▁老婆	1439
▁沙	1440
▁方法	1441
▁鼓	1442
▁恐	1443
▁落	1444
▁赶紧	1445
▁瓶	1446
▁马上	1447
▁那边	1448
▁更好	1449
▁醉	1450
▁登	1451
60	1452
▁任何	1453
▁圣	1454
▁严重	1455
▁以上	1456
▁灵	1457
▁唯	1458
▁罗	1459
▁剩	1460
▁英语	1461
▁母	1462
▁擦	1463
▁漫	1464
▁永远	1465
▁小说	1466
▁曾	1467
▁有钱	1468
▁阴险	1469
▁闲	1470
▁平时	1471
▁无聊	1472
▁零	1473
▁颜色	1474
▁胸	1475
▁老板	1476
▁检查	1477
▁社会	1478
▁逗	1479
▁娘	1480
▁尼	1481
▁惊	1482
▁撒	1483
▁200	1484
▁肚	1485
▁B	1486
▁举	1487
▁声音	1488
▁炒	1489
▁移	1490
▁学姐	1491
▁方便	1492
▁休息	1493
▁似	1494
▁银行	1495
▁回事	1496
▁舍	1497
▁挤	1498
▁戏	1499
▁冠	1500
▁另外	1501
▁弹	1502
▁显示	1503
▁私	1504
▁撕	1505
▁层	1506
▁再说	1507
▁既	1508
▁暗	1509
▁决定	1510
▁嫌	1511
▁分手	1512
▁z	1513
▁生病	1514
▁担心	1515
▁霸	1516
▁此	1517
▁辈	1518
▁戒	1519
▁论	1520
▁比赛	1521
▁爹	1522
▁司	1523
▁服务	1524
▁粗	1525
▁兔子	1526
▁共	1527
▁必要	1528
▁拖	1529
▁泰	1530
▁紧	1531
▁位置	1532
▁质量	1533
▁撸	1534
▁历	1535
▁从来	1536
▁权	1537
▁技能	1538
▁闹	1539
▁自然	1540
▁截	1541
▁扣	1542
▁她的	1543
▁全部	1544
▁cp	1545
▁骨	1546
▁量	1547
▁宁	1548
▁免费	1549
▁爷	1550
▁好玩	1551
▁舒服	1552
▁国内	1553
▁颗	1554
▁道理	1555
▁设置	1556
▁党	1557
▁经验	1558
▁心疼	1559
▁减肥	1560
▁速度	1561
▁区别	1562
▁不少	1563
▁水平	1564
te	1565
ol	1566
▁威	1567
▁酸	1568
▁羡	1569
▁衰	1570
▁键	1571
▁辛	1572
▁嘿嘿	1573
▁占	1574
▁戴	1575
▁糖	1576
▁小心	1577
▁弟	1578
▁程	1579
▁作为	1580
▁份	1581
▁发展	1582
▁各位	1583
▁器	1584
▁25	1585
▁旁	1586
▁爱情	1587
▁板	1588
▁凉	1589
▁勇	1590
▁默	1591
▁P	1592
▁版本	1593
▁状态	1594
▁副	1595
▁上去	1596
▁算了	1597
▁控制	1598
▁设计	1599
▁毒	1600
.1	1601
▁茶	1602
▁高中	1603
▁上次	1604
▁虚	1605
▁林	1606
▁限	1607
▁处理	1608
▁很大	1609
ar	1610
▁——	1611
▁对方	1612
▁果然	1613
▁咬	1614
▁及	1615
▁购	1616
▁还会	1617
▁塞	1618
▁创	1619
▁播	1620
▁盆	1621
▁亮	1622
▁羡慕	1623
▁父母	1624
不起	1625
▁小学	1626
▁网络	1627
▁废	1628
▁摩	1629
▁也许	1630
▁辈子	1631
▁么么	1632
▁肥	1633
ou	1634
▁之类	1635
▁英雄	1636
▁炮	1637
▁涨	1638
▁堆	1639
▁踢	1640
▁爸爸	1641
▁烂	1642
▁崩	1643
▁味道	1644
▁单身	1645
▁词	1646
▁两年	1647
▁恋爱	1648
▁据	1649
▁财	1650
▁介绍	1651
80	1652
▁是否	1653
▁欢迎	1654
▁韩国	1655
▁鹿	1656
▁射	1657
▁剧情	1658
▁学长	1659
▁枪	1660
▁股	1661
▁下面	1662
▁闪	1663
▁救	1664
▁不怕	1665
▁盒	1666
▁波	1667
▁灯	1668
▁身边	1669
▁现实	1670
▁部分	1671
▁紫	1672
▁艺	1673
▁娃	1674
▁锅	1675
▁40	1676
▁S	1677
▁鸟	1678
ay	1679
▁认真	1680
▁透	1681
▁驾	1682
▁放弃	1683
▁搬	1684
▁院	1685
▁吊	1686
▁节奏	1687
▁感谢	1688
▁结束	1689
▁M	1690
▁富	1691
▁升级	1692
▁叔	1693
▁当年	1694
▁O	1695
▁等等	1696
▁市场	1697
▁叶	1698
▁聊天	1699
▁日子	1700
▁布	1701
▁静	1702
▁不大	1703
▁实力	1704
▁羊	1705
▁吉	1706
▁数据	1707
▁雨	1708
▁音乐	1709
▁打开	1710
▁穷	1711
▁一会	1712
▁夏天	1713
▁核	1714
▁信息	1715
▁今晚	1716
▁奖	1717
▁哪些	1718
▁值得	1719
▁就像	1720
▁可怕	1721
▁对于	1722
▁惨	1723
▁自动	1724
▁固	1725
▁实话	1726
▁街	1727
▁通过	1728
▁重新	1729
▁呆	1730
▁放心	1731
▁鲜	1732
▁争	1733
起来	1734
▁间	1735
.0	1736
▁得到	1737
▁不知	1738
▁外面	1739
▁屎	1740
▁明年	1741
▁彩	1742
▁成都	1743
or	1744
▁烟	1745
▁镜	1746
▁寄	1747
▁😳	1748
▁233	1749
▁小米	1750
▁馋	1751
▁环境	1752
▁厚	1753
▁」	1754
▁帮忙	1755
▁真正	1756
▁夸	1757
▁宠	1758
▁美女	1759
▁***	1760
▁针	1761
▁学院	1762
al	1763
▁京	1764
▁前面	1765
▁帝	1766
▁整个	1767
▁灰	1768
▁管理	1769
▁由	1770
▁屏幕	1771
▁屁	1772
▁兴趣	1773
▁肚子	1774
▁郑	1775
▁本人	1776
▁耐	1777
▁艾	1778
▁政	1779
▁遍	1780
▁卷	1781
▁失望	1782
▁许	1783
▁好听	1784
▁假的	1785
▁根据	1786
▁她们	1787
▁半年	1788
en	1789
▁咩	1790
▁羞	1791
▁妹妹	1792
▁村	1793
▁24	1794
▁圆	1795
▁孤	1796
▁熊	1797
▁缘	1798
▁⊙	1799
▁消息	1800
▁喊	1801
▁研究	1802
▁抗	1803
▁犯	1804
▁淡	1805
▁成绩	1806
▁座	1807
▁发生	1808
▁难受	1809
▁想法	1810
▁宣	1811
▁盖	1812
▁靠谱	1813
▁呐	1814
▁广州	1815
▁项	1816
▁要么	1817
▁身份	1818
▁女孩	1819
▁委	1820
▁收到	1821
▁id	1822
▁称	1823
▁隐	1824
▁申请	1825
▁良	1826
▁后悔	1827
▁心理	1828
▁脑子	1829
▁女神	1830
▁酱	1831
▁如此	1832
▁斗	1833
▁反应	1834
▁解释	1835
▁尤	1836
▁伙	1837
▁积	1838
满面	1839
流满面	1840
▁吵	1841
▁年龄	1842
▁泪流满面	1843
▁证明	1844
▁至于	1845
▁条件	1846
▁荣	1847
▁玉	1848
▁说说	1849
▁二十	1850
▁尴	1851
▁小孩	1852
▁牌子	1853
▁配置	1854
▁狂	1855
▁系列	1856
▁最多	1857
.2	1858
▁放假	1859
▁吃惊	1860
▁尴尬	1861
▁残	1862
▁人民	1863
▁历史	1864
▁沉	1865
▁备	1866
▁腰	1867
▁拒	1868
▁功能	1869
▁附近	1870
▁吴	1871
▁摆	1872
▁忘记	1873
▁并不	1874
▁健康	1875
▁代表	1876
▁偷乐	1877
▁出门	1878
▁资源	1879
▁警	1880
▁齐	1881
▁快递	1882
▁杂	1883
▁I	1884
▁范	1885
▁精神	1886
▁尿	1887
▁碎	1888
▁替	1889
▁珍	1890
▁唐	1891
▁培	1892
▁楼上	1893
▁压力	1894
▁1000	1895
▁内存	1896
▁正在	1897
▁很久	1898
ha	1899
▁周末	1900
▁到时候	1901
▁分享	1902
▁汽	1903
▁临	1904
▁饮	1905
▁D	1906
▁催	1907
▁60	1908
▁没错	1909
▁身高	1910
▁磨	1911
▁舞	1912
▁未来	1913
pp	1914
▁进行	1915
▁表情	1916
▁馋嘴	1917
▁统	1918
▁旁边	1919
▁说过	1920
▁闭	1921
▁租	1922
▁嫁	1923
▁怀孕	1924
▁钢	1925
▁否	1926
▁昨晚	1927
▁产品	1928
▁秋	1929
▁火车	1930
▁空间	1931
▁天气	1932
▁滑	1933
▁尾	1934
▁档	1935
▁账	1936
▁一半	1937
▁性格	1938
▁符	1939
▁看起来	1940
▁职业	1941
▁围	1942
▁提前	1943
▁当初	1944
▁最大	1945
▁对面	1946
▁阵	1947
▁胃	1948
▁教育	1949
▁方式	1950
▁树	1951
▁哪儿	1952
▁^	1953
▁顿	1954
▁上课	1955
▁遗	1956
▁业	1957
▁80	1958
▁安装	1959
▁参加	1960
▁500	1961
▁率	1962
▁作用	1963
▁重庆	1964
▁节目	1965
▁症	1966
▁恢	1967
▁表现	1968
▁赵	1969
▁成为	1970
-1	1971
▁感冒	1972
▁既然	1973
▁助	1974
].	1975
▁月份	1976
▁砸	1977
▁忽	1978
▁销	1979
30	1980
▁裤	1981
▁扯	1982
▁恢复	1983
▁官方	1984
▁∠	1985
▁90	1986
▁逛	1987
▁甩	1988
▁胜	1989
▁据说	1990
▁21	1991
▁躺	1992
▁智商	1993
▁意义	1994
▁很少	1995
▁装备	1996
▁含	1997
▁打的	1998
▁订	1999
▁箱	2000
▁朝	2001
▁飞机	2002
▁大哥	2003
▁亏	2004
▁甲	2005
▁经济	2006
▁中午	2007
▁拔	2008
▁重点	2009
▁文化	2010
▁改变	2011
▁嗨	2012
▁宽	2013
▁意见	2014
▁才会	2015
▁地址	2016
▁聚	2017
▁熬	2018
▁甚	2019
▁言	2020
▁仔	2021
▁少女	2022
▁孙	2023
▁过年	2024
ing	2025
▁念	2026
▁懒得	2027
▁讨论	2028
▁还行	2029
▁肿	2030
▁汤	2031
▁开学	2032
▁曾经	2033
▁高考	2034
▁妖	2035
▁回答	2036
▁君	2037
▁户	2038
▁锁	2039
▁宝贝	2040
▁握	2041
▁任务	2042
▁角色	2043
▁钻	2044
▁导致	2045
▁毛病	2046
▁稍	2047
▁除非	2048
▁好友	2049
▁感受	2050
▁填	2051
▁划	2052
▁欺	2053
▁辛苦	2054
▁关于	2055
▁乖	2056
▁深圳	2057
▁害怕	2058
▁呼	2059
▁奔	2060
▁梅	2061
▁涂	2062
▁单位	2063
▁暂	2064
▁派	2065
▁之间	2066
▁麦	2067
▁稳定	2068
▁300	2069
▁标准	2070
▁显卡	2071
▁咱们	2072
▁爬	2073
▁官网	2074
▁超过	2075
▁冬天	2076
▁兵	2077
▁更多	2078
▁大部	2079
▁QQ	2080
▁主动	2081
▁跪	2082
▁顺便	2083
▁港	2084
▁首先	2085
▁2333	2086
▁归	2087
▁拍照	2088
▁大部分	2089
▁品牌	2090
▁禁	2091
▁网站	2092
▁松	2093
▁劳	2094
▁桌	2095
▁番	2096
▁干净	2097
▁新闻	2098
le	2099
▁寒	2100
▁县	2101
▁也好	2102
▁老子	2103
▁保护	2104
▁易	2105
▁经历	2106
▁震	2107
▁离开	2108
▁尊	2109
▁骚	2110
▁自由	2111
▁家人	2112
▁no	2113
▁ω	2114
▁冒	2115
▁同意	2116
▁难过	2117
▁晓	2118
▁兰	2119
▁1.	2120
▁窝	2121
▁的确	2122
▁售	2123
▁一百	2124
▁移动	2125
70	2126
▁抠	2127
▁完美	2128
▁宇	2129
▁下雨	2130
▁起码	2131
▁幼	2132
▁若	2133
▁女儿	2134
▁亲亲	2135
▁善	2136
▁凑	2137
▁早点	2138
99	2139
▁伙伴	2140
▁哥们	2141
▁扔	2142
▁篇	2143
▁记录	2144
▁姨	2145
▁不像	2146
▁守	2147
▁L	2148
▁空调	2149
▁进来	2150
▁事实	2151
▁魅	2152
▁求助	2153
▁时代	2154
▁武器	2155
▁摔	2156
▁误	2157
▁曲	2158
▁耍	2159
▁暑	2160
▁闺	2161
▁摄	2162
▁猴	2163
▁千万	2164
▁俺	2165
▁距	2166
▁佛	2167
][	2168
▁巧	2169
▁多年	2170
▁想吃	2171
▁辅	2172
▁同时	2173
▁纹	2174
▁志	2175
▁挣	2176
▁审	2177
▁公里	2178
▁模式	2179
▁想起	2180
▁几乎	2181
▁路上	2182
▁球员	2183
▁材	2184
▁一边	2185
▁路过	2186
▁凯	2187
▁虎	2188
▁宫	2189
▁脾	2190
▁勾	2191
▁唯一	2192
▁嗒	2193
▁实际	2194
▁捡	2195
▁南京	2196
▁点点	2197
▁赌	2198
▁黑色	2199
▁架	2200
▁危	2201
▁寝	2202
▁鼓掌	2203
▁呜	2204
▁抓狂	2205
▁̄	2206
▁企	2207
▁那天	2208
▁香港	2209
▁恭	2210
▁中间	2211
▁章	2212
▁旅游	2213
▁理由	2214
▁肌	2215
▁王者	2216
▁咖	2217
▁红包	2218
▁G	2219
▁去找	2220
▁贷	2221
▁拒绝	2222
▁偶尔	2223
▁素质	2224
▁密码	2225
▁互相	2226
▁委屈	2227
▁手术	2228
▁本身	2229
▁大多	2230
▁综	2231
▁十一	2232
▁奇怪	2233
▁交流	2234
▁烤	2235
▁说不	2236
▁膜	2237
▁倍	2238
▁得了	2239
ve	2240
is	2241
▁尝	2242
▁真爱	2243
▁结局	2244
▁拥	2245
▁别说	2246
▁欠	2247
▁美好	2248
▁作业	2249
▁玩意	2250
▁痘	2251
▁武汉	2252
▁亿	2253
▁扎	2254
▁操作	2255
▁花心	2256
▁抄	2257
▁镇	2258
▁进入	2259
▁差点	2260
▁去过	2261
▁客服	2262
▁哆	2263
▁内心	2264
▁尤其	2265
▁22	2266
▁姓	2267
▁诗	2268
▁说好	2269
▁墙	2270
▁来看	2271
▁流量	2272
▁2000	2273
▁喔	2274
▁台湾	2275
▁凭	2276
▁内容	2277
▁汽车	2278
▁判	2279
▁中心	2280
▁狮	2281
▁斯	2282
▁态	2283
▁暑假	2284
▁来一	2285
▁小号	2286
▁生气	2287
▁保证	2288
▁伴	2289
▁伊	2290
▁资料	2291
▁心态	2292
▁刻	2293
▁贝	2294
▁上来	2295
▁乌	2296
▁而是	2297
▁人物	2298
▁怀疑	2299
▁噗	2300
▁咸	2301
▁以及	2302
▁较	2303
▁高兴	2304
▁赛季	2305
▁浪费	2306
▁冠军	2307
▁康	2308
▁又要	2309
▁支付	2310
▁旧	2311
▁瞬	2312
▁三星	2313
▁分数	2314
▁长大	2315
▁桃	2316
▁采	2317
▁胶	2318
▁广东	2319
es	2320
▁说不定	2321
▁尼玛	2322
▁孕	2323
▁笔记	2324
▁一遍	2325
▁有用	2326
▁毫	2327
▁夫	2328
▁萝	2329
▁大师	2330
▁狼	2331
▁概	2332
▁员	2333
▁婆	2334
▁踩	2335
▁弟弟	2336
▁吐槽	2337
▁基础	2338
▁N	2339
▁刚才	2340
▁司机	2341
▁礼物	2342
▁赚钱	2343
ad	2344
▁通知	2345
▁责	2346
▁实习	2347
▁😒	2348
▁迪	2349
▁▽	2350
▁臭	2351
▁二手	2352
▁贱	2353
▁保持	2354
▁杭	2355
▁洞	2356
▁阶	2357
▁电池	2358
▁明星	2359
▁楼下	2360
ood	2361
▁丰	2362
▁逆	2363
▁教练	2364
▁东北	2365
▁媳	2366
▁计划	2367
▁最高	2368
▁做好	2369
▁感动	2370
▁花钱	2371
am	2372
▁田	2373
▁搞笑	2374
▁盗	2375
▁体重	2376
▁默默	2377
▁寻	2378
▁崩溃	2379
▁剩下	2380
▁玻	2381
▁湿	2382
▁媳妇	2383
▁态度	2384
▁承认	2385
▁激动	2386
▁毁	2387
▁bu	2388
▁数学	2389
▁卓	2390
▁亲爱	2391
▁矮	2392
▁避	2393
▁同样	2394
▁藏	2395
▁买到	2396
▁嫌弃	2397
▁读书	2398
▁监	2399
▁山东	2400
▁撩	2401
▁砍	2402
▁漏	2403
▁煮	2404
▁之一	2405
▁对不起	2406
▁引起	2407
▁风格	2408
▁做到	2409
▁大叔	2410
▁骗子	2411
▁化妆	2412
▁国际	2413
▁攻击	2414
▁文件	2415
▁保险	2416
▁报名	2417
▁距离	2418
▁为何	2419
▁领导	2420
▁方向	2421
▁执	2422
▁机器	2423
▁28	2424
▁详	2425
▁协	2426
▁劲	2427
▁运气	2428
▁主角	2429
▁航	2430
▁男友	2431
▁损	2432
▁真好	2433
▁半夜	2434
▁演员	2435
咨询	2436
▁十几	2437
▁ip	2438
▁H	2439
▁卤	2440
▁纪	2441
▁裙	2442
▁训	2443
▁😱	2444
▁频	2445
▁锻	2446
▁恭喜	2447
▁逃	2448
▁上学	2449
om	2450
el	2451
▁想着	2452
▁拿到	2453
▁70	2454
▁驱	2455
▁平台	2456
▁水果	2457
▁天下	2458
ow	2459
▁潜	2460
if	2461
▁持	2462
▁几十	2463
▁蒙	2464
▁征	2465
▁挤眼	2466
▁一群	2467
▁脾气	2468
▁正好	2469
▁全国	2470
▁家庭	2471
▁截图	2472
▁迟	2473
▁咨询	2474
▁白色	2475
▁初中	2476
▁徐	2477
▁考研	2478
▁35	2479
▁违	2480
▁蠢	2481
▁撑	2482
▁见到	2483
ic	2484
▁瞬间	2485
▁分析	2486
▁注册	2487
▁界	2488
▁撞	2489
▁队友	2490
▁漫画	2491
▁球迷	2492
▁疑	2493
▁鲁	2494
▁获	2495
▁洋	2496
▁万一	2497
▁童	2498
▁厕	2499
▁痛苦	2500
▁打死	2501
▁一万	2502
▁╯	2503
▁嗒嗒	2504
▁杭州	2505
▁套路	2506
▁寝室	2507
▁飘	2508
▁大大	2509
▁相当	2510
▁恐怖	2511
▁莫名	2512
▁神经	2513
▁狗狗	2514
▁碗	2515
▁开车	2516
▁扫	2517
▁公交	2518
▁哎呀	2519
▁雅	2520
▁鄙	2521
▁再来	2522
▁豪	2523
▁>	2524
▁后期	2525
▁妥	2526
▁计算	2527
▁丝	2528
▁岛	2529
as	2530
▁延	2531
▁一波	2532
▁或许	2533
▁华为	2534
▁暂时	2535
▁E	2536
▁印象	2537
▁竞	2538
▁尽量	2539
▁甚至	2540
▁年纪	2541
▁狠	2542
▁式	2543
▁赔	2544
▁工程	2545
▁篮	2546
▁参考	2547
▁索	2548
▁挡	2549
▁听到	2550
▁串	2551
▁玻璃	2552
▁留下	2553
▁午	2554
▁四川	2555
▁祝福	2556
▁绑	2557
▁贼	2558
▁体验	2559
▁充电	2560
▁同事	2561
▁满足	2562
▁景	2563
▁电子	2564
▁按照	2565
▁西安	2566
▁拳	2567
▁动物	2568
▁鉴	2569
▁能够	2570
▁续	2571
▁营养	2572
▁肝	2573
▁憋	2574
▁包括	2575
▁玩笑	2576
▁阿姨	2577
▁曼	2578
▁液	2579
▁餐	2580
▁瓜	2581
▁目标	2582
▁墨	2583
▁料	2584
▁关心	2585
▁跟着	2586
▁属性	2587
▁啧	2588
▁朱	2589
▁99	2590
▁京东	2591
▁烫	2592
▁粘	2593
▁女孩子	2594
▁日常	2595
▁类型	2596
▁稀	2597
▁地铁	2598
▁动画	2599
▁凤	2600
▁抵	2601
▁处女	2602
▁无论	2603
▁展	2604
▁3000	2605
▁玩家	2606
us	2607
▁з	2608
▁托	2609
▁刺	2610
▁快点	2611
▁啪	2612
▁帮助	2613
▁厕所	2614
▁好奇	2615
▁照顾	2616
▁门口	2617
▁专门	2618
▁泥	2619
▁脏	2620
▁歪	2621
▁.[	2622
▁交易	2623
▁恨	2624
▁答案	2625
▁作品	2626
▁即使	2627
▁欣	2628
▁师傅	2629
▁失败	2630
▁指导	2631
▁离婚	2632
▁过程	2633
ta	2634
▁舔	2635
▁鄙视	2636
▁健身	2637
▁冻	2638
\\	2639
▁小白	2640
▁碰到	2641
▁安慰	2642
▁真实	2643
▁钟	2644
▁享	2645
▁新人	2646
▁虫	2647
▁卵	2648
▁人类	2649
▁库	2650
▁会员	2651
▁生命	2652
▁厨	2653
▁😁	2654
▁室友	2655
▁腾	2656
▁对比	2657
▁本科	2658
▁哼哼	2659
▁船	2660
▁类似	2661
▁陆	2662
▁卸	2663
▁腹	2664
re	2665
one	2666
▁供	2667
▁晓得	2668
▁😘	2669
▁责任	2670
▁在乎	2671
▁窗	2672
▁地区	2673
▁聪	2674
▁胎	2675
▁`	2676
-2	2677
▁笑死	2678
▁祖	2679
▁并且	2680
▁天津	2681
-0	2682
▁荣耀	2683
▁🙏	2684
▁翻译	2685
▁in	2686
▁在线	2687
▁幻	2688
▁旅行	2689
▁青春	2690
▁锻炼	2691
▁露珠	2692
▁W	2693
▁几百	2694
▁浙	2695
▁语言	2696
▁三十	2697
▁黄金	2698
▁ps	2699
▁现场	2700
▁戳	2701
▁组织	2702
▁糊	2703
▁相对	2704
▁爸妈	2705
▁国产	2706
▁略	2707
▁面试	2708
▁源	2709
▁唔	2710
▁榜	2711
▁塔	2712
▁污	2713
▁堵	2714
▁在意	2715
▁完成	2716
ig	2717
▁佩	2718
▁X	2719
▁老是	2720
▁男女	2721
▁演唱	2722
▁灭	2723
▁甘	2724
▁表白	2725
▁红色	2726
▁肾	2727
▁材料	2728
▁等级	2729
▁负责	2730
▁欺负	2731
▁等到	2732
▁月亮	2733
▁动作	2734
▁缓	2735
▁欲	2736
▁诺	2737
▁宠物	2738
▁价值	2739
▁嘉	2740
▁←	2741
▁娱	2742
▁有关	2743
▁魂	2744
▁66	2745
▁话题	2746
11	2747
▁ma	2748
▁仅	2749
▁稍微	2750
▁吃完	2751
▁端	2752
▁成熟	2753
▁想象	2754
▁呃	2755
▁喝酒	2756
▁囧	2757
▁启	2758
▁喽	2759
▁脑残	2760
▁旗	2761
▁26	2762
▁到处	2763
▁女友	2764
▁白眼	2765
▁例	2766
▁下班	2767
▁横	2768
▁录取	2769
▁击	2770
▁白天	2771
▁程度	2772
▁孔	2773
▁蜜	2774
▁原谅	2775
▁宣传	2776
▁半天	2777
.3	2778
▁食物	2779
▁抱抱	2780
ia	2781
▁掌	2782
▁姨妈	2783
▁公主	2784
▁弯	2785
▁婊	2786
▁触	2787
▁耳机	2788
▁一生	2789
▁届	2790
▁凌	2791
▁小姐	2792
▁作者	2793
▁诚	2794
▁鼠	2795
▁浮	2796
▁能量	2797
▁球队	2798
▁沈	2799
▁土豪	2800
▁愉	2801
▁体育	2802
▁屋	2803
▁顾	2804
▁单纯	2805
▁秦	2806
▁着急	2807
▁余	2808
▁提高	2809
▁饼	2810
▁you	2811
▁摸摸	2812
▁故意	2813
▁购买	2814
▁卤煮	2815
▁帅哥	2816
▁见面	2817
▁用来	2818
▁洗澡	2819
▁隔壁	2820
▁科学	2821
▁反而	2822
▁温度	2823
▁玫	2824
▁酒店	2825
▁钓	2826
▁描	2827
▁咖啡	2828
▁狮子	2829
▁唱歌	2830
▁染	2831
▁91	2832
it	2833
▁罢	2834
▁学期	2835
▁资格	2836
▁32	2837
▁聪明	2838
▁变化	2839
▁史	2840
▁尺	2841
▁跑步	2842
▁\#\#	2843
▁园	2844
▁优惠	2845
▁宋	2846
▁身材	2847
▁验	2848
he	2849
▁接触	2850
▁等于	2851
▁返	2852
▁搜索	2853
▁邪	2854
▁秘	2855
▁27	2856
▁学会	2857
▁嘘	2858
▁肠	2859
▁看上	2860
▁彻	2861
▁紧张	2862
▁薄	2863
▁新手	2864
▁仓	2865
▁知识	2866
▁桥	2867
▁中文	2868
▁上网	2869
▁演技	2870
▁国外	2871
▁眉	2872
▁川	2873
▁加入	2874
▁回头	2875
▁敏	2876
▁力量	2877
▁表达	2878
▁英文	2879
▁跨	2880
▁豆瓣	2881
▁帽	2882
▁阳光	2883
▁恒	2884
▁珠	2885
▁桑	2886
▁提醒	2887
▁错过	2888
▁lol	2889
▁400	2890
▁45	2891
▁符合	2892
▁爆炸	2893
▁页	2894
▁艺术	2895
▁安排	2896
▁仔细	2897
▁造成	2898
▁路人	2899
▁超市	2900
▁小伙	2901
▁抛	2902
▁要死	2903
▁森	2904
ro	2905
▁凶	2906
▁增加	2907
价比	2908
▁性价比	2909
▁坐标	2910
▁活着	2911
▁眼镜	2912
▁起床	2913
▁再见	2914
▁神马	2915
▁培训	2916
12	2917
▁温柔	2918
good	2919
▁电信	2920
▁鸭	2921
▁战斗	2922
▁即可	2923
▁美丽	2924
▁人员	2925
▁校区	2926
▁捏	2927
▁企业	2928
▁江苏	2929
▁少年	2930
▁大小	2931
ang	2932
▁南方	2933
▁╰	2934
▁2017	2935
▁沟	2936
▁鲜花	2937
▁性能	2938
▁症状	2939
▁角度	2940
▁刚好	2941
▁傻眼	2942
▁佳	2943
▁娱乐	2944
mm	2945
▁遇见	2946
▁达到	2947
▁牵	2948
▁胖子	2949
▁差距	2950
▁汉子	2951
▁win	2952
▁入手	2953
▁溜	2954
▁蛋糕	2955
▁投资	2956
▁胆	2957
▁事业	2958
▁甜馨	2959
▁珍惜	2960
il	2961
▁摇	2962
▁客户	2963
▁这款	2964
▁躲	2965
▁合作	2966
▁提供	2967
▁输出	2968
▁这点	2969
▁夹	2970
▁闺蜜	2971
▁轻松	2972
▁均	2973
▁账号	2974
▁坦	2975
▁️	2976
▁新生	2977
▁情人	2978
▁出生	2979
ab	2980
▁老人	2981
▁°	2982
▁发货	2983
▁╭	2984
▁输入	2985
▁卫生	2986
▁蛇	2987
▁笔记本	2988
▁则	2989
▁ok	2990
▁好人	2991
▁罪	2992
▁回忆	2993
▁发型	2994
▁炫	2995
▁乳	2996
▁😄	2997
▁主板	2998
▁嘤	2999
▁鸡蛋	3000
▁电源	3001
▁上午	3002
▁其它	3003
▁天蝎	3004
▁开发	3005
▁最低	3006
▁河南	3007
▁纳	3008
▁足球	3009
▁面对	3010
▁排名	3011
▁动漫	3012
▁一两	3013
▁玩玩	3014
▁列	3015
▁裤子	3016
▁满意	3017
▁杜	3018
▁郭	3019
▁150	3020
▁天使	3021
▁瑞	3022
▁爱上	3023
▁杰	3024
▁整天	3025
▁面前	3026
▁背景	3027
▁F	3028
▁提示	3029
▁且	3030
▁晗	3031
▁╮	3032
▁咳	3033
▁其中	3034
▁思想	3035
▁复习	3036
▁允	3037
▁盐	3038
▁济	3039
un	3040
▁玫瑰	3041
▁硬盘	3042
▁以下	3043
▁本事	3044
▁丫	3045
▁北方	3046
▁会计	3047
▁侠	3048
▁吃药	3049
▁凡	3050
▁愉快	3051
▁乔	3052
▁鞋子	3053
▁好嘛	3054
▁地图	3055
▁抱歉	3056
▁搭配	3057
▁袋	3058
▁丽	3059
▁警察	3060
▁腐	3061
▁否则	3062
▁徒	3063
▁售后	3064
▁文科	3065
▁看好	3066
▁空气	3067
▁信用	3068
▁砖	3069
▁画面	3070
▁自信	3071
▁好处	3072
▁添	3073
▁熟悉	3074
▁面膜	3075
▁回到	3076
▁响	3077
▁龟	3078
▁洛	3079
▁鉴定	3080
▁昆	3081
▁来来	3082
▁十二	3083
▁对呀	3084
▁级别	3085
▁怼	3086
▁羽	3087
▁键盘	3088
▁火锅	3089
▁一千	3090
▁当地	3091
▁宅	3092
▁办理	3093
▁评价	3094
▁福利	3095
▁号码	3096
▁好说	3097
▁镜头	3098
▁消费	3099
.8	3100
▁厦	3101
▁不止	3102
▁真相	3103
▁彻底	3104
▁爪	3105
▁偶像	3106
▁望	3107
▁腻	3108
▁拥有	3109
▁劝	3110
▁樱	3111
▁宇宙	3112
▁扑	3113
▁义	3114
▁说法	3115
▁传说	3116
▁自我	3117
▁币	3118
▁高三	3119
▁5000	3120
▁强大	3121
▁植	3122
▁55	3123
▁行为	3124
▁do	3125
▁依然	3126
▁长期	3127
▁经典	3128
▁棉	3129
▁正确	3130
▁岂	3131
▁浙江	3132
▁炎	3133
▁辞	3134
▁收费	3135
▁短信	3136
▁相关	3137
▁大陆	3138
▁看书	3139
▁侧	3140
▁这事	3141
▁锤	3142
▁tm	3143
▁抹	3144
▁湖南	3145
▁猛	3146
▁app	3147
▁设定	3148
▁陌	3149
▁梦想	3150
▁饮食	3151
▁生产	3152
▁人气	3153
▁过敏	3154
▁有时	3155
▁项目	3156
▁点击	3157
▁攒	3158
▁爷爷	3159
▁来自	3160
▁这话	3161
▁辆	3162
▁V	3163
▁尝试	3164
▁浅	3165
▁限制	3166
▁😔	3167
▁qq	3168
▁姿	3169
▁制作	3170
▁取消	3171
▁幽	3172
▁详细	3173
▁蓝色	3174
▁相亲	3175
ac	3176
▁装修	3177
▁每年	3178
▁奶奶	3179
▁记住	3180
▁提升	3181
▁自带	3182
▁挨	3183
▁不服	3184
▁蒸	3185
▁独立	3186
▁失去	3187
▁'	3188
▁于是	3189
▁踏	3190
▁丁	3191
▁大腿	3192
▁罢了	3193
▁图书	3194
at	3195
▁嘲	3196
▁缩	3197
▁星座	3198
▁败	3199
▁法律	3200
▁生意	3201
滋滋	3202
▁点儿	3203
▁疑问	3204
▁‘	3205
oss	3206
▁优势	3207
▁萨	3208
▁好棒	3209
▁程序	3210
▁房间	3211
▁焦	3212
▁中医	3213
▁测试	3214
hone	3215
▁睡着	3216
▁婆婆	3217
▁扩	3218
▁吸引	3219
▁垫	3220
▁抬	3221
▁良心	3222
▁蹭	3223
▁浓	3224
▁危险	3225
40	3226
▁大人	3227
▁R	3228
▁享受	3229
▁连接	3230
▁规定	3231
▁吼	3232
15	3233
▁乡	3234
▁期间	3235
▁外国	3236
▁bb	3237
▁玄	3238
▁男孩	3239
▁棒棒	3240
▁配合	3241
▁饱	3242
▁骑士	3243
▁训练	3244
▁谷	3245
▁犹	3246
▁K	3247
▁实体	3248
▁120	3249
▁众	3250
▁蹲	3251
▁机械	3252
▁小区	3253
▁壳	3254
▁肩	3255
ir	3256
▁繁	3257
▁高速	3258
▁欧洲	3259
▁要脸	3260
▁丸	3261
▁喝水	3262
▁妆	3263
▁怂	3264
▁奥特	3265
▁sh	3266
▁一说	3267
▁裸	3268
▁销售	3269
▁任性	3270
▁品种	3271
▁合理	3272
▁致	3273
▁刮	3274
▁情绪	3275
▁腾讯	3276
▁无敌	3277
▁分开	3278
▁+1	3279
▁外地	3280
▁梗	3281
▁不准	3282
▁无限	3283
▁探	3284
▁孤独	3285
▁成长	3286
▁~[	3287
▁弃	3288
▁澳	3289
▁口味	3290
▁经过	3291
▁某些	3292
▁新年	3293
▁鼻子	3294
▁税	3295
▁发动	3296
▁调整	3297
▁苍	3298
▁傲	3299
▁动力	3300
▁连续	3301
▁青岛	3302
▁潮	3303
▁变得	3304
▁塑	3305
▁忧	3306
▁耗	3307
▁大多数	3308
▁枚	3309
▁耳朵	3310
▁科技	3311
▁😌	3312
▁好啦	3313
▁民族	3314
▁好累	3315
▁自行	3316
▁qw	3317
▁笨	3318
▁割	3319
▁寂	3320
▁石头	3321
▁娶	3322
▁早安	3323
▁詹	3324
▁令	3325
▁苗	3326
▁29	3327
▁握手	3328
▁辅助	3329
▁异地	3330
▁有效	3331
▁型号	3332
▁净	3333
▁逻	3334
▁卧	3335
▁复杂	3336
▁本地	3337
▁安利	3338
▁毫无	3339
▁•	3340
▁嗷	3341
▁倾	3342
▁多一	3343
▁600	3344
▁机场	3345
▁美滋滋	3346
▁逻辑	3347
▁感染	3348
▁范围	3349
▁农村	3350
▁气质	3351
▁36	3352
▁加班	3353
▁敌	3354
▁过分	3355
▁目的	3356
▁懂得	3357
▁170	3358
▁裙子	3359
▁联盟	3360
▁玛	3361
▁施	3362
▁错误	3363
▁文章	3364
▁后天	3365
▁厦门	3366
▁趁	3367
▁伪	3368
▁多多	3369
▁悬	3370
▁矫	3371
▁阅	3372
▁卖家	3373
▁赤	3374
▁地球	3375
▁汪	3376
▁果断	3377
▁价位	3378
▁仿	3379
▁人才	3380
▁广场	3381
▁犬	3382
▁庄	3383
▁理科	3384
▁办公	3385
▁360	3386
▁篮球	3387
▁qwq	3388
▁等待	3389
▁行业	3390
▁时期	3391
▁眼神	3392
▁盒子	3393
▁御	3394
▁介意	3395
▁似乎	3396
▁长沙	3397
▁黑线	3398
▁得意	3399
▁人品	3400
▁180	3401
▁老大	3402
▁图书馆	3403
▁雾	3404
▁两三	3405
▁举报	3406
▁娃娃	3407
▁菊	3408
▁正式	3409
▁联通	3410
▁呦	3411
▁不足	3412
▁追求	3413
▁cpu	3414
▁失眠	3415
▁ex	3416
▁熬夜	3417
▁昂	3418
▁时光	3419
▁正规	3420
▁射手	3421
▁固定	3422
▁666	3423
▁信号	3424
▁捞	3425
▁乘	3426
▁全新	3427
▁庆	3428
▁删除	3429
▁牛奶	3430
▁足够	3431
▁格式	3432
▁贪	3433
▁多么	3434
▁奇葩	3435
▁辽	3436
▁记忆	3437
▁800	3438
▁理论	3439
▁变态	3440
▁开机	3441
▁随意	3442
▁文字	3443
▁婚姻	3444
▁跌	3445
▁虾	3446
▁优秀	3447
▁意识	3448
▁受伤	3449
▁数字	3450
▁帖	3451
▁应用	3452
▁获得	3453
▁J	3454
▁爱好	3455
▁奥特曼	3456
▁无奈	3457
▁德国	3458
▁😍	3459
▁周围	3460
▁防守	3461
▁遮	3462
▁查询	3463
▁💪	3464
▁吖	3465
▁寸	3466
▁收入	3467
▁峰	3468
▁随时	3469
▁李易	3470
▁困难	3471
▁年代	3472
▁😊	3473
▁首页	3474
▁综合	3475
▁付出	3476
.4	3477
▁叔叔	3478
▁报道	3479
▁费用	3480
▁boss	3481
▁一共	3482
▁产生	3483
▁观察	3484
▁38	3485
▁lo	3486
▁工具	3487
et	3488
▁矛	3489
▁李易峰	3490
▁假期	3491
▁狗粮	3492
▁锦	3493
▁细节	3494
▁末	3495
▁就怕	3496
▁蜂	3497
▁媒	3498
▁安静	3499
▁政治	3500
▁2015	3501
▁不再	3502
▁食堂	3503
▁欣赏	3504
▁更加	3505
▁95	3506
▁敬	3507
▁智障	3508
▁志愿	3509
▁适应	3510
▁难度	3511
▁罚	3512
▁静静	3513
▁乃	3514
▁老实	3515
▁决赛	3516
▁有事	3517
▁匹	3518
▁慌	3519
▁娜	3520
▁贷款	3521
▁战争	3522
▁情侣	3523
▁最终	3524
▁霜	3525
▁店里	3526
▁or	3527
▁收藏	3528
▁出发	3529
▁肌肉	3530
▁他俩	3531
▁咸鱼	3532
▁笑话	3533
▁狐	3534
▁呜呜	3535
ifi	3536
▁召	3537
▁尖	3538
▁骂人	3539
▁---	3540
▁总之	3541
▁痴	3542
▁遭	3543
▁高级	3544
▁震惊	3545
▁女性	3546
▁它们	3547
▁俄	3548
▁都行	3549
▁萌萌	3550
▁先生	3551
▁馆	3552
▁橙	3553
▁葡	3554
▁彼	3555
▁药物	3556
▁盛	3557
▁难得	3558
.6	3559
▁针对	3560
18	3561
▁消失	3562
▁燕	3563
▁偷偷	3564
▁艹	3565
▁聊聊	3566
▁患	3567
▁Y	3568
▁生物	3569
▁行动	3570
▁曹	3571
▁摄影	3572
▁闻	3573
▁止	3574
▁闭嘴	3575
▁看出	3576
▁游泳	3577
▁郑州	3578
▁阻	3579
▁玩儿	3580
▁设备	3581
▁刘海	3582
▁从小	3583
▁军训	3584
ao	3585
▁允许	3586
▁对手	3587
▁勇气	3588
▁前提	3589
▁这位	3590
▁特效	3591
▁自从	3592
▁家长	3593
▁闷	3594
▁用户	3595
▁嘞	3596
▁琴	3597
▁很棒	3598
▁扒	3599
▁池	3600
▁妇	3601
▁大爷	3602
▁比例	3603
▁实现	3604
▁意外	3605
▁to	3606
▁惠	3607
▁成本	3608
▁兽	3609
▁蟹	3610
▁不仅	3611
▁咦	3612
▁奶粉	3613
▁平均	3614
▁汇	3615
▁现代	3616
▁螺	3617
▁理想	3618
▁文艺	3619
▁痘痘	3620
▁铺	3621
▁48	3622
▁手里	3623
▁特殊	3624
▁标题	3625
▁何必	3626
▁U	3627
▁❤	3628
▁吵架	3629
▁折腾	3630
▁描述	3631
▁实验	3632
▁勤	3633
▁好事	3634
▁小学生	3635
▁寂寞	3636
ti	3637
▁大妈	3638
▁苏州	3639
▁般	3640
▁吓死	3641
▁造型	3642
▁骗人	3643
▁国庆	3644
▁疯狂	3645
▁98	3646
▁做饭	3647
▁回归	3648
▁夺	3649
▁埋	3650
▁亲戚	3651
▁帽子	3652
▁看懂	3653
▁象	3654
▁驱动	3655
▁个个	3656
▁循	3657
▁英国	3658
▁相机	3659
▁物理	3660
▁交通	3661
▁找找	3662
▁猎	3663
▁宗	3664
▁户口	3665
▁蜡	3666
▁练习	3667
▁壮	3668
▁合同	3669
▁术	3670
▁bug	3671
▁咋办	3672
▁裁	3673
▁发布	3674
▁吞	3675
▁被骗	3676
▁俱	3677
▁伟	3678
▁说到	3679
▁削	3680
▁云南	3681
▁阶段	3682
▁摩羯	3683
▁嫩	3684
▁掏	3685
▁定位	3686
▁心中	3687
▁学妹	3688
▁检测	3689
▁建筑	3690
▁葡萄	3691
▁绿色	3692
▁主题	3693
▁不死	3694
▁统一	3695
cm	3696
▁啧啧	3697
▁总会	3698
▁成年	3699
▁楚	3700
▁解答	3701
▁荒	3702
▁me	3703
▁不断	3704
▁团队	3705
▁姐妹	3706
▁眼里	3707
▁😏	3708
▁眼熟	3709
▁不爽	3710
▁补充	3711
▁想过	3712
▁4000	3713
▁捧	3714
▁蚊	3715
▁融	3716
▁⋯	3717
▁做梦	3718
▁丹	3719
▁性别	3720
▁右边	3721
▁老家	3722
▁郁	3723
.9	3724
▁遗憾	3725
▁微风	3726
▁note	3727
pl	3728
▁😃	3729
▁中药	3730
▁预算	3731
16	3732
▁脖	3733
▁勉	3734
▁惯	3735
▁典	3736
▁组合	3737
▁两只	3738
▁进步	3739
▁策	3740
▁碧	3741
▁吓人	3742
ch	3743
▁要不然	3744
▁族	3745
▁勇士	3746
▁燃	3747
▁疾	3748
▁勾搭	3749
AQ	3750
▁联赛	3751
▁桂	3752
▁五十	3753
▁笼	3754
▁绝望	3755
▁收拾	3756
▁印度	3757
▁论文	3758
▁神奇	3759
▁壁	3760
▁依旧	3761
▁st	3762
▁忠	3763
nd	3764
ps	3765
▁善良	3766
.7	3767
▁网吧	3768
▁发给	3769
▁尊重	3770
▁零食	3771
▁月经	3772
▁霍	3773
▁公园	3774
▁癌	3775
▁形容	3776
▁歌手	3777
▁小孩子	3778
▁拿来	3779
▁接着	3780
▁温暖	3781
▁阵容	3782
▁专科	3783
▁硕	3784
▁最强	3785
▁🐶	3786
id	3787
▁́	3788
▁ss	3789
▁几率	3790
▁润	3791
▁十分	3792
▁年级	3793
▁一会儿	3794
▁「	3795
▁平安	3796
▁啦啦	3797
▁大众	3798
▁荷	3799
90	3800
▁证据	3801
▁平衡	3802
ie	3803
▁罐	3804
▁粮	3805
▁麻麻	3806
▁猴子	3807
▁厘	3808
▁热闹	3809
▁矛盾	3810
▁滋	3811
▁莲	3812
igh	3813
▁扭	3814
▁wifi	3815
▁re	3816
▁培养	3817
▁厅	3818
▁礼拜	3819
▁短发	3820
▁摩托	3821
▁勒	3822
▁周六	3823
▁发动机	3824
▁33	3825
▁顺利	3826
▁仇	3827
▁导演	3828
▁扶	3829
▁平常	3830
▁越多	3831
▁强行	3832
▁指点	3833
▁大连	3834
▁修改	3835
▁愁	3836
ff	3837
▁高端	3838
▁价钱	3839
▁不及	3840
▁水瓶	3841
▁诸	3842
▁堂	3843
▁周一	3844
▁妞	3845
▁淋	3846
▁瓦	3847
▁差别	3848
▁报警	3849
▁宜	3850
▁88	3851
▁打工	3852
▁完整	3853
▁学历	3854
▁前期	3855
▁热水	3856
▁人口	3857
▁脆	3858
▁由于	3859
▁风景	3860
▁无线	3861
▁芒	3862
▁越好	3863
▁QAQ	3864
▁形象	3865
▁绕	3866
▁缘分	3867
▁植物	3868
▁左边	3869
▁盾	3870
▁桶	3871
▁哄	3872
▁维修	3873
▁代理	3874
▁投票	3875
▁旺	3876
▁济南	3877
▁还算	3878
▁孩	3879
▁及时	3880
▁手动	3881
▁新疆	3882
▁爱吃	3883
▁识	3884
▁土豆	3885
▁叶子	3886
▁包装	3887
▁帐	3888
▁放下	3889
▁何况	3890
▁这儿	3891
▁挑战	3892
▁境	3893
▁揍	3894
▁新鲜	3895
▁耐心	3896
▁∩	3897
▁遥	3898
▁皇马	3899
▁始	3900
▁显得	3901
▁64	3902
▁请教	3903
▁现象	3904
im	3905
▁高手	3906
▁手指	3907
▁部门	3908
▁主人	3909
▁抖	3910
▁车子	3911
▁无关	3912
▁面包	3913
▁还给	3914
▁三四	3915
▁语文	3916
▁敲	3917
▁精灵	3918
▁捉	3919
▁煎	3920
▁接近	3921
▁主播	3922
▁化学	3923
▁几千	3924
▁铜	3925
▁幸运	3926
▁整体	3927
▁计算机	3928
▁主流	3929
▁出轨	3930
▁满满	3931
▁相处	3932
▁公务	3933
▁判断	3934
▁邓	3935
▁画风	3936
▁立马	3937
▁2016	3938
▁]\#	3939
▁循环	3940
▁嫉	3941
▁脂	3942
ke	3943
▁糟	3944
▁从来不	3945
▁脖子	3946
▁体会	3947
▁带来	3948
▁有趣	3949
▁迎	3950
▁柯	3951
▁投诉	3952
▁待遇	3953
▁学费	3954
▁登录	3955
▁美美	3956
▁儿童	3957
▁vi	3958
▁淡定	3959
▁低调	3960
▁兼	3961
▁事件	3962
▁娇	3963
▁观众	3964
▁柜	3965
▁风险	3966
▁观点	3967
▁运行	3968
▁靴	3969
▁业务	3970
▁巨蟹	3971
▁佩服	3972
▁浇	3973
▁好呀	3974
▁带走	3975
▁yy	3976
▁发挥	3977
▁咧	3978
▁确认	3979
▁熊猫	3980
▁围观	3981
▁恩爱	3982
▁嫉妒	3983
vp	3984
▁送给	3985
▁走路	3986
▁伦	3987
▁嘴巴	3988
▁自习	3989
▁小小	3990
▁播放	3991
▁青年	3992
▁保养	3993
▁敏感	3994
▁惊喜	3995
▁政策	3996
▁仙女	3997
▁加速	3998
▁校园	3999
-3	4000
▁厘米	4001
▁恒大	4002
▁到手	4003
25	4004
▁姜	4005
▁激活	4006
▁贫	4007
▁丧	4008
▁沟通	4009
▁箱子	4010
▁巴萨	4011
▁唇	4012
▁纪念	4013
▁强迫	4014
▁诱	4015
▁下周	4016
17	4017
▁尾巴	4018
▁拦	4019
▁僵	4020
▁1500	4021
▁全都	4022
▁概念	4023
▁外观	4024
▁和谐	4025
▁打完	4026
▁寿	4027
▁摊	4028
▁矿	4029
od	4030
▁伸	4031
▁趴	4032
▁幼儿	4033
▁框	4034
▁爆发	4035
▁贤	4036
▁搞定	4037
▁痒	4038
▁媒体	4039
▁37	4040
▁固态	4041
▁尸	4042
▁启动	4043
▁xx	4044
▁抑	4045
▁打架	4046
▁梦见	4047
▁懵	4048
▁专辑	4049
▁iphone	4050
▁成就	4051
▁西瓜	4052
▁公务员	4053
▁多长	4054
▁怀念	4055
▁电动	4056
▁难看	4057
▁肺	4058
▁暴露	4059
▁精彩	4060
▁双子	4061
▁传统	4062
▁路线	4063
▁猪头	4064
▁日语	4065
▁全家	4066
▁so	4067
▁消化	4068
▁有限	4069
▁包子	4070
▁面子	4071
▁OK	4072
▁到家	4073
▁陌生	4074
▁美人	4075
go	4076
▁河北	4077
▁王子	4078
▁洁	4079
▁人人	4080
▁哲	4081
▁开放	4082
▁召唤	4083
▁表演	4084
▁可能性	4085
▁小哥	4086
▁歌词	4087
▁士	4088
▁敷	4089
▁势	4090
▁大街	4091
▁东方	4092
▁死亡	4093
▁井	4094
▁沈阳	4095
▁皇帝	4096
▁吊打	4097
▁散热	4098
▁客气	4099
▁魅族	4100
▁瞧	4101
▁利用	4102
▁杀人	4103
▁朵	4104
▁se	4105
▁师兄	4106
▁眼泪	4107
▁眼光	4108
▁姿势	4109
▁来得	4110
其妙	4111
▁好歹	4112
▁沙发	4113
▁营业	4114
▁快速	4115
▁辞职	4116
▁赫	4117
▁风扇	4118
▁老乡	4119
▁钻石	4120
▁sb	4121
▁病毒	4122
▁👏	4123
大利	4124
▁be	4125
▁莫名其妙	4126
▁保存	4127
▁犹豫	4128
▁店铺	4129
▁脑袋	4130
▁婴	4131
▁桃花	4132
▁抽烟	4133
▁竹	4134
▁巅	4135
▁肤	4136
▁手续	4137
▁灿	4138
▁百姓	4139
▁看法	4140
▁避免	4141
▁莱	4142
▁加强	4143
▁不得不	4144
▁队长	4145
▁背后	4146
▁目测	4147
▁柔	4148
下来	4149
▁接下来	4150
▁流行	4151
▁进攻	4152
▁悟	4153
▁舍得	4154
▁路由	4155
▁做完	4156
▁呼吸	4157
▁气死	4158
▁复制	4159
▁修复	4160
▁指甲	4161
▁牛肉	4162
▁仁	4163
▁梁	4164
▁答应	4165
▁杆	4166
▁周五	4167
▁周边	4168
▁照样	4169
▁弱智	4170
▁氪	4171
▁丰富	4172
▁最佳	4173
▁烈	4174
▁钥	4175
▁面积	4176
▁对着	4177
▁房价	4178
▁护肤	4179
▁芝	4180
▁彼此	4181
▁发烧	4182
▁内部	4183
▁体检	4184
▁说出	4185
▁\\	4186
▁嘎	4187
▁<	4188
▁盲	4189
▁不值	4190
▁缸	4191
▁破坏	4192
▁争取	4193
▁抄袭	4194
▁柳	4195
▁su	4196
▁美食	4197
▁清理	4198
▁安徽	4199
▁白羊	4200
▁好感	4201
▁75	4202
▁早餐	4203
▁在于	4204
▁早起	4205
▁太太	4206
▁旋	4207
▁姬	4208
▁需求	4209
▁耽	4210
▁翔	4211
▁开通	4212
▁舰	4213
▁31	4214
▁天才	4215
▁地位	4216
▁泰国	4217
▁积极	4218
▁四十	4219
▁真人	4220
▁].[	4221
▁刹	4222
▁矫情	4223
克力	4224
▁氧	4225
▁金融	4226
▁勉强	4227
▁办公室	4228
▁正经	4229
▁天生	4230
▁许多	4231
▁晋	4232
▁夸张	4233
oy	4234
▁三国	4235
▁您好	4236
▁出国	4237
▁自行车	4238
▁撤	4239
▁划算	4240
▁再次	4241
▁『	4242
▁多谢	4243
▁钥匙	4244
▁ad	4245
▁自身	4246
▁晴	4247
▁仍	4248
▁白菜	4249
▁主力	4250
▁签到	4251
iu	4252
▁中学	4253
▁编剧	4254
▁裂	4255
▁打击	4256
▁开头	4257
▁股票	4258
▁寒假	4259
▁前任	4260
▁登陆	4261
▁公开	4262
▁孕妇	4263
▁排队	4264
▁好心	4265
▁家伙	4266
▁前天	4267
▁著	4268
▁幂	4269
▁添加	4270
▁晨	4271
▁人民币	4272
▁驾驶	4273
▁抢到	4274
▁双眼	4275
乐部	4276
▁俱乐部	4277
▁作死	4278
▁全身	4279
▁复活	4280
▁就叫	4281
▁ch	4282
▁准确	4283
▁告知	4284
▁菲	4285
▁利益	4286
▁一阵	4287
▁漆	4288
▁|	4289
▁单独	4290
▁信仰	4291
▁学弟	4292
▁用心	4293
▁那时	4294
▁释	4295
aq	4296
▁票房	4297
▁挣钱	4298
▁啤	4299
▁做人	4300
▁签名	4301
▁膜拜	4302
▁伐	4303
▁65	4304
▁片子	4305
▁就业	4306
▁好美	4307
▁福建	4308
▁芒果	4309
▁好帅	4310
▁披	4311
▁显示器	4312
▁部队	4313
▁案	4314
▁扛	4315
▁ios	4316
▁缝	4317
▁感到	4318
▁忽悠	4319
▁绑定	4320
▁市区	4321
▁概率	4322
▁某人	4323
▁春天	4324
▁噶	4325
▁规则	4326
▁舌	4327
▁掐	4328
▁巅峰	4329
罗斯	4330
▁穿越	4331
▁the	4332
▁豆腐	4333
▁双方	4334
▁巡	4335
▁奋	4336
▁ge	4337
▁鼠标	4338
▁卢	4339
▁×	4340
▁共同	4341
▁母亲	4342
▁那段	4343
▁34	4344
▁机构	4345
▁gay	4346
▁兑	4347
▁穿着	4348
▁双鱼	4349
▁预约	4350
▁突破	4351
▁出场	4352
▁十五	4353
▁流畅	4354
▁大学生	4355
_^	4356
▁牧	4357
▁付款	4358
▁牙齿	4359
▁暴力	4360
▁时刻	4361
▁岗	4362
▁预告	4363
▁券	4364
▁少吃	4365
▁粥	4366
▁相比	4367
▁啃	4368
▁pro	4369
▁1.5	4370
▁听听	4371
▁体质	4372
▁全程	4373
▁帅气	4374
▁道歉	4375
▁朝鲜	4376
▁三观	4377
▁核心	4378
▁啪啪	4379
▁缺点	4380
▁160	4381
▁摘	4382
▁栋	4383
▁歌曲	4384
▁明确	4385
▁购物	4386
▁塑料	4387
▁工业	4388
▁萝莉	4389
▁醒来	4390
▁灌	4391
▁被子	4392
▁迈	4393
▁拜托	4394
ed	4395
▁体力	4396
▁冷静	4397
▁妻	4398
▁丢人	4399
▁轴	4400
▁乙	4401
▁科目	4402
▁澡	4403
▁到位	4404
▁沾	4405
▁尺寸	4406
▁非洲	4407
▁旗舰	4408
▁大号	4409
▁霸气	4410
▁ha	4411
▁物质	4412
▁重启	4413
▁十八	4414
▁机子	4415
▁吃货	4416
▁销量	4417
ut	4418
▁竞争	4419
▁下子	4420
▁屠	4421
▁郁闷	4422
▁验证	4423
▁上天	4424
▁菊花	4425
▁联想	4426
▁蛋白	4427
▁死人	4428
▁充满	4429
▁蔬	4430
▁搓	4431
▁蹦	4432
▁钱包	4433
姆斯	4434
▁冲动	4435
▁199	4436
▁道德	4437
▁睁	4438
▁00	4439
▁直到	4440
▁再买	4441
▁浏	4442
▁幼儿园	4443
▁就该	4444
▁打包	4445
▁营销	4446
▁巧克力	4447
▁无数	4448
▁挽	4449
▁对待	4450
▁dd	4451
▁85	4452
▁恩恩	4453
▁湖北	4454
▁湾	4455
▁天真	4456
▁律	4457
▁信心	4458
▁人们	4459
ba	4460
▁吸收	4461
▁黄色	4462
▁雄	4463
▁衬	4464
▁qaq	4465
▁冰箱	4466
▁适当	4467
▁原创	4468
▁心脏	4469
▁上线	4470
▁星星	4471
▁教程	4472
▁淘汰	4473
▁至今	4474
▁浩	4475
▁灵魂	4476
▁真假	4477
▁膏	4478
▁会儿	4479
▁仪	4480
▁滑稽	4481
▁安心	4482
▁商业	4483
▁长相	4484
▁盯	4485
▁清新	4486
▁次元	4487
▁数量	4488
▁套餐	4489
▁摄像	4490
▁驾照	4491
▁on	4492
ter	4493
▁轰	4494
▁迅	4495
▁表面	4496
▁受到	4497
▁总结	4498
▁借口	4499
▁哎哟	4500
▁想念	4501
▁中华	4502
▁郎	4503
▁地下	4504
▁得瑟	4505
▁辽宁	4506
▁机智	4507
▁好些	4508
▁招生	4509
▁毛线	4510
▁打印	4511
▁邮箱	4512
▁勿	4513
▁玩具	4514
▁法国	4515
▁智能	4516
▁斑	4517
▁邀	4518
▁服用	4519
▁公平	4520
▁结合	4521
▁轩	4522
▁噜	4523
生素	4524
▁厂家	4525
▁老鼠	4526
▁粒	4527
▁小三	4528
▁胡子	4529
▁魅力	4530
▁晚饭	4531
▁啤酒	4532
▁献	4533
▁队伍	4534
▁主义	4535
▁110	4536
▁将来	4537
▁2.	4538
35	4539
▁收视	4540
▁麻将	4541
▁古代	4542
▁吃吃	4543
▁秘密	4544
▁凌晨	4545
▁睡眠	4546
▁奈	4547
▁夫妻	4548
▁劳动	4549
▁相同	4550
▁大量	4551
▁傻子	4552
▁拐	4553
▁后台	4554
▁po	4555
▁画画	4556
▁怨	4557
▁人间	4558
▁好运	4559
▁哈尔	4560
▁科普	4561
▁最少	4562
▁奖励	4563
▁因素	4564
▁拯	4565
▁开启	4566
▁网页	4567
▁语音	4568
▁・	4569
▁朴	4570
▁有毒	4571
▁梦到	4572
▁恰	4573
▁正品	4574
▁拯救	4575
▁天猫	4576
▁发育	4577
▁减少	4578
▁吻	4579
▁机票	4580
▁宾	4581
▁资金	4582
▁攻略	4583
ap	4584
▁蔬菜	4585
▁季节	4586
▁信任	4587
▁滤	4588
▁炉	4589
▁萧	4590
▁指望	4591
▁文明	4592
▁拿去	4593
▁正面	4594
▁黑子	4595
▁浏览	4596
▁父亲	4597
▁女子	4598
▁就问	4599
▁过后	4600
▁眉毛	4601
▁纹身	4602
▁捂	4603
▁综艺	4604
▁四五	4605
▁外卖	4606
▁剁	4607
▁曝	4608
▁42	4609
▁穆	4610
▁积分	4611
▁好找	4612
▁酱油	4613
▁出手	4614
▁排位	4615
▁打折	4616
▁要好	4617
▁卸载	4618
▁傲娇	4619
▁教室	4620
100	4621
▁贡	4622
▁热情	4623
▁服务器	4624
▁磁	4625
▁上升	4626
▁扇	4627
▁理智	4628
▁伞	4629
▁关闭	4630
▁』	4631
▁烦恼	4632
▁俗	4633
▁一线	4634
▁充值	4635
▁魔法	4636
▁棵	4637
▁阅读	4638
▁名单	4639
▁持续	4640
▁商城	4641
▁档次	4642
▁幻想	4643
▁哎呦	4644
▁食品	4645
88	4646
▁孝	4647
▁后卫	4648
▁骨头	4649
▁注定	4650
▁建设	4651
oc	4652
▁😝	4653
▁重复	4654
▁实用	4655
▁自家	4656
▁上火	4657
▁强烈	4658
▁各个	4659
▁防晒	4660
▁黑暗	4661
▁棒子	4662
▁预定	4663
▁金牛	4664
▁加点	4665
▁一面	4666
▁完结	4667
▁维护	4668
▁不和	4669
▁代言	4670
▁翼	4671
▁初恋	4672
▁乖乖	4673
▁亦	4674
▁屏蔽	4675
▁分别	4676
▁传奇	4677
▁中介	4678
▁口水	4679
▁报告	4680
▁欢乐	4681
▁服装	4682
ot	4683
▁饺	4684
▁查看	4685
▁蜡烛	4686
▁圣诞	4687
▁同感	4688
▁邻	4689
ly	4690
▁其次	4691
▁调理	4692
▁关机	4693
▁俊	4694
▁途	4695
▁火箭	4696
aby	4697
▁三千	4698
▁匹配	4699
▁周年	4700
▁金币	4701
▁去掉	4702
▁鲜肉	4703
▁妈呀	4704
▁槽	4705
▁原著	4706
▁那位	4707
▁大堆	4708
▁嘤嘤	4709
▁放松	4710
vo	4711
▁求解	4712
▁临时	4713
▁动手	4714
▁扬	4715
▁多次	4716
▁不听	4717
▁高清	4718
▁桌子	4719
▁公众	4720
▁高度	4721
▁伯	4722
▁悲剧	4723
▁隐藏	4724
▁粉色	4725
▁男子	4726
▁膝	4727
▁正版	4728
▁吉他	4729
▁放过	4730
▁赠	4731
▁商量	4732
▁审美	4733
▁吕	4734
▁陷	4735
▁粤	4736
▁烧烤	4737
▁运营	4738
▁全面	4739
▁今日	4740
▁医学	4741
▁自杀	4742
▁链	4743
▁进口	4744
▁700	4745
▁昆明	4746
▁pl	4747
▁买房	4748
▁掰	4749
▁钓鱼	4750
▁哈尔滨	4751
▁we	4752
▁坚强	4753
▁路由器	4754
▁is	4755
▁大约	4756
▁艰	4757
▁以内	4758
▁出血	4759
▁鼓励	4760
▁幅	4761
▁天然	4762
▁幸好	4763
▁浑	4764
▁无力	4765
▁隆	4766
▁咔	4767
▁詹姆斯	4768
▁员工	4769
▁广西	4770
▁戒指	4771
▁尚	4772
▁婴儿	4773
▁患者	4774
▁≥	4775
▁教师	4776
▁一觉	4777
▁宁愿	4778
▁年底	4779
▁歧	4780
▁打扰	4781
▁男孩子	4782
▁下降	4783
▁大事	4784
▁公布	4785
▁6000	4786
14	4787
▁优化	4788
▁可好	4789
▁煤	4790
▁单词	4791
▁cd	4792
▁究	4793
▁何以	4794
700	4795
▁无视	4796
▁时尚	4797
▁al	4798
▁洪	4799
▁上映	4800
▁参与	4801
▁解放	4802
▁整理	4803
▁早日	4804
▁硬件	4805
▁教学	4806
▁金属	4807
▁天秤	4808
▁思维	4809
▁饺子	4810
▁俄罗斯	4811
▁大型	4812
▁那儿	4813
▁选项	4814
▁宏	4815
▁破解	4816
▁亚洲	4817
▁寺	4818
▁强势	4819
▁求教	4820
▁39	4821
▁大王	4822
▁蔡	4823
▁草莓	4824
▁dn	4825
▁43	4826
▁☆	4827
▁作文	4828
▁底下	4829
▁下手	4830
▁他人	4831
▁叫做	4832
▁停车	4833
▁难怪	4834
▁斩	4835
▁两千	4836
▁泉	4837
▁≤	4838
▁奢	4839
▁大战	4840
▁排除	4841
▁进球	4842
▁宽带	4843
▁叼	4844
▁胜利	4845
▁种子	4846
▁寻找	4847
▁前段	4848
▁赶上	4849
▁下单	4850
▁为主	4851
▁合肥	4852
▁促	4853
▁把握	4854
▁魏	4855
▁透明	4856
▁人数	4857
▁蚊子	4858
▁相互	4859
▁邮费	4860
▁深夜	4861
▁清晰	4862
▁替补	4863
▁手感	4864
▁磕	4865
▁😉	4866
▁一旦	4867
▁捐	4868
▁女王	4869
▁orz	4870
▁裁判	4871
▁开花	4872
▁干脆	4873
▁堪	4874
▁拨	4875
▁酸奶	4876
▁骄	4877
▁暧	4878
▁更有	4879
▁坐车	4880
▁极限	4881
▁下车	4882
▁更换	4883
▁快要	4884
▁96	4885
▁赏	4886
▁室内	4887
▁规划	4888
▁疾病	4889
▁疲	4890
▁神经病	4891
▁袜	4892
▁界面	4893
▁天赋	4894
▁蛮好	4895
▁废话	4896
▁雕	4897
▁什	4898
▁法师	4899
▁看错	4900
▁07	4901
▁悠	4902
▁世纪	4903
▁承受	4904
▁中央	4905
▁忽略	4906
▁it	4907
▁慕	4908
▁处女座	4909
▁瑟	4910
▁陶	4911
▁不良	4912
▁日期	4913
▁地点	4914
▁赶脚	4915
▁从此	4916
▁门票	4917
▁兴奋	4918
▁听着	4919
▁涉	4920
▁全球	4921
▁老妈	4922
▁解锁	4923
▁驾校	4924
▁失恋	4925
▁弓	4926
▁前辈	4927
13	4928
▁开门	4929
▁up	4930
▁基佬	4931
▁细胞	4932
▁侵	4933
▁梅西	4934
▁坦克	4935
▁公交车	4936
▁能否	4937
▁赖	4938
▁如今	4939
▁天空	4940
▁碳	4941
▁战术	4942
▁鸽	4943
▁😞	4944
op	4945
▁发票	4946
▁绘	4947
ul	4948
▁梨	4949
▁老头	4950
▁暧昧	4951
▁模拟	4952
▁emm	4953
▁人工	4954
▁活该	4955
▁结构	4956
ver	4957
▁捷	4958
▁家族	4959
▁一时	4960
▁下雪	4961
▁帧	4962
▁本子	4963
▁逛街	4964
▁黑人	4965
▁小狗	4966
▁单机	4967
▁疫	4968
▁陕	4969
▁规律	4970
▁资本	4971
▁尘	4972
▁帕	4973
▁功夫	4974
▁够用	4975
▁黱	4976
▁转移	4977
▁奴	4978
▁效率	4979
▁元素	4980
▁桌面	4981
▁麻辣	4982
▁七夕	4983
▁必然	4984
-4	4985
▁三角	4986
▁罩	4987
▁改善	4988
▁反对	4989
▁抑郁	4990
▁冲突	4991
▁权利	4992
▁江西	4993
▁上车	4994
▁水晶	4995
▁凤凰	4996
ma	4997
▁误会	4998
▁特色	4999
▁现货	5000
▁即将	5001
▁周日	5002
▁情节	5003
▁下巴	5004
▁上传	5005
▁用完	5006
▁从不	5007
▁段子	5008
▁好笑	5009
▁外援	5010
▁黑白	5011
_-	5012
▁别太	5013
▁高大	5014
▁厌	5015
▁岳	5016
▁有所	5017
▁放到	5018
▁课程	5019
▁赶快	5020
▁退款	5021
▁徒弟	5022
▁52	5023
▁普遍	5024
▁崇	5025
▁浪漫	5026
▁原本	5027
▁吃饱	5028
hat	5029
▁图标	5030
▁难以	5031
▁到时	5032
▁人设	5033
▁当天	5034
▁题目	5035
▁马路	5036
▁审核	5037
▁意大利	5038
▁橘	5039
▁皆	5040
▁主持	5041
▁芯	5042
▁作揖	5043
▁打球	5044
▁不通	5045
▁阳台	5046
▁拍摄	5047
▁管用	5048
▁网友	5049
▁he	5050
▁配件	5051
▁陪伴	5052
▁滴滴	5053
▁心酸	5054
▁肠胃	5055
▁de	5056
▁所在	5057
▁博士	5058
▁斜	5059
▁花园	5060
▁成员	5061
▁卫视	5062
▁早晚	5063
▁老虎	5064
▁抛弃	5065
▁幼稚	5066
▁通常	5067
▁丈	5068
▁董	5069
▁low	5070
19	5071
▁构	5072
▁个性	5073
▁镜子	5074
百多	5075
▁情感	5076
▁退出	5077
▁生存	5078
▁红米	5079
▁外套	5080
▁叉	5081
▁商家	5082
▁刑	5083
▁看不起	5084
▁五六	5085
▁整容	5086
▁呸	5087
▁特点	5088
▁退货	5089
▁炖	5090
▁上市	5091
▁不久	5092
▁嗓	5093
▁姓名	5094
▁贺	5095
kg	5096
▁玉米	5097
▁艳	5098
▁锤子	5099
▁猥	5100
▁制造	5101
▁杠	5102
▁大姐	5103
▁辉	5104
▁玩耍	5105
ome	5106
▁走走	5107
▁疫苗	5108
▁人心	5109
▁消耗	5110
▁出道	5111
▁春节	5112
▁利息	5113
▁新区	5114
▁邀请	5115
▁坨	5116
▁鸣	5117
▁流氓	5118
▁看她	5119
▁gt	5120
▁剃	5121
▁创业	5122
▁洗衣	5123
▁技巧	5124
-5	5125
▁主机	5126
▁小组	5127
▁辅导	5128
▁少数	5129
▁脂肪	5130
▁炒作	5131
▁记错	5132
▁晃	5133
▁降低	5134
▁蜂蜜	5135
▁折磨	5136
利亚	5137
▁粪	5138
▁圈子	5139
▁唠	5140
▁闺女	5141
▁江湖	5142
▁觉醒	5143
▁劈	5144
▁命运	5145
▁劫	5146
▁看上去	5147
▁提到	5148
▁回国	5149
haha	5150
▁心灵	5151
▁之外	5152
▁潇	5153
▁五一	5154
▁电影院	5155
▁实际上	5156
▁飘过	5157
▁两边	5158
▁保障	5159
▁萝卜	5160
▁前途	5161
▁许愿	5162
▁祸	5163
▁走过	5164
▁枝	5165
▁益	5166
▁原装	5167
mp	5168
▁直男	5169
▁阔	5170
▁状况	5171
▁论坛	5172
▁强迫症	5173
七八	5174
▁对话	5175
▁就打	5176
▁洗脑	5177
▁愚	5178
▁治愈	5179
▁认证	5180
▁发热	5181
▁蛤	5182
▁假装	5183
▁续航	5184
▁分期	5185
▁体现	5186
▁钙	5187
▁轻易	5188
▁合格	5189
▁统计	5190
▁永久	5191
▁老年	5192
▁130	5193
▁一夜	5194
▁阴影	5195
▁吃肉	5196
▁●	5197
▁八字	5198
▁未必	5199
▁化妆品	5200
▁高二	5201
▁形成	5202
▁激素	5203
▁恐惧	5204
▁套装	5205
▁超越	5206
▁碎片	5207
▁发达	5208
▁婚礼	5209
▁PS	5210
▁热门	5211
▁曼联	5212
▁要钱	5213
▁住在	5214
▁前后	5215
▁欧美	5216
▁央	5217
▁揭	5218
▁劳资	5219
▁๑	5220
▁大把	5221
▁定制	5222
▁58	5223
▁考生	5224
▁抓住	5225
▁起步	5226
▁指教	5227
▁七八	5228
▁曝光	5229
▁物流	5230
▁平方	5231
▁水军	5232
▁不许	5233
▁跑到	5234
▁出口	5235
▁工厂	5236
▁为止	5237
▁揉	5238
▁歧视	5239
▁客观	5240
▁专柜	5241
▁调剂	5242
▁同性	5243
▁两点	5244
▁佐	5245
▁-_-	5246
▁放大	5247
▁只好	5248
▁选手	5249
▁袁	5250
▁跪求	5251
▁悄	5252
▁中秋	5253
▁好评	5254
▁婷	5255
▁期末	5256
▁江南	5257
▁CP	5258
▁粑	5259
▁前排	5260
▁晶	5261
▁组队	5262
▁绵	5263
▁感人	5264
▁伏	5265
▁掩	5266
▁主场	5267
▁精华	5268
▁跳舞	5269
▁蜀	5270
▁驴	5271
▁基因	5272
▁吾	5273
▁师范	5274
▁险	5275
▁th	5276
▁个子	5277
▁骄傲	5278
▁假如	5279
▁爱国	5280
45	5281
old	5282
▁中毒	5283
▁奶茶	5284
▁欲望	5285
▁山西	5286
▁回合	5287
▁战士	5288
▁头疼	5289
▁护理	5290
ai	5291
▁累死	5292
▁沿	5293
▁am	5294
▁巴黎	5295
▁维生素	5296
ok	5297
▁值钱	5298
▁刷新	5299
▁相册	5300
▁上图	5301
▁纯粹	5302
▁情商	5303
▁车辆	5304
▁机油	5305
▁特意	5306
▁美术	5307
▁索尼	5308
▁仰	5309
▁上门	5310
▁僵尸	5311
▁勇敢	5312
▁师父	5313
▁花花	5314
▁本质	5315
▁台词	5316
▁比起	5317
▁批发	5318
▁纵	5319
▁公安	5320
▁迷茫	5321
▁潘	5322
▁痕	5323
▁摄像头	5324
▁心思	5325
▁贡献	5326
▁形式	5327
▁留学	5328
▁柱	5329
▁健身房	5330
▁奋斗	5331
▁阴阳	5332
▁随机	5333
▁小伙子	5334
▁顺丰	5335
AT	5336
▁福州	5337
▁馒	5338
▁以来	5339
▁非得	5340
▁成分	5341
▁落地	5342
▁会长	5343
▁日本人	5344
▁分辨	5345
▁膝盖	5346
▁笼子	5347
▁奉	5348
▁柴	5349
▁瘫	5350
▁棍	5351
▁美容	5352
▁伟大	5353
▁天上	5354
▁猥琐	5355
▁逐	5356
▁原价	5357
▁相爱	5358
主义	5359
一样	5360
▁报考	5361
▁get	5362
▁以外	5363
▁而言	5364
▁^_^	5365
▁谦	5366
▁中超	5367
▁餐厅	5368
▁歇	5369
▁浴	5370
▁押	5371
▁复读	5372
▁97	5373
▁百合	5374
▁定义	5375
▁重装	5376
▁辣椒	5377
▁浏览器	5378
▁过于	5379
▁威胁	5380
▁辩	5381
▁护士	5382
▁出差	5383
▁翘	5384
▁手工	5385
23	5386
▁250	5387
▁做出	5388
▁弹幕	5389
▁秒杀	5390
▁预测	5391
▁合租	5392
▁肖	5393
▁剧本	5394
▁瞅	5395
▁哇塞	5396
▁咳嗽	5397
▁说句	5398
▁baby	5399
▁坏人	5400
▁2014	5401
▁储	5402
▁jj	5403
ell	5404
▁做事	5405
▁剧透	5406
▁指纹	5407
▁备注	5408
iss	5409
▁中考	5410
▁胳	5411
▁勋	5412
▁革	5413
▁后续	5414
▁删掉	5415
▁十万	5416
86	5417
▁li	5418
▁商品	5419
▁馒头	5420
▁想不	5421
▁忽然	5422
▁调节	5423
▁’	5424
▁网速	5425
▁芳	5426
▁想来	5427
▁嫂	5428
▁阿拉	5429
▁地理	5430
▁那年	5431
▁节日	5432
▁岁月	5433
▁变形	5434
▁弱弱	5435
▁〗	5436
▁投入	5437
▁◇	5438
▁早睡	5439
▁出名	5440
▁92	5441
▁损失	5442
▁bl	5443
▁精力	5444
▁来到	5445
▁防止	5446
▁枕	5447
▁pp	5448
▁和平	5449
▁商场	5450
▁中场	5451
▁掌握	5452
▁传染	5453
▁恐怕	5454
▁摩托车	5455
▁同志	5456
▁住宿	5457
va	5458
▁72	5459
▁何时	5460
▁姚	5461
▁沃	5462
▁例子	5463
▁白金	5464
▁始终	5465
▁后果	5466
▁失误	5467
▁创造	5468
▁粑粑	5469
▁原则	5470
▁刹车	5471
▁ins	5472
▁专家	5473
▁西藏	5474
▁看图	5475
▁证书	5476
▁巴西	5477
▁铁路	5478
▁请假	5479
▁进化	5480
▁贵州	5481
▁趟	5482
▁口碑	5483
▁ne	5484
▁强制	5485
▁保修	5486
▁有意	5487
自然	5488
▁年头	5489
ine	5490
▁贾	5491
▁倒霉	5492
▁收获	5493
▁早晨	5494
▁秃	5495
▁万达	5496
▁方案	5497
▁剂	5498
▁祈	5499
▁悦	5500
▁大专	5501
▁诱惑	5502
▁次数	5503
▁奇迹	5504
▁降价	5505
▁授	5506
▁八卦	5507
▁命中	5508
▁香蕉	5509
▁0.0	5510
▁慎	5511
▁污染	5512
▁壕	5513
_=	5514
▁互动	5515
▁商店	5516
▁科比	5517
▁签证	5518
▁wh	5519
▁夺冠	5520
▁愿望	5521
▁万能	5522
▁提问	5523
▁严格	5524
▁群众	5525
▁首发	5526
▁小弟	5527
▁收益	5528
▁网易	5529
▁心痛	5530
▁瞳	5531
▁肉肉	5532
▁一模	5533
▁猫咪	5534
▁友情	5535
▁听歌	5536
▁の	5537
▁冥	5538
▁栏	5539
▁手游	5540
▁偶遇	5541
▁生长	5542
▁赞同	5543
▁一模一样	5544
▁翅	5545
▁州	5546
▁一趟	5547
▁动态	5548
▁厨房	5549
▁喷子	5550
▁做法	5551
▁渐	5552
▁运费	5553
▁场景	5554
▁睡醒	5555
▁人士	5556
▁可靠	5557
ce	5558
▁物品	5559
▁集团	5560
▁定期	5561
▁还原	5562
▁美白	5563
▁胳膊	5564
▁南昌	5565
▁ed	5566
▁常见	5567
▁言论	5568
▁韩剧	5569
▁携	5570
▁剧场	5571
▁别来	5572
▁流浪	5573
▁〖	5574
▁44	5575
▁己	5576
▁毛钱	5577
ga	5578
▁dnf	5579
▁一月	5580
▁见识	5581
▁出事	5582
▁吸血	5583
▁改名	5584
▁柠	5585
▁遵	5586
▁灰色	5587
▁乎	5588
OS	5589
▁暗恋	5590
▁好过	5591
▁抱怨	5592
▁写完	5593
▁律师	5594
▁周杰	5595
▁干活	5596
▁额度	5597
▁买车	5598
▁嘲讽	5599
▁喉	5600
▁爷们	5601
▁五月	5602
▁1080	5603
▁成语	5604
▁04	5605
▁清洗	5606
▁反馈	5607
▁公共	5608
▁虫子	5609
▁载	5610
▁醋	5611
▁嫁给	5612
▁霉	5613
▁伤口	5614
▁and	5615
▁落后	5616
▁哈欠	5617
▁开关	5618
▁机器人	5619
▁来得及	5620
▁opp	5621
ng	5622
▁人性	5623
▁品质	5624
▁男性	5625
▁字幕	5626
▁躺着	5627
▁畅	5628
▁涨价	5629
▁性感	5630
▁奸	5631
▁被动	5632
▁衡	5633
▁卖给	5634
▁优点	5635
▁=_=	5636
▁况	5637
▁现金	5638
▁神秘	5639
▁挥	5640
▁开水	5641
▁普通话	5642
▁策划	5643
▁调查	5644
▁海贼	5645
▁人体	5646
▁早饭	5647
▁马甲	5648
▁8000	5649
ra	5650
▁宁波	5651
▁清洁	5652
▁海鲜	5653
▁知名	5654
▁口红	5655
▁忌	5656
▁瓶子	5657
▁租房	5658
▁海南	5659
▁缴	5660
▁暖气	5661
▁反复	5662
▁蝴	5663
▁心动	5664
▁长腿	5665
▁几万	5666
▁趋	5667
▁客户端	5668
▁舞蹈	5669
▁公斤	5670
▁瑜	5671
▁例如	5672
▁代码	5673
▁迁	5674
▁紫色	5675
▁深深	5676
▁泽	5677
▁大头	5678
▁饮料	5679
▁当成	5680
▁但愿	5681
▁话费	5682
▁蝴蝶	5683
▁迟早	5684
▁这时候	5685
▁假货	5686
▁交警	5687
▁十三	5688
▁入门	5689
▁网盘	5690
▁极品	5691
▁用到	5692
st	5693
▁典型	5694
▁加盟	5695
▁94	5696
▁发表	5697
▁埃	5698
▁面板	5699
▁大于	5700
▁上帝	5701
▁渠	5702
▁艾玛	5703
▁校服	5704
▁钢琴	5705
▁可乐	5706
▁打字	5707
▁自私	5708
▁幕	5709
▁建立	5710
▁成人	5711
▁凑合	5712
▁my	5713
▁强化	5714
▁大招	5715
▁忍住	5716
▁抚	5717
▁邻居	5718
▁瑕	5719
▁买家	5720
▁秋天	5721
▁腹肌	5722
▁上床	5723
▁接口	5724
ong	5725
▁别闹	5726
▁抽奖	5727
▁ノ	5728
▁薛	5729
▁梦幻	5730
▁颗粒	5731
▁cos	5732
▁谨	5733
▁妮	5734
▁画质	5735
▁下水	5736
▁手表	5737
▁开口	5738
▁陌生人	5739
▁和好	5740
▁网恋	5741
▁叠	5742
▁倒数	5743
▁究竟	5744
▁盼	5745
▁鸡汤	5746
▁一脚	5747
▁文学	5748
▁经理	5749
▁不可	5750
▁长春	5751
▁熟人	5752
▁手段	5753
▁地板	5754
▁过度	5755
▁&	5756
ice	5757
▁频率	5758
▁敌人	5759
▁专用	5760
▁内地	5761
▁05	5762
▁性质	5763
th	5764
▁慈	5765
▁耽误	5766
▁女方	5767
▁袜子	5768
▁东莞	5769
▁sk	5770
▁饿死	5771
▁闯	5772
▁128	5773
▁蜘	5774
▁老爸	5775
▁陕西	5776
▁电动车	5777
▁兜	5778
▁ab	5779
mb	5780
▁说错	5781
▁06	5782
▁亡	5783
▁瓷	5784
▁1200	5785
▁悄悄	5786
▁黎	5787
▁消炎	5788
▁emmm	5789
▁蝎	5790
▁47	5791
▁ta	5792
▁模特	5793
▁班主	5794
▁翻车	5795
▁过期	5796
▁妙	5797
▁同人	5798
▁恍	5799
▁帝国	5800
▁玩意儿	5801
▁小吃	5802
▁舞台	5803
▁彩虹	5804
▁副本	5805
ight	5806
▁弥	5807
▁法院	5808
▁模糊	5809
▁2500	5810
32	5811
▁好气	5812
▁留在	5813
▁工作室	5814
▁难听	5815
七八糟	5816
▁商务	5817
▁巨人	5818
▁蜘蛛	5819
▁46	5820
▁热度	5821
▁周杰伦	5822
▁犯罪	5823
▁油耗	5824
▁深刻	5825
▁激光	5826
▁车站	5827
▁默认	5828
▁往往	5829
▁下场	5830
▁从头	5831
▁酒吧	5832
克斯	5833
▁使劲	5834
▁皂	5835
▁又说	5836
▁白银	5837
▁从没	5838
▁保健	5839
▁当兵	5840
▁抵抗	5841
▁缠	5842
▁😥	5843
▁原图	5844
▁蘑	5845
▁俩人	5846
▁听话	5847
▁废物	5848
▁泛	5849
▁扁	5850
▁没戏	5851
▁教授	5852
▁来回	5853
▁乱七八糟	5854
▁贞	5855
▁淮	5856
▁🙈	5857
▁闲置	5858
▁相似	5859
▁tv	5860
▁将就	5861
▁相反	5862
▁异常	5863
▁胃口	5864
▁集中	5865
▁一致	5866
▁榴	5867
▁别去	5868
▁暖暖	5869
all	5870
▁其余	5871
▁溶	5872
▁阁	5873
▁电梯	5874
▁班主任	5875
me	5876
▁vs	5877
▁狐狸	5878
▁看成	5879
▁月子	5880
▁菌	5881
▁侮	5882
▁处于	5883
▁妃	5884
▁不愿	5885
▁拿出	5886
▁杂志	5887
▁高跟	5888
▁尔	5889
▁各自	5890
▁道具	5891
▁感慨	5892
▁字体	5893
▁新款	5894
▁抓紧	5895
▁留给	5896
▁刷屏	5897
▁同情	5898
▁颠	5899
▁金毛	5900
▁集体	5901
▁◆	5902
▁远离	5903
▁备胎	5904
▁模型	5905
▁封面	5906
▁靠近	5907
葫芦	5908
▁名额	5909
▁师姐	5910
▁做工	5911
▁冤	5912
▁地狱	5913
▁字母	5914
▁顶多	5915
▁崽	5916
▁金刚	5917
▁天后	5918
▁绳	5919
▁菇	5920
▁防御	5921
▁孙子	5922
▁说白	5923
▁侮辱	5924
▁线路	5925
▁上岸	5926
▁具有	5927
▁采访	5928
ill	5929
▁恶意	5930
▁导航	5931
▁深渊	5932
▁飞行	5933
▁棋	5934
▁屈	5935
▁cf	5936
▁虚拟	5937
▁打卡	5938
▁标志	5939
▁舅	5940
▁扯淡	5941
▁轻轻	5942
▁买票	5943
▁来玩	5944
▁顶级	5945
▁交换	5946
▁兮	5947
▁通用	5948
▁令人	5949
▁农历	5950
▁对应	5951
▁蒋	5952
▁大声	5953
▁自学	5954
▁正义	5955
▁==	5956
▁顺序	5957
▁辐	5958
▁蘑菇	5959
▁洗洗	5960
▁78	5961
▁同步	5962
▁补考	5963
▁悟空	5964
▁之内	5965
▁浦	5966
▁农民	5967
▁嘴里	5968
▁县城	5969
▁碟	5970
▁低于	5971
▁吨	5972
oot	5973
▁通宵	5974
▁私人	5975
▁西游	5976
▁照相	5977
▁订单	5978
▁打人	5979
▁嘲笑	5980
▁诊	5981
▁南宁	5982
▁四季	5983
▁包包	5984
tv	5985
▁日记	5986
▁350	5987
▁养老	5988
▁渴	5989
▁趣	5990
▁ID	5991
▁维持	5992
▁婚纱	5993
▁守护	5994
▁革命	5995
▁心机	5996
▁祭	5997
▁西方	5998
▁不变	5999
▁停止	6000
▁查查	6001
▁崔	6002
uang	6003
▁绣	6004
▁贩	6005
▁她家	6006
▁太丑	6007
▁中奖	6008
▁好使	6009
▁满分	6010
▁近视	6011
▁无人	6012
▁半场	6013
▁睡前	6014
▁鹰	6015
▁缓解	6016
▁实惠	6017
▁打扮	6018
▁魔兽	6019
▁08	6020
基亚	6021
▁加工	6022
▁菠	6023
▁口腔	6024
▁拜仁	6025
▁盗版	6026
▁pc	6027
▁况且	6028
▁螺丝	6029
▁小事	6030
▁2012	6031
▁发言	6032
▁因此	6033
▁喇	6034
▁吹牛	6035
▁底线	6036
▁意淫	6037
家庄	6038
▁知足	6039
▁约会	6040
▁找回	6041
▁十多	6042
▁天地	6043
ml	6044
▁诺基亚	6045
▁复合	6046
▁战场	6047
▁助手	6048
▁力气	6049
牺牲	6050
▁孤单	6051
300	6052
▁传销	6053
21	6054
▁机箱	6055
▁疗	6056
▁免疫	6057
▁要命	6058
▁柠檬	6059
▁愤	6060
▁饥	6061
▁剥	6062
▁疤	6063
▁冯	6064
▁56	6065
and	6066
▁医疗	6067
▁指挥	6068
▁路口	6069
▁反弹	6070
▁捕	6071
▁祛	6072
▁汁	6073
▁库里	6074
▁mi	6075
▁情缘	6076
▁语气	6077
▁鸽子	6078
▁粤语	6079
▁优酷	6080
▁懂事	6081
▁境界	6082
▁不配	6083
▁赐	6084
▁平板	6085
▁东京	6086
▁总裁	6087
▁迫	6088
▁石家庄	6089
▁牢	6090
▁牺牲	6091
▁奥运	6092
▁住院	6093
▁胡歌	6094
▁稿	6095
▁每月	6096
▁金色	6097
▁优越	6098
▁宾馆	6099
▁八月	6100
▁谈谈	6101
▁土地	6102
▁分钱	6103
▁壶	6104
▁煲	6105
▁买好	6106
▁自考	6107
▁决心	6108
▁畜	6109
▁重视	6110
▁亲妈	6111
▁垂	6112
▁债	6113
▁海报	6114
▁2.0	6115
▁频道	6116
▁兰州	6117
▁嗓子	6118
▁巴掌	6119
▁联合	6120
▁长城	6121
▁★	6122
▁09	6123
▁半月	6124
▁兑换	6125
▁家具	6126
▁事故	6127
▁异性	6128
▁学到	6129
▁战力	6130
▁啵	6131
▁登记	6132
75	6133
▁49	6134
▁👍	6135
▁睫	6136
▁坎	6137
▁前锋	6138
▁花生	6139
▁领养	6140
▁战队	6141
▁代价	6142
▁同行	6143
▁想死	6144
▁补水	6145
▁醒醒	6146
▁拥抱	6147
▁辐射	6148
▁捆	6149
▁蕾	6150
▁社保	6151
▁猜猜	6152
▁礼包	6153
▁教训	6154
▁霸道	6155
▁得出	6156
▁突出	6157
▁智慧	6158
▁理财	6159
▁拼命	6160
▁五星	6161
▁大脑	6162
▁病人	6163
▁版权	6164
▁love	6165
▁来啦	6166
▁忧伤	6167
▁欺骗	6168
▁牛仔	6169
▁天涯	6170
▁大理	6171
▁洗头	6172
▁得分	6173
▁执行	6174
▁菩	6175
▁越狱	6176
▁制度	6177
▁ste	6178
▁清明	6179
▁禁止	6180
~~	6181
▁转换	6182
▁盈	6183
▁壁纸	6184
▁黏	6185
▁彭	6186
▁网游	6187
▁遗传	6188
▁跑路	6189
22	6190
▁搭理	6191
▁渡	6192
▁收集	6193
▁区域	6194
▁认可	6195
▁嫖	6196
▁嘟	6197
▁sp	6198
▁助攻	6199
▁毛衣	6200
▁丘	6201
▁烦躁	6202
▁保留	6203
▁03	6204
▁专卖	6205
▁袖	6206
▁太平	6207
▁处理器	6208
▁亲人	6209
▁姥	6210
▁谜	6211
▁公寓	6212
▁亮点	6213
▁页面	6214
▁振	6215
▁讲话	6216
▁强度	6217
ak	6218
▁偏偏	6219
▁bi	6220
▁主意	6221
▁地震	6222
▁上场	6223
▁编辑	6224
▁鹅	6225
▁女装	6226
▁退役	6227
▁三百	6228
▁嗷嗷	6229
▁总体	6230
▁主页	6231
▁凝	6232
▁颖	6233
▁伤感	6234
▁称呼	6235
▁樱花	6236
▁疼痛	6237
▁友谊	6238
▁乐意	6239
▁原版	6240
▁薪	6241
▁工商	6242
▁泡面	6243
▁不合	6244
▁协议	6245
▁瞎说	6246
▁大巴	6247
▁阿里	6248
▁两万	6249
▁锐	6250
▁哩	6251
▁正宗	6252
▁推广	6253
▁新版	6254
▁分配	6255
▁√	6256
▁喜好	6257
▁人头	6258
▁解说	6259
▁175	6260
▁肛	6261
▁个头	6262
▁路边	6263
▁佬	6264
▁洒	6265
▁借钱	6266
▁渠道	6267
▁cc	6268
▁3.	6269
▁老娘	6270
▁拌	6271
▁淫	6272
▁发出	6273
▁配音	6274
▁搅	6275
▁不明	6276
▁快快	6277
▁打针	6278
▁共享	6279
▁脸皮	6280
▁自卑	6281
▁吴亦	6282
▁炼	6283
▁大气	6284
▁气氛	6285
▁近期	6286
▁九月	6287
▁台风	6288
▁主席	6289
▁140	6290
▁93	6291
▁五百	6292
▁无能	6293
▁道路	6294
▁被窝	6295
▁吴亦凡	6296
▁咽	6297
▁代替	6298
▁严肃	6299
▁活跃	6300
▁理性	6301
▁睫毛	6302
▁饰	6303
▁聚会	6304
66	6305
▁调戏	6306
▁听力	6307
▁保湿	6308
▁放屁	6309
▁躁	6310
▁再用	6311
▁Д	6312
▁下课	6313
▁在此	6314
▁熏	6315
▁全场	6316
▁1.2	6317
▁款式	6318
▁锋	6319
ri	6320
▁桩	6321
▁大道	6322
▁68	6323
▁重量	6324
▁两句	6325
▁无锡	6326
▁擅	6327
▁多数	6328
PP	6329
▁筋	6330
▁山寨	6331
▁坚决	6332
▁七月	6333
▁不论	6334
▁大法	6335
▁新浪	6336
▁米兰	6337
▁明信	6338
▁小龙	6339
▁7000	6340
▁记者	6341
▁丽江	6342
▁覆	6343
▁无知	6344
▁改天	6345
▁却是	6346
▁吃亏	6347
▁捅	6348
▁轨	6349
▁保暖	6350
▁泰迪	6351
▁噩	6352
▁合法	6353
▁常规	6354
次性	6355
▁一次性	6356
▁经营	6357
▁昏	6358
▁置	6359
▁59	6360
▁势力	6361
▁家乡	6362
▁艺人	6363
▁到货	6364
▁承担	6365
▁行李	6366
▁仿佛	6367
▁lg	6368
▁拿走	6369
▁交友	6370
▁gd	6371
▁沦	6372
▁养成	6373
▁限定	6374
▁坚定	6375
▁电压	6376
▁澳门	6377
▁车型	6378
▁多想	6379
▁越南	6380
▁威武	6381
▁混合	6382
▁看多	6383
▁孟	6384
▁珍珠	6385
▁泳	6386
▁光头	6387
▁挂机	6388
▁😡	6389
▁2.5	6390
▁疏	6391
▁保安	6392
▁哔	6393
▁隔离	6394
▁👻	6395
▁访	6396
▁羽毛	6397
▁轮胎	6398
▁贬	6399
▁89	6400
▁扮	6401
▁一百多	6402
▁完蛋	6403
▁感恩	6404
▁模仿	6405
▁酱紫	6406
▁合成	6407
▁韦	6408
▁不熟	6409
▁贵校	6410
▁初一	6411
▁初三	6412
▁理发	6413
▁外国人	6414
▁监控	6415
▁仓鼠	6416
▁才叫	6417
▁白白	6418
▁dal	6419
▁腊	6420
▁司马	6421
▁17-0	6422
▁反感	6423
▁和尚	6424
▁rt	6425
▁箭	6426
▁仇恨	6427
▁依赖	6428
▁洗脸	6429
▁听见	6430
be	6431
▁邮件	6432
▁岗位	6433
▁房产	6434
▁海军	6435
▁迟到	6436
▁甜甜	6437
▁巫	6438
▁新车	6439
▁东南	6440
▁做成	6441
▁到期	6442
▁玺	6443
▁被虐	6444
▁预防	6445
▁赵丽	6446
▁优先	6447
▁亲自	6448
▁黑龙	6449
▁恶魔	6450
▁眼皮	6451
▁铲	6452
-10	6453
▁焊	6454
▁心心	6455
▁良好	6456
▁杯子	6457
▁好在	6458
▁逾	6459
▁好坏	6460
▁仅仅	6461
▁罗马	6462
▁三生	6463
▁康复	6464
24	6465
▁麻痹	6466
▁栽	6467
▁交往	6468
▁打出	6469
▁两家	6470
▁左手	6471
▁胡说	6472
▁闪电	6473
▁清淡	6474
▁沉默	6475
▁竞技	6476
▁芦	6477
▁年年	6478
▁晚点	6479
▁😜	6480
▁雾霾	6481
▁朗	6482
200	6483
▁酒精	6484
▁不满	6485
▁放开	6486
▁看清	6487
▁葱	6488
▁十字	6489
▁靓	6490
▁书记	6491
▁vivo	6492
▁难吃	6493
▁乱说	6494
▁往下	6495
▁月饼	6496
▁动车	6497
▁颈	6498
▁想开	6499
▁长安	6500
▁右手	6501
▁饭店	6502
▁口服	6503
▁放手	6504
▁900	6505
▁森林	6506
▁听起来	6507
▁黄瓜	6508
▁爱心	6509
▁祖国	6510
▁公子	6511
▁尽管	6512
▁岩	6513
▁尽快	6514
▁美元	6515
▁团长	6516
▁提出	6517
▁队员	6518
▁爵	6519
▁克制	6520
▁延迟	6521
▁jb	6522
▁国民	6523
▁le	6524
▁真诚	6525
▁滨	6526
▁违法	6527
▁行政	6528
▁嫣	6529
▁故障	6530
▁纯洁	6531
▁报销	6532
ue	6533
▁复试	6534
▁宝马	6535
▁大胆	6536
▁小人	6537
▁一二	6538
▁铝	6539
▁翅膀	6540
▁句子	6541
▁一口	6542
▁pvp	6543
▁枣	6544
▁大便	6545
▁思路	6546
▁军队	6547
▁环保	6548
▁随着	6549
▁午饭	6550
▁mv	6551
▁叽	6552
▁绝不	6553
▁火影	6554
▁讲究	6555
▁内涵	6556
▁番茄	6557
▁大衣	6558
▁捡到	6559
▁爱人	6560
▁班长	6561
▁尽力	6562
▁赵丽颖	6563
▁长久	6564
▁移民	6565
▁梳	6566
▁mate	6567
▁功率	6568
▁羊肉	6569
:00	6570
▁眼前	6571
▁1050	6572
▁派出	6573
▁农药	6574
▁泄	6575
▁早已	6576
▁香水	6577
▁材质	6578
▁立刻	6579
▁天堂	6580
▁狙	6581
▁灾	6582
▁再有	6583
▁完毕	6584
▁有名	6585
▁马桶	6586
▁送到	6587
▁分子	6588
▁西班	6589
▁差异	6590
▁高配	6591
ook	6592
▁备份	6593
▁十月	6594
▁高点	6595
▁西班牙	6596
▁帝都	6597
▁节操	6598
▁欧巴	6599
▁工地	6600
▁可笑	6601
▁朕	6602
▁碾	6603
▁主任	6604
▁改造	6605
▁拽	6606
▁账户	6607
▁瓜子	6608
▁消毒	6609
▁小黑	6610
▁柏	6611
▁外表	6612
▁不送	6613
▁温州	6614
▁窗口	6615
▁台式	6616
▁潇洒	6617
-6	6618
▁刻意	6619
▁华硕	6620
▁每日	6621
▁退休	6622
▁单招	6623
▁an	6624
▁粉红	6625
▁榴莲	6626
▁部位	6627
▁肩膀	6628
▁115	6629
▁cs	6630
▁浇水	6631
▁好意思	6632
▁叛	6633
▁施工	6634
▁礼貌	6635
▁泼	6636
▁实物	6637
▁导师	6638
▁无比	6639
▁54	6640
▁当真	6641
▁复发	6642
▁洛阳	6643
▁计较	6644
▁得罪	6645
▁dalao	6646
▁影视	6647
▁铅	6648
▁地步	6649
▁学好	6650
▁看得	6651
▁帐号	6652
▁只用	6653
▁屯	6654
▁名称	6655
▁跟风	6656
▁〒	6657
▁低价	6658
▁多远	6659
▁援	6660
▁民主	6661
▁出头	6662
▁枯	6663
▁拼音	6664
▁个别	6665
▁三月	6666
ore	6667
▁蚂	6668
▁从未	6669
▁校长	6670
▁城里	6671
▁呕	6672
▁有理	6673
▁措	6674
▁八十	6675
▁舌头	6676
▁修炼	6677
▁太早	6678
▁囊	6679
▁iP	6680
▁钉	6681
▁不当	6682
▁湘	6683
▁行程	6684
▁走开	6685
▁结尾	6686
▁睿	6687
▁基地	6688
▁幽默	6689
ini	6690
▁可见	6691
▁反驳	6692
▁✌	6693
▁函	6694
▁关节	6695
▁过节	6696
▁流水	6697
▁造谣	6698
▁69	6699
▁体系	6700
▁海边	6701
▁纤	6702
sp	6703
▁顺眼	6704
▁咳咳	6705
▁人均	6706
▁dota	6707
▁炫耀	6708
▁耗电	6709
▁1600	6710
▁招呼	6711
▁塘	6712
▁噩梦	6713
▁黄牛	6714
▁省钱	6715
▁束	6716
▁童年	6717
▁物业	6718
▁😓	6719
▁苏联	6720
▁成立	6721
▁装饰	6722
▁TAT	6723
▁巨大	6724
▁硅	6725
▁BB	6726
▁诈	6727
▁发泄	6728
▁冒险	6729
▁竖	6730
▁砂	6731
▁清醒	6732
▁金钱	6733
▁米饭	6734
▁绿茶	6735
▁饼干	6736
▁费劲	6737
▁原理	6738
▁步步	6739
▁乐趣	6740
▁保佑	6741
▁单反	6742
▁精品	6743
▁昌	6744
▁逮	6745
▁打败	6746
▁男方	6747
▁葫芦	6748
▁天朝	6749
▁干杯	6750
▁zz	6751
▁总共	6752
▁仲	6753
▁到达	6754
▁回收	6755
▁兼容	6756
▁侄	6757
▁光明	6758
▁五千	6759
▁社团	6760
▁Z	6761
▁一流	6762
▁还剩	6763
▁乐观	6764
▁拉拉	6765
▁一体	6766
▁沉迷	6767
▁妄	6768
▁溜达	6769
▁度过	6770
▁car	6771
▁浑身	6772
▁看中	6773
▁man	6774
▁耀	6775
▁赔偿	6776
▁生理	6777
▁趋势	6778
▁火星	6779
▁💔	6780
▁鲁能	6781
▁意味	6782
▁暗示	6783
▁乐视	6784
▁位数	6785
▁凹	6786
▁短袖	6787
▁子女	6788
▁诸葛	6789
▁利润	6790
▁挂科	6791
▁喝茶	6792
▁拓	6793
▁外星	6794
▁内衣	6795
▁极端	6796
▁🌚	6797
▁逾期	6798
▁早期	6799
▁申花	6800
兰特	6801
▁缺乏	6802
▁清华	6803
▁大夫	6804
▁韵	6805
▁军事	6806
▁衬衫	6807
▁丐	6808
▁02	6809
▁自制	6810
▁oppo	6811
▁宝石	6812
▁口袋	6813
▁各地	6814
▁工艺	6815
▁二三	6816
▁凉快	6817
▁战绩	6818
▁线上	6819
▁\\/	6820
bo	6821
▁电流	6822
▁变身	6823
▁多肉	6824
▁哑	6825
▁国安	6826
▁息	6827
▁回应	6828
▁后宫	6829
▁筹	6830
art	6831
▁high	6832
▁steam	6833
▁符号	6834
▁单车	6835
▁大圣	6836
▁泡泡	6837
▁多喝	6838
▁go	6839
▁哭哭	6840
▁毛毛	6841
▁酥	6842
▁识别	6843
▁过气	6844
▁芝麻	6845
▁乾	6846
实实	6847
▁复查	6848
▁纽	6849
▁服从	6850
▁虹	6851
▁囤	6852
▁神仙	6853
▁桐	6854
▁拆迁	6855
▁螃	6856
▁亲友	6857
▁爱奇	6858
▁美颜	6859
▁长高	6860
▁认同	6861
▁之下	6862
▁咒	6863
▁报价	6864
olo	6865
▁仍然	6866
▁休闲	6867
▁无意	6868
▁实践	6869
▁龙珠	6870
▁上当	6871
▁太原	6872
ss	6873
▁彩票	6874
▁小猫	6875
▁骑车	6876
▁舒适	6877
▁包容	6878
▁行情	6879
▁莉	6880
▁猪肉	6881
▁莲花	6882
▁薯	6883
▁转让	6884
▁哀	6885
▁瑜伽	6886
▁太热	6887
▁继承	6888
▁隐形	6889
▁病情	6890
▁太帅	6891
▁莫非	6892
▁每周	6893
▁叙	6894
▁别扭	6895
▁合照	6896
▁瘫痪	6897
▁英超	6898
▁炎症	6899
▁蒙古	6900
▁像素	6901
▁ipad	6902
▁条街	6903
▁屁事	6904
▁切换	6905
▁接到	6906
▁螃蟹	6907
▁用力	6908
其自然	6909
▁须	6910
▁昵	6911
▁分裂	6912
▁子宫	6913
▁勺	6914
▁羽绒	6915
▁映	6916
▁内蒙	6917
▁诛	6918
▁哈气	6919
▁派出所	6920
▁豹	6921
▁热巴	6922
▁西北	6923
▁频繁	6924
▁给予	6925
▁棕	6926
▁对付	6927
▁情怀	6928
▁毅	6929
▁尝尝	6930
▁证件	6931
▁¥	6932
▁网址	6933
▁反击	6934
▁01	6935
▁手法	6936
▁航空	6937
▁廉	6938
▁顺其自然	6939
▁称号	6940
▁甩手	6941
▁倒贴	6942
▁规矩	6943
▁择	6944
▁打车	6945
▁1060	6946
▁将军	6947
▁头晕	6948
▁想听	6949
▁二战	6950
▁马克	6951
▁仓库	6952
▁长度	6953
▁EX	6954
▁告白	6955
▁沐	6956
▁座位	6957
▁进度	6958
▁铃	6959
▁用于	6960
▁单子	6961
▁周期	6962
▁关门	6963
▁橡	6964
▁杀手	6965
▁折扣	6966
▁小花	6967
▁采用	6968
▁籽	6969
▁百万	6970
▁虽说	6971
▁操心	6972
▁刺客	6973
▁广播	6974
▁契	6975
▁高层	6976
▁阻止	6977
▁粉底	6978
▁充电器	6979
▁潜力	6980
▁流程	6981
▁宰	6982
▁fl	6983
▁压缩	6984
▁发抖	6985
▁端午	6986
▁大力	6987
_<	6988
▁大片	6989
▁钩	6990
▁蝶	6991
:0	6992
▁出厂	6993
▁谨慎	6994
▁゚	6995
▁演出	6996
▁氏	6997
▁热爱	6998
▁脆弱	6999
▁太极	7000
▁题材	7001
▁毛孔	7002
▁买卖	7003
▁鞭	7004
▁沧	7005
▁育	7006
▁利于	7007
▁2013	7008
▁织	7009
▁补偿	7010
▁〔	7011
▁伺	7012
▁双手	7013
▁大门	7014
▁打打	7015
▁里边	7016
▁回报	7017
▁报复	7018
▁暖和	7019
▁擅长	7020
▁通知书	7021
▁精英	7022
ur	7023
▁加热	7024
▁咕	7025
▁传播	7026
▁席	7027
▁家用	7028
▁鹤	7029
▁̀	7030
▁乌龟	7031
▁央视	7032
▁周四	7033
▁馅	7034
▁不等	7035
▁气息	7036
▁散步	7037
▁财务	7038
▁堕	7039
▁基金	7040
▁二胎	7041
▁蛋蛋	7042
▁寿命	7043
▁荆	7044
▁甄	7045
▁秀秀	7046
▁臂	7047
▁四月	7048
OL	7049
▁公式	7050
▁硬伤	7051
▁不谢	7052
▁项链	7053
▁vp	7054
▁饲	7055
▁两者	7056
▁降级	7057
▁遛	7058
sh	7059
▁root	7060
▁夫人	7061
▁单挑	7062
▁涉及	7063
▁见得	7064
▁小腿	7065
▁工人	7066
▁诉	7067
▁低头	7068
▁六月	7069
▁平民	7070
▁嫂子	7071
▁挫	7072
▁转转	7073
▁想不到	7074
▁昵称	7075
▁电瓶	7076
▁倒闭	7077
▁拳头	7078
▁洗面	7079
▁常用	7080
▁励	7081
▁庙	7082
▁出汗	7083
▁子弹	7084
▁简历	7085
▁干燥	7086
▁开会	7087
▁自助	7088
▁大都	7089
▁wor	7090
▁安逸	7091
▁完事	7092
▁事物	7093
▁辨	7094
▁玛丽	7095
▁一言	7096
▁上限	7097
▁转会	7098
▁165	7099
▁来源	7100
▁同性恋	7101
▁增长	7102
▁可信	7103
▁搬家	7104
▁协会	7105
▁大早	7106
▁最小	7107
▁lu	7108
▁影子	7109
▁册	7110
▁老爷	7111
▁友好	7112
▁收视率	7113
▁圣母	7114
▁纪录	7115
▁混乱	7116
▁将近	7117
▁恕	7118
▁递	7119
▁终究	7120
▁自觉	7121
plus	7122
▁🏻	7123
▁元旦	7124
▁缺少	7125
▁马刺	7126
ck	7127
▁录音	7128
▁十六	7129
▁di	7130
▁蓝牙	7131
▁3500	7132
▁弗	7133
dow	7134
▁之中	7135
▁of	7136
▁at	7137
▁潜水	7138
▁DN	7139
▁骚扰	7140
▁艰难	7141
▁邮政	7142
▁额头	7143
▁噪	7144
▁奏	7145
▁杨洋	7146
▁藤	7147
▁卸妆	7148
▁播出	7149
▁真真	7150
▁两百	7151
▁寡	7152
▁宗教	7153
▁航母	7154
▁〕	7155
▁疙	7156
▁1800	7157
▁薇	7158
▁gg	7159
▁750	7160
▁残忍	7161
▁撒娇	7162
▁几种	7163
▁示	7164
▁穿过	7165
▁走向	7166
IN	7167
▁危害	7168
▁人格	7169
▁甘心	7170
▁直视	7171
▁雷锋	7172
+1	7173
▁强调	7174
▁忍受	7175
▁夜班	7176
▁药店	7177
▁侦	7178
▁捣	7179
▁86	7180
▁结论	7181
▁齐全	7182
▁归来	7183
▁食用	7184
▁π	7185
▁无辜	7186
▁buff	7187
▁地主	7188
▁谷歌	7189
▁溃	7190
ion	7191
▁说完	7192
▁sa	7193
▁电机	7194
▁浮云	7195
▁防水	7196
▁板子	7197
▁1.8	7198
▁段位	7199
▁豆浆	7200
▁积累	7201
▁便秘	7202
▁核桃	7203
▁柯南	7204
▁☕	7205
▁恋人	7206
▁猎人	7207
▁今早	7208
▁吃喝	7209
ate	7210
▁忍心	7211
▁😣	7212
▁倾向	7213
▁往后	7214
▁考验	7215
▁用品	7216
▁春晚	7217
▁域	7218
▁噢噢	7219
▁多余	7220
▁骨折	7221
▁文件夹	7222
▁盗墓	7223
irl	7224
▁当做	7225
▁店主	7226
▁洲	7227
▁用药	7228
▁糟糕	7229
▁牡	7230
▁打着	7231
▁挽回	7232
▁豪华	7233
▁齿	7234
▁此时	7235
▁高数	7236
▁敬业	7237
▁水印	7238
▁开开	7239
▁微微	7240
999	7241
▁华夏	7242
▁野生	7243
▁抓到	7244
▁义务	7245
▁庆祝	7246
▁芭	7247
▁成品	7248
▁ap	7249
▁疙瘩	7250
▁踢球	7251
▁看不	7252
▁色彩	7253
▁胎儿	7254
▁财富	7255
▁充实	7256
▁候	7257
▁ac	7258
▁一口气	7259
▁上手	7260
▁大雨	7261
▁地域	7262
▁质疑	7263
▁拉屎	7264
▁马赛	7265
▁时空	7266
▁粽	7267
▁同桌	7268
▁真理	7269
▁谦虚	7270
▁及格	7271
▁杏	7272
▁弄好	7273
▁领取	7274
▁450	7275
▁198	7276
▁压抑	7277
▁胆子	7278
▁大吉	7279
28	7280
▁预计	7281
▁谭	7282
▁月光	7283
▁即便	7284
▁发炎	7285
▁含有	7286
▁hi	7287
▁分解	7288
▁试用	7289
▁杜兰特	7290
▁低端	7291
▁办事	7292
▁by	7293
▁哲学	7294
▁吉林	7295
▁揪	7296
33	7297
▁人群	7298
▁211	7299
▁服务员	7300
▁学位	7301
▁纯属	7302
▁改革	7303
▁期望	7304
▁公告	7305
▁大清	7306
▁奢侈	7307
▁琅	7308
▁奶妈	7309
▁周三	7310
▁真棒	7311
▁nba	7312
▁一点	7313
▁青铜	7314
▁过滤	7315
▁负担	7316
▁还款	7317
▁滚蛋	7318
▁澄	7319
▁pk	7320
▁杰克	7321
▁😢	7322
▁喇叭	7323
▁药水	7324
▁太冷	7325
▁书店	7326
▁澳洲	7327
▁铂	7328
▁77	7329
▁滤镜	7330
▁愣	7331
▁mu	7332
▁芽	7333
▁椰	7334
▁太监	7335
▁噫	7336
▁徐州	7337
▁步行	7338
▁网购	7339
▁血液	7340
▁剪辑	7341
▁堡	7342
ind	7343
▁大半	7344
▁拧	7345
▁光线	7346
▁外婆	7347
▁母乳	7348
▁主演	7349
▁热血	7350
▁无非	7351
▁序	7352
▁邪恶	7353
▁不愧	7354
▁细菌	7355
▁压制	7356
▁存款	7357
▁樱桃	7358
▁雷霆	7359
▁诅	7360
▁氛	7361
▁随手	7362
ee	7363
▁毁灭	7364
冰冰	7365
▁殿	7366
▁交钱	7367
▁吃醋	7368
▁口感	7369
▁尸体	7370
▁地产	7371
▁封号	7372
▁上瘾	7373
pg	7374
▁伪装	7375
▁主子	7376
▁窗户	7377
▁总算	7378
▁临床	7379
▁执着	7380
▁起诉	7381
▁屋里	7382
▁监督	7383
▁北大	7384
▁危机	7385
▁来讲	7386
▁今儿	7387
▁vip	7388
▁排骨	7389
▁体型	7390
▁容量	7391
▁沪	7392
▁ak	7393
▁疲劳	7394
▁诅咒	7395
▁手套	7396
▁悔	7397
▁ー	7398
▁大方	7399
▁桂林	7400
▁淡淡	7401
▁犀	7402
▁摩擦	7403
▁♂	7404
▁坟	7405
▁ಥ	7406
▁瞄	7407
▁二十多	7408
▁明早	7409
▁菠萝	7410
▁这块	7411
▁逛逛	7412
▁初始	7413
▁房租	7414
▁稻	7415
▁飙	7416
▁同城	7417
▁看不惯	7418
▁动静	7419
▁上路	7420
▁财产	7421
▁注重	7422
▁蜗	7423
▁520	7424
▁权限	7425
▁氛围	7426
▁说事	7427
▁玲	7428
▁咪	7429
▁gdp	7430
▁儒	7431
▁长江	7432
▁组成	7433
▁咬人	7434
▁1/	7435
▁伺候	7436
▁mvp	7437
▁音质	7438
▁远远	7439
▁公路	7440
▁手臂	7441
▁恶人	7442
▁统治	7443
▁可否	7444
▁三五	7445
▁十四	7446
▁相差	7447
▁甜蜜	7448
▁还早	7449
▁1.6	7450
▁这回	7451
▁喘	7452
▁瑶	7453
▁从前	7454
▁保守	7455
▁驻	7456
▁励志	7457
▁点球	7458
▁有心	7459
▁热量	7460
▁坡	7461
▁搂	7462
▁国企	7463
▁相应	7464
▁妇女	7465
▁惩	7466
▁烊	7467
▁名气	7468
▁按键	7469
▁足协	7470
▁巷	7471
▁余额	7472
▁李白	7473
▁若是	7474
如此	7475
▁马云	7476
▁苟	7477
▁好比	7478
▁打法	7479
▁前进	7480
▁档案	7481
▁纱	7482
后赛	7483
▁季后赛	7484
▁功效	7485
▁停电	7486
▁美剧	7487
▁只求	7488
ki	7489
▁庆幸	7490
▁鞠	7491
▁几分	7492
▁降温	7493
▁蚂蚁	7494
▁说着	7495
▁吃掉	7496
▁爪子	7497
▁架子	7498
yle	7499
▁民国	7500
▁拉倒	7501
▁师大	7502
▁群体	7503
▁教材	7504
▁汉化	7505
▁发财	7506
▁外加	7507
▁定金	7508
▁好冷	7509
▁死活	7510
▁文笔	7511
▁此刻	7512
▁剖	7513
▁三亚	7514
▁椅	7515
麒麟	7516
▁雅思	7517
▁``	7518
▁卡卡	7519
▁操场	7520
▁调皮	7521
▁能干	7522
▁工科	7523
▁抵制	7524
▁询	7525
▁摄影师	7526
▁指定	7527
▁凸	7528
▁大赛	7529
▁领先	7530
▁否认	7531
▁触发	7532
▁168	7533
▁网线	7534
▁很远	7535
se	7536
▁生死	7537
▁主线	7538
▁眼看	7539
▁盟	7540
▁重置	7541
ent	7542
▁悲哀	7543
▁卫生间	7544
ppy	7545
▁含量	7546
▁惊艳	7547
▁铭	7548
BA	7549
▁太子	7550
▁王道	7551
▁刚来	7552
-12	7553
▁往前	7554
▁坏事	7555
▁要紧	7556
▁店家	7557
▁眼线	7558
▁导弹	7559
64	7560
▁九十	7561
▁爱过	7562
▁狗血	7563
▁荷兰	7564
▁😪	7565
▁娘娘	7566
▁总统	7567
▁最萌	7568
▁练练	7569
▁智齿	7570
▁小鱼	7571
▁讽	7572
▁中山	7573
ui	7574
▁体内	7575
▁挠	7576
▁芯片	7577
▁踹	7578
▁院校	7579
▁妖精	7580
▁车牌	7581
▁555	7582
▁相遇	7583
▁夕	7584
▁大盘	7585
▁授权	7586
▁来呀	7587
▁穷人	7588
▁tf	7589
▁嘉宾	7590
▁平静	7591
▁比喻	7592
▁愈	7593
▁叮	7594
▁茅	7595
▁51	7596
▁智力	7597
▁123	7598
▁感叹	7599
▁网通	7600
▁贵阳	7601
比特	7602
▁创意	7603
▁去世	7604
▁猫粮	7605
▁羞羞	7606
▁多半	7607
▁如意	7608
▁弄死	7609
▁表哥	7610
▁两场	7611
▁后者	7612
▁觉着	7613
▁心事	7614
▁显然	7615
▁展示	7616
▁吃好	7617
▁机动	7618
▁预售	7619
▁增强	7620
▁转账	7621
▁41	7622
▁海洋	7623
▁刃	7624
▁说服	7625
▁碍	7626
▁障	7627
加坡	7628
▁消防	7629
▁新加坡	7630
▁外星人	7631
▁忒	7632
▁逍	7633
▁确诊	7634
▁血统	7635
ace	7636
▁XD	7637
-8	7638
▁一见	7639
▁乡下	7640
▁上衣	7641
▁王俊	7642
▁西部	7643
▁芙	7644
▁洗发	7645
▁鼻涕	7646
:30	7647
▁彩礼	7648
▁蒜	7649
▁小子	7650
▁发布会	7651
▁戈	7652
▁荡	7653
iao	7654
▁伸手	7655
▁反映	7656
▁周二	7657
▁覆盖	7658
▁监狱	7659
▁精致	7660
▁解解	7661
▁菜单	7662
▁分辨率	7663
▁翠	7664
▁臣	7665
▁猫猫	7666
▁错觉	7667
uo	7668
▁东东	7669
▁局部	7670
▁时装	7671
▁熄	7672
▁飞车	7673
▁谋	7674
▁加分	7675
▁通道	7676
▁生化	7677
▁天龙	7678
▁天王	7679
▁农业	7680
▁100%	7681
▁for	7682
▁作战	7683
▁违章	7684
▁支撑	7685
▁风水	7686
▁貂	7687
▁起点	7688
||	7689
▁挣扎	7690
▁马赛克	7691
▁190	7692
▁死去	7693
▁美味	7694
▁通风	7695
▁快捷	7696
▁烟台	7697
▁海外	7698
▁怪物	7699
▁明月	7700
▁艾滋	7701
▁焦虑	7702
▁管家	7703
▁社区	7704
55	7705
▁条狗	7706
▁53	7707
▁后排	7708
▁免得	7709
▁脱离	7710
▁了不起	7711
▁任意	7712
▁boy	7713
▁mp	7714
▁难说	7715
▁品味	7716
▁□	7717
▁61	7718
▁渔	7719
▁公分	7720
▁富士	7721
▁求求	7722
▁考证	7723
▁阳历	7724
▁ing	7725
▁反派	7726
▁修车	7727
ack	7728
▁表格	7729
▁荣誉	7730
▁排卵	7731
▁干部	7732
▁形态	7733
▁古装	7734
▁罚款	7735
▁助理	7736
▁部落	7737
▁茶叶	7738
▁what	7739
▁补课	7740
▁off	7741
78	7742
▁瞎子	7743
▁糙	7744
▁劣	7745
▁背影	7746
▁通话	7747
▁奥迪	7748
▁逆袭	7749
▁诡	7750
▁~.	7751
▁老弟	7752
▁兆	7753
▁糯	7754
▁碾压	7755
▁心意	7756
▁通关	7757
▁十七	7758
▁西南	7759
▁进水	7760
▁vpn	7761
▁设计师	7762
▁琅琊	7763
▁水分	7764
▁想吐	7765
▁仨	7766
▁学车	7767
▁板凳	7768
▁坦白	7769
▁景点	7770
▁层次	7771
▁感激	7772
▁场面	7773
▁〜	7774
▁胶囊	7775
▁讽刺	7776
▁开到	7777
▁王俊凯	7778
▁团结	7779
▁楼梯	7780
▁无情	7781
▁机关	7782
▁福袋	7783
▁md	7784
▁互联	7785
▁六十	7786
▁渴望	7787
▁小一	7788
▁牡丹	7789
ian	7790
▁食欲	7791
▁老外	7792
▁pr	7793
▁吼吼	7794
▁护照	7795
▁电量	7796
▁花痴	7797
▁离家	7798
▁创新	7799
▁大好	7800
▁杀死	7801
▁卖掉	7802
▁fe	7803
▁63	7804
▁三楼	7805
▁做做	7806
▁承诺	7807
▁要靠	7808
▁注意力	7809
▁避孕	7810
▁种族	7811
▁认错	7812
▁起飞	7813
▁产业	7814
▁立场	7815
▁大牌	7816
▁犯规	7817
▁999	7818
▁可用	7819
▁批评	7820
▁注销	7821
▁豆豆	7822
▁基督	7823
▁重生	7824
▁原来如此	7825
▁仗	7826
▁墓	7827
▁未知	7828
▁笑笑	7829
▁议	7830
▁地面	7831
▁高于	7832
▁乒	7833
▁撇	7834
▁开店	7835
▁留意	7836
▁出息	7837
▁🌹	7838
▁传球	7839
▁鸭子	7840
▁珠海	7841
▁透露	7842
▁女士	7843
▁硕士	7844
▁边缘	7845
▁翻墙	7846
▁踏实	7847
▁幸亏	7848
▁晴天	7849
▁经纪	7850
▁包养	7851
▁全职	7852
▁😷	7853
▁词语	7854
▁夜晚	7855
▁神话	7856
▁睇	7857
▁炸鸡	7858
▁合影	7859
▁枫	7860
▁大本	7861
▁tg	7862
▁作息	7863
ess	7864
▁76	7865
▁痴情	7866
▁大会	7867
▁诚意	7868
▁通讯	7869
▁深度	7870
▁胜率	7871
▁到来	7872
▁生育	7873
▁保级	7874
▁光环	7875
▁写字	7876
▁六七	7877
▁成年人	7878
▁唇膏	7879
▁时不	7880
▁跟上	7881
▁府	7882
▁促进	7883
48	7884
▁背包	7885
▁辜	7886
▁流泪	7887
▁冰淇	7888
▁收购	7889
▁ht	7890
▁离合	7891
▁谣	7892
▁修理	7893
▁吐血	7894
▁对抗	7895
▁拍卖	7896
▁泡沫	7897
▁ar	7898
▁猜测	7899
▁一心	7900
▁门派	7901
500	7902
ank	7903
▁应援	7904
▁煎饼	7905
▁短裤	7906
▁嘴唇	7907
▁专注	7908
▁对症	7909
▁shi	7910
▁资产	7911
▁释放	7912
▁喉咙	7913
▁弧	7914
▁流产	7915
▁xxx	7916
▁上周	7917
▁崇拜	7918
▁也玩	7919
▁面条	7920
▁腰带	7921
▁us	7922
▁水泥	7923
▁橘子	7924
▁搁	7925
▁常识	7926
▁喜剧	7927
▁韩国人	7928
▁平等	7929
▁烤肉	7930
▁祸害	7931
▁edg	7932
▁人肉	7933
▁张杰	7934
▁公公	7935
▁告别	7936
▁说得	7937
▁高温	7938
▁活泼	7939
▁闲着	7940
▁痕迹	7941
▁筒	7942
ink	7943
▁全民	7944
▁主持人	7945
\\/	7946
▁角落	7947
▁万多	7948
▁被偷	7949
ark	7950
▁奔跑	7951
▁素材	7952
▁girl	7953
▁晚会	7954
▁时不时	7955
▁饶	7956
▁晚餐	7957
▁看病	7958
▁周岁	7959
▁原始	7960
▁口语	7961
▁就送	7962
▁抬头	7963
▁发明	7964
▁观念	7965
▁记性	7966
▁plus	7967
▁口气	7968
▁哇哇	7969
▁口罩	7970
▁心碎	7971
▁炸弹	7972
▁good	7973
▁侧面	7974
▁包含	7975
▁985	7976
▁皱	7977
▁辅导员	7978
▁老王	7979
▁拍拍	7980
▁放学	7981
▁柚	7982
▁运动员	7983
▁73	7984
▁签约	7985
▁1700	7986
▁轰炸	7987
▁亚冠	7988
▁人机	7989
▁温馨	7990
▁修好	7991
▁磨合	7992
▁all	7993
▁看待	7994
▁中旬	7995
▁大米	7996
▁多万	7997
▁奔驰	7998
▁规模	7999
▁改编	8000
▁点心	8001
▁汉族	8002
▁谱	8003
▁种类	8004
▁名义	8005
▁毛巾	8006
▁改装	8007
▁见人	8008
▁top	8009
▁挪	8010
▁ni	8011
▁迹	8012
▁葛	8013
▁干掉	8014
▁辰	8015
▁肥皂	8016
▁网卡	8017
▁姆	8018
▁合并	8019
▁加拿	8020
oom	8021
▁爆料	8022
▁游记	8023
▁加拿大	8024
▁尤文	8025
▁蓉	8026
▁雀	8027
▁出货	8028
▁更快	8029
▁百科	8030
▁走出	8031
▁栗	8032
▁😨	8033
▁过人	8034
▁指标	8035
▁徽	8036
▁坠	8037
▁关掉	8038
▁携带	8039
▁2011	8040
▁扬州	8041
▁曹操	8042
▁痣	8043
▁上架	8044
▁看点	8045
▁补贴	8046
▁先进	8047
▁描写	8048
▁灯光	8049
▁灵活	8050
▁场地	8051
▁评分	8052
▁\	8053
▁眼中	8054
▁丈夫	8055
▁中锋	8056
▁祈祷	8057
▁补丁	8058
▁常常	8059
▁比比	8060
▁蛆	8061
▁计时	8062
▁一点儿	8063
▁方言	8064
AN	8065
▁气场	8066
▁mmp	8067
▁哈登	8068
▁充分	8069
▁瞧瞧	8070
比亚	8071
▁领域	8072
▁再吃	8073
▁形状	8074
▁轮回	8075
▁欧文	8076
▁hold	8077
▁渊	8078
▁一一	8079
▁怕怕	8080
▁搜搜	8081
▁祖宗	8082
▁一来	8083
▁喝完	8084
▁冰淇淋	8085
▁红红	8086
▁//	8087
up	8088
▁猩	8089
▁遥远	8090
▁57	8091
▁魔王	8092
▁死心	8093
▁带有	8094
▁张家	8095
▁鬼子	8096
▁无双	8097
▁慎重	8098
dows	8099
▁格子	8100
▁iPhone	8101
▁再一	8102
▁银河	8103
▁想笑	8104
▁交代	8105
▁矫正	8106
▁大将	8107
▁芬	8108
▁收钱	8109
▁油腻	8110
▁改版	8111
▁溪	8112
▁1:	8113
26	8114
▁自称	8115
▁最初	8116
▁逸	8117
▁出自	8118
▁电器	8119
▁不忍	8120
▁说明书	8121
▁潍	8122
▁前景	8123
▁头脑	8124
▁分离	8125
▁贴膜	8126
▁征服	8127
▁桃子	8128
▁淑	8129
▁无心	8130
▁年度	8131
▁气候	8132
▁转身	8133
▁城管	8134
▁好丑	8135
▁叹	8136
▁水准	8137
▁躁狂	8138
▁外挂	8139
▁数码	8140
▁当中	8141
▁表妹	8142
▁列表	8143
▁吹风	8144
▁威力	8145
▁打造	8146
▁84	8147
▁瑟瑟	8148
▁米粉	8149
▁乞	8150
▁石油	8151
▁思念	8152
▁繁殖	8153
▁阴历	8154
▁至尊	8155
▁姐夫	8156
▁普及	8157
▁科幻	8158
▁人事	8159
▁冷漠	8160
▁职位	8161
▁视力	8162
▁参数	8163
▁猿	8164
▁头皮	8165
▁演戏	8166
▁花开	8167
▁张艺	8168
▁标配	8169
▁淹	8170
▁🍃	8171
▁硫	8172
▁妻子	8173
▁铂金	8174
▁0.5	8175
▁瑕疵	8176
▁顺手	8177
▁点卡	8178
▁适用	8179
▁财运	8180
▁奈何	8181
▁乔丹	8182
▁87	8183
▁柜子	8184
▁自来	8185
▁岁数	8186
▁必备	8187
▁丙	8188
▁蛤蟆	8189
▁郊	8190
▁发行	8191
▁错字	8192
▁阿森	8193
▁丫头	8194
▁超频	8195
▁枕头	8196
▁嚯	8197
▁引导	8198
▁果子	8199
▁卦	8200
▁高贵	8201
▁650	8202
▁组装	8203
▁顾客	8204
▁著名	8205
▁想睡	8206
霹雳	8207
▁激烈	8208
▁冻死	8209
▁晾	8210
▁向前	8211
▁辜负	8212
▁鲨	8213
▁草原	8214
▁插件	8215
▁电气	8216
▁狼人	8217
▁绯	8218
▁省份	8219
▁无所	8220
▁居住	8221
▁粽子	8222
▁solo	8223
▁打听	8224
▁抱住	8225
▁直言	8226
▁多种	8227
▁够呛	8228
▁过关	8229
▁op	8230
▁清除	8231
▁躁狂症	8232
sl	8233
▁打扫	8234
▁走心	8235
不可	8236
▁毕业生	8237
▁谎	8238
▁愤怒	8239
▁阿尔	8240
▁当面	8241
▁播放器	8242
▁深入	8243
▁茜	8244
▁are	8245
▁三轮	8246
▁复仇	8247
▁琪	8248
▁球场	8249
▁发音	8250
tr	8251
▁全力	8252
▁开业	8253
▁豁	8254
▁嘟嘟	8255
▁远程	8256
▁黑龙江	8257
▁奖金	8258
▁高价	8259
▁银色	8260
▁股市	8261
▁涵	8262
▁客场	8263
▁大红	8264
▁侯	8265
▁笙	8266
▁步骤	8267
▁按时	8268
▁排行	8269
▁海盗	8270
▁斗鱼	8271
▁赞助	8272
▁按钮	8273
▁迅雷	8274
▁八百	8275
▁外貌	8276
▁原地	8277
▁不堪	8278
▁顺带	8279
▁mod	8280
▁刷刷	8281
▁惊呆	8282
27	8283
▁汉语	8284
▁津	8285
▁电路	8286
▁变速	8287
▁血压	8288
▁1070	8289
▁膨	8290
▁烦人	8291
-7	8292
cc	8293
▁直达	8294
▁胖胖	8295
▁少见	8296
▁178	8297
▁发光	8298
▁图案	8299
▁暗影	8300
▁童鞋	8301
▁大海	8302
▁惊讶	8303
▁否定	8304
..	8305
▁偶然	8306
▁自主	8307
▁简介	8308
▁笑容	8309
▁因人	8310
▁噻	8311
▁围巾	8312
▁有机	8313
▁い	8314
▁缅	8315
▁合金	8316
▁匆	8317
▁三万	8318
▁高分	8319
▁隐私	8320
▁琢	8321
▁夫妇	8322
▁曼城	8323
▁拘	8324
▁考场	8325
▁pve	8326
▁小偷	8327
▁标签	8328
▁完善	8329
▁毛子	8330
▁贵族	8331
▁把手	8332
▁物价	8333
▁裹	8334
▁夜宵	8335
▁取得	8336
▁音响	8337
▁倩	8338
▁鑫	8339
▁拉萨	8340
▁燃烧	8341
▁粮食	8342
▁认得	8343
▁1300	8344
以为	8345
▁床单	8346
▁去除	8347
▁互联网	8348
▁捆绑	8349
▁牙膏	8350
▁实名	8351
▁某种	8352
▁秤	8353
ina	8354
▁客人	8355
▁难找	8356
▁特价	8357
▁闪闪	8358
▁脸大	8359
▁死神	8360
▁都木	8361
▁种植	8362
▁鸡腿	8363
▁笔试	8364
▁担当	8365
▁机型	8366
▁太瘦	8367
▁晚睡	8368
▁迅速	8369
▁one	8370
▁宵	8371
mg	8372
▁闪光	8373
▁巾	8374
▁别墅	8375
▁怪兽	8376
▁时差	8377
▁吃住	8378
▁红豆	8379
▁详情	8380
▁妈咪	8381
▁外形	8382
▁时机	8383
▁DNF	8384
▁卡里	8385
▁剧组	8386
▁追星	8387
▁style	8388
▁爹妈	8389
▁长长	8390
▁nb	8391
▁咋整	8392
▁模样	8393
▁榨	8394
▁嚼	8395
▁mx	8396
▁奥斯	8397
▁长途	8398
▁出钱	8399
▁行驶	8400
▁逍遥	8401
▁军人	8402
▁障碍	8403
▁爬山	8404
▁元宵	8405
▁整整	8406
▁停留	8407
▁😲	8408
▁冷淡	8409
▁☀	8410
▁养活	8411
▁首饰	8412
▁真题	8413
▁外地人	8414
▁战狼	8415
▁鳄	8416
▁花样	8417
▁上色	8418
▁小骨	8419
▁窄	8420
▁两把	8421
▁从事	8422
▁养生	8423
▁黑点	8424
-20	8425
▁逐渐	8426
▁一键	8427
▁藕	8428
▁TM	8429
▁一天	8430
▁指数	8431
▁太短	8432
▁自在	8433
▁搞错	8434
▁阵营	8435
萝卜	8436
▁克拉	8437
▁力度	8438
▁夸奖	8439
est	8440
▁客厅	8441
▁独特	8442
▁初二	8443
一步	8444
▁蛋白质	8445
▁进一步	8446
▁背叛	8447
不及	8448
▁丸子	8449
▁滋润	8450
▁娘家	8451
▁熟练	8452
▁观看	8453
▁day	8454
▁世间	8455
▁区分	8456
▁果实	8457
▁搏	8458
▁业余	8459
▁古风	8460
▁发送	8461
▁前年	8462
▁220	8463
▁厨师	8464
▁解除	8465
▁逆天	8466
▁过头	8467
ust	8468
▁水货	8469
▁全集	8470
▁腔	8471
▁👌	8472
▁185	8473
▁吸血鬼	8474
▁仙人	8475
▁接收	8476
▁更改	8477
▁氧化	8478
▁视觉	8479
▁眼圈	8480
▁走人	8481
▁措施	8482
▁过瘾	8483
▁范冰冰	8484
▁哗	8485
▁为难	8486
▁高校	8487
▁主打	8488
▁俯	8489
▁上位	8490
▁崛	8491
▁工大	8492
▁不问	8493
▁打发	8494
▁⃣	8495
▁mc	8496
▁卫星	8497
▁组团	8498
▁别怕	8499
▁轻微	8500
不觉	8501
▁班级	8502
▁不知不觉	8503
▁场合	8504
▁gtx	8505
▁损坏	8506
▁票价	8507
▁五官	8508
▁保定	8509
▁转到	8510
▁霸王	8511
▁之处	8512
▁后腰	8513
▁青海	8514
▁库存	8515
▁问候	8516
▁僧	8517
▁味儿	8518
▁车祸	8519
▁对外	8520
▁79	8521
end	8522
▁影院	8523
▁超人	8524
▁失落	8525
▁公积	8526
▁打仗	8527
▁max	8528
▁自恋	8529
▁皇后	8530
▁闲聊	8531
▁纳闷	8532
▁斧	8533
▁跳楼	8534
▁函数	8535
▁吉祥	8536
▁引进	8537
▁想出	8538
▁逢	8539
▁cr	8540
▁si	8541
▁特地	8542
▁rb	8543
▁意志	8544
▁晚期	8545
▁到头	8546
▁不但	8547
▁巨星	8548
▁广电	8549
▁佛教	8550
▁莎	8551
▁天佑	8552
▁蟑	8553
▁佛山	8554
▁霹雳	8555
▁好转	8556
▁修仙	8557
▁乐园	8558
▁安好	8559
▁录像	8560
▁家属	8561
▁足以	8562
▁这份	8563
▁480	8564
▁泵	8565
▁征信	8566
▁心跳	8567
▁推出	8568
▁依靠	8569
▁后代	8570
▁战神	8571
▁闹心	8572
▁终极	8573
▁麒麟	8574
▁切尔	8575
▁哇靠	8576
▁冲击	8577
▁大宝	8578
▁密度	8579
▁拍戏	8580
▁土木	8581
▁汉服	8582
▁湖人	8583
▁损伤	8584
▁保底	8585
▁姻	8586
▁绒	8587
▁喝喝	8588
▁\#[	8589
eng	8590
▁二维	8591
▁zh	8592
▁消灭	8593
▁权力	8594
▁押金	8595
▁手下	8596
▁珠子	8597
▁该死	8598
▁公积金	8599
▁抑郁症	8600
▁红灯	8601
▁卷子	8602
▁宝贝儿	8603
▁要点	8604
▁280	8605
▁筛	8606
▁平行	8607
▁省内	8608
▁霓	8609
▁多啦	8610
▁俏	8611
jj	8612
▁😚	8613
▁琢磨	8614
▁腮	8615
▁待机	8616
▁野鸡	8617
▁小鸟	8618
▁240	8619
▁下楼	8620
▁塌	8621
▁女孩儿	8622
▁唐山	8623
▁私下	8624
▁救命	8625
▁光棍	8626
▁讲讲	8627
到晚	8628
▁处处	8629
▁翻身	8630
▁几十万	8631
▁乙肝	8632
▁ig	8633
▁常州	8634
▁独自	8635
▁株	8636
▁依据	8637
▁途径	8638
▁大洋	8639
▁万分	8640
▁四千	8641
▁提交	8642
▁终结	8643
▁绿灯	8644
▁很丑	8645
▁心眼	8646
▁袋子	8647
▁冷门	8648
▁老老	8649
▁老老实实	8650
▁夜里	8651
▁赔钱	8652
▁工会	8653
ard	8654
▁吸毒	8655
▁缺钱	8656
ec	8657
▁肤色	8658
▁姥姥	8659
▁张嘴	8660
▁弥补	8661
orry	8662
▁手艺	8663
▁考察	8664
▁夏季	8665
▁攒钱	8666
▁颁	8667
▁请客	8668
▁韭	8669
▁拾	8670
▁em	8671
▁吉利	8672
▁明朝	8673
▁渐渐	8674
▁万事	8675
▁马来	8676
▁贸	8677
▁崛起	8678
▁拆开	8679
▁一向	8680
▁美国人	8681
▁重修	8682
▁logo	8683
▁诈骗	8684
▁exo	8685
▁靖	8686
▁门将	8687
▁中途	8688
▁早早	8689
▁消除	8690
▁金额	8691
▁心理学	8692
▁欧尼	8693
▁学科	8694
▁拖鞋	8695
▁逃避	8696
▁初级	8697
▁用处	8698
▁APP	8699
▁mini	8700
过来	8701
▁反过来	8702
所以	8703
▁视角	8704
▁啰	8705
▁魔术	8706
pr	8707
▁青菜	8708
▁短期	8709
▁兔兔	8710
▁碰见	8711
▁羊毛	8712
▁服气	8713
▁脏话	8714
▁中年	8715
▁脉	8716
▁傻傻	8717
▁>_<	8718
▁单人	8719
▁老天	8720
▁制服	8721
▁清水	8722
▁种草	8723
▁cl	8724
▁大厦	8725
▁预订	8726
▁蟑螂	8727
▁七十	8728
▁痘印	8729
▁繁体	8730
▁专心	8731
▁报到	8732
▁坑人	8733
▁娜娜	8734
▁有才	8735
▁红糖	8736
▁细腻	8737
▁背面	8738
▁无效	8739
▁稳稳	8740
▁影响力	8741
▁can	8742
▁mac	8743
▁合体	8744
▁老二	8745
▁姻缘	8746
▁闹钟	8747
▁960	8748
▁充足	8749
▁邪教	8750
▁钟汉	8751
▁急急	8752
▁漫长	8753
▁冷水	8754
▁阿森纳	8755
▁钟汉良	8756
▁袭	8757
▁丢脸	8758
▁😠	8759
▁钢铁	8760
而异	8761
▁因人而异	8762
▁83	8763
▁金星	8764
▁首都	8765
▁大帝	8766
▁生肖	8767
▁内线	8768
▁开局	8769
▁发售	8770
▁岭	8771
▁菩萨	8772
▁mm	8773
▁企鹅	8774
▁获取	8775
▁duang	8776
▁1400	8777
▁卑	8778
▁除外	8779
▁无尽	8780
29	8781
▁校友	8782
▁-_-||	8783
▁血管	8784
▁敢问	8785
▁更强	8786
▁含义	8787
▁人流	8788
▁犯贱	8789
▁重大	8790
▁2010	8791
▁狗屎	8792
▁😰	8793
▁的哥	8794
▁刷牙	8795
▁皇家	8796
▁っ	8797
▁专属	8798
▁永恒	8799
▁西门	8800
▁瞅瞅	8801
▁社交	8802
▁面的	8803
西亚	8804
▁专一	8805
▁喃	8806
▁推迟	8807
▁本土	8808
▁残酷	8809
▁婶	8810
▁亚马	8811
▁溢	8812
▁蜀黍	8813
▁成色	8814
▁刁	8815
▁空白	8816
▁稀饭	8817
▁默契	8818
▁面具	8819
▁国王	8820
▁外人	8821
▁慧	8822
▁向往	8823
▁肌肤	8824
▁cn	8825
▁歪歪	8826
▁遥控	8827
▁切尔西	8828
▁功力	8829
▁天冷	8830
▁人大	8831
▁出版	8832
▁听得	8833
▁稀罕	8834
▁强求	8835
▁实战	8836
▁烘	8837
▁占有	8838
▁名词	8839
▁潍坊	8840
▁dl	8841
▁胀	8842
▁风雨	8843
▁仙剑	8844
▁失业	8845
▁支援	8846
▁说得好	8847
▁西红	8848
▁应届	8849
▁必定	8850
霉素	8851
▁定时	8852
▁顽	8853
▁中专	8854
▁二中	8855
▁家教	8856
▁滋味	8857
▁临沂	8858
▁蜜蜂	8859
▁日月	8860
▁守望	8861
▁小气	8862
▁慢性	8863
▁被盗	8864
▁驾驭	8865
▁hd	8866
▁隐身	8867
▁犯法	8868
▁屋子	8869
▁奶油	8870
▁椅子	8871
▁申诉	8872
▁380	8873
▁开箱	8874
▁马尾	8875
▁狠狠	8876
▁头痛	8877
▁迷信	8878
▁一带	8879
▁惦	8880
▁qy	8881
gb	8882
▁1.4	8883
▁小点	8884
▁网店	8885
▁惩罚	8886
▁67	8887
▁手绘	8888
▁打爆	8889
▁上身	8890
▁个体	8891
▁自豪	8892
▁方便面	8893
▁半身	8894
▁小型	8895
▁人为	8896
▁之所以	8897
▁掉线	8898
▁终身	8899
▁翡	8900
▁拿钱	8901
▁宣布	8902
▁少量	8903
▁亚马逊	8904
▁胡萝卜	8905
▁小店	8906
▁打破	8907
▁耿	8908
▁亲密	8909
▁新歌	8910
▁泸	8911
▁乒乓	8912
▁暴走	8913
▁龄	8914
▁准时	8915
▁电磁	8916
▁风云	8917
▁检验	8918
▁务	8919
▁开森	8920
▁模具	8921
▁贴纸	8922
▁盲目	8923
▁bios	8924
▁犊	8925
▁fo	8926
▁轮子	8927
▁半价	8928
▁末日	8929
ass	8930
▁楚乔	8931
▁江山	8932
▁蓬	8933
▁西红柿	8934
OT	8935
▁昭	8936
▁随缘	8937
▁妖怪	8938
▁误导	8939
恍惚	8940
▁调侃	8941
▁旋转	8942
▁新娘	8943
▁说起	8944
▁冬季	8945
▁带给	8946
▁补办	8947
▁往事	8948
▁坤	8949
▁堵车	8950
▁有害	8951
▁赌博	8952
▁忍着	8953
▁翻新	8954
▁秒钟	8955
ty	8956
▁盘子	8957
▁无可	8958
▁动物园	8959
▁怡	8960
▁纷	8961
▁开封	8962
▁amd	8963
▁经纪人	8964
▁机制	8965
▁梯	8966
▁未婚	8967
▁爱丽	8968
▁换人	8969
▁茄	8970
▁录制	8971
▁说到底	8972
▁前者	8973
▁拉面	8974
▁百分	8975
▁毅力	8976
▁gta	8977
▁作弊	8978
▁耐用	8979
▁顿时	8980
+2	8981
▁配角	8982
▁帆	8983
▁联网	8984
▁香味	8985
▁韭菜	8986
▁换来	8987
▁注射	8988
氧化	8989
▁平面	8990
▁次次	8991
▁先锋	8992
▁液体	8993
▁洗发水	8994
▁本田	8995
▁安稳	8996
▁承包	8997
▁特征	8998
▁选修	8999
▁哪样	9000
▁研发	9001
▁与其	9002
▁做错	9003
▁刘亦	9004
▁祥	9005
▁截止	9006
▁胆小	9007
▁残疾	9008
▁瘦子	9009
▁3.5	9010
▁信誉	9011
ere	9012
▁摆脱	9013
▁正太	9014
▁bg	9015
▁配色	9016
▁四人	9017
▁棉花	9018
▁发芽	9019
▁算算	9020
▁晋级	9021
▁妇科	9022
▁ヽ	9023
▁茨	9024
德基	9025
▁刷卡	9026
▁直线	9027
▁亭	9028
▁攀	9029
▁客运	9030
生生	9031
▁取决	9032
▁大写	9033
▁硬是	9034
▁丘比特	9035
▁涛	9036
▁净化	9037
▁省电	9038
▁星空	9039
▁封闭	9040
▁星球	9041
▁红枣	9042
▁凄	9043
▁逝	9044
▁才华	9045
▁汕	9046
▁CF	9047
▁呈	9048
▁值班	9049
▁可恶	9050
▁迷人	9051
▁中路	9052
▁嘎嘎	9053
▁汽油	9054
▁风暴	9055
▁单曲	9056
▁表姐	9057
ub	9058
▁鸣人	9059
▁日文	9060
ish	9061
▁开场	9062
▁劲儿	9063
▁白发	9064
▁小新	9065
▁约约	9066
▁勾引	9067
▁圆满	9068
▁她好	9069
▁西湖	9070
▁房东	9071
▁木头	9072
▁红烧	9073
36	9074
▁自尊	9075
▁奥莉	9076
▁天亮	9077
▁刘亦菲	9078
▁现任	9079
▁av	9080
▁附魔	9081
▁罐头	9082
▁脸型	9083
▁料理	9084
▁运输	9085
▁125	9086
▁刨	9087
▁导游	9088
▁糕	9089
▁墙上	9090
▁可行	9091
▁大地	9092
▁青云	9093
▁当下	9094
▁汉人	9095
▁深情	9096
▁姑姑	9097
▁薄荷	9098
▁鸿	9099
▁中等	9100
▁低级	9101
▁4.	9102
▁卧室	9103
▁温和	9104
▁赠送	9105
▁设施	9106
▁叨	9107
▁铠	9108
▁亲情	9109
▁生成	9110
▁韩语	9111
▁杀毒	9112
▁蓝天	9113
▁动画片	9114
▁占用	9115
▁街头	9116
▁哺	9117
▁前来	9118
▁少爷	9119
▁蛙	9120
▁笨蛋	9121
▁浩气	9122
PS	9123
▁平淡	9124
▁楼层	9125
▁弦	9126
▁名人	9127
▁街道	9128
▁血糖	9129
▁创作	9130
▁听懂	9131
▁死机	9132
▁钢化	9133
▁一天到晚	9134
▁觉悟	9135
▁疯子	9136
▁相见	9137
▁虚伪	9138
▁卡片	9139
▁腐女	9140
▁头条	9141
▁词汇	9142
▁real	9143
▁自营	9144
▁qu	9145
▁诡异	9146
\#\#	9147
▁南瓜	9148
▁口音	9149
▁配方	9150
▁成天	9151
▁阿弥	9152
▁鼻炎	9153
ob	9154
▁战略	9155
▁纤维	9156
▁自拔	9157
▁硬币	9158
▁白云	9159
▁黑屏	9160
一试	9161
▁分类	9162
▁缘故	9163
▁痛快	9164
▁渗	9165
▁试一试	9166
▁痰	9167
▁蝙	9168
▁武功	9169
▁具备	9170
▁华丽	9171
▁想见	9172
▁月薪	9173
▁高压	9174
▁元宝	9175
▁商人	9176
▁灯泡	9177
▁犀利	9178
▁都市	9179
800	9180
▁大桥	9181
▁破产	9182
▁难免	9183
▁温泉	9184
▁轩轩	9185
▁gp	9186
▁大同	9187
▁搬到	9188
▁74	9189
▁发作	9190
▁答辩	9191
▁认定	9192
▁平凡	9193
▁陷入	9194
▁予	9195
▁自古	9196
▁红酒	9197
▁丢失	9198
▁医保	9199
▁车主	9200
▁卧底	9201
▁大风	9202
▁闭眼	9203
▁本体	9204
▁融合	9205
▁没收	9206
▁二线	9207
▁午餐	9208
▁锁定	9209
▁改进	9210
▁嚎	9211
▁反抗	9212
▁替代	9213
▁孕期	9214
▁XX	9215
▁成果	9216
▁倒车	9217
▁团体	9218
▁皮卡	9219
▁花儿	9220
▁消费者	9221
▁凛	9222
▁博物	9223
▁腹黑	9224
ame	9225
▁并非	9226
马尔	9227
▁翡翠	9228
▁串串	9229
-11	9230
▁衣柜	9231
▁班车	9232
▁kk	9233
▁分明	9234
▁ja	9235
▁纠缠	9236
▁ll	9237
▁奇妙	9238
▁表明	9239
▁oh	9240
.11	9241
▁火花	9242
▁阿根	9243
▁扫描	9244
▁生态	9245
▁糖尿	9246
▁化工	9247
▁协调	9248
▁下回	9249
▁吧唧	9250
▁询问	9251
▁阿根廷	9252
▁城区	9253
--	9254
▁一丝	9255
▁肯德基	9256
▁😖	9257
▁550	9258
▁牛仔裤	9259
▁亲切	9260
▁新品	9261
▁一阵子	9262
77	9263
▁堕落	9264
▁con	9265
▁帮帮	9266
▁萎	9267
▁读研	9268
▁资质	9269
物浦	9270
▁小鸡	9271
▁盈利	9272
▁利物浦	9273
▁荧	9274
▁手柄	9275
▁pe	9276
▁复印	9277
▁糊涂	9278
▁被逼	9279
li	9280
▁出身	9281
▁清爽	9282
▁狗屁	9283
▁星际	9284
ON	9285
▁存钱	9286
▁耻	9287
▁教官	9288
▁扳	9289
义词	9290
▁十足	9291
▁试卷	9292
▁应当	9293
▁np	9294
▁太忙	9295
▁返回	9296
▁教主	9297
▁ms	9298
▁课本	9299
.10	9300
▁嗦	9301
▁每人	9302
陀佛	9303
▁傻瓜	9304
▁缓存	9305
▁阿弥陀佛	9306
▁邦	9307
▁名声	9308
▁唧	9309
恍惚惚	9310
▁恍恍惚惚	9311
▁当作	9312
▁平米	9313
▁长辈	9314
▁老夫	9315
▁刘备	9316
▁放水	9317
▁尊严	9318
▁情敌	9319
▁颈椎	9320
▁曰	9321
▁筷	9322
▁拖延	9323
▁亲故	9324
▁wow	9325
▁加价	9326
▁爆棚	9327
▁tb	9328
▁致命	9329
▁养殖	9330
▁大全	9331
▁剪刀	9332
▁高低	9333
▁甘肃	9334
▁童话	9335
▁鹦	9336
▁均衡	9337
▁小胖	9338
▁清朝	9339
▁miu	9340
▁伦敦	9341
▁芦荟	9342
▁石榴	9343
▁圣诞节	9344
▁偏向	9345
▁4.5	9346
ello	9347
▁蜗牛	9348
▁流血	9349
▁供电	9350
▁狙击	9351
▁ssr	9352
▁君子	9353
▁妹儿	9354
▁射门	9355
▁挡住	9356
▁特产	9357
▁空虚	9358
▁拱	9359
▁大致	9360
▁干扰	9361
▁手镯	9362
▁初期	9363
▁py	9364
▁共勉	9365
▁气温	9366
▁网名	9367
▁负面	9368
▁ph	9369
▁脸红	9370
▁观望	9371
▁关联	9372
▁每晚	9373
▁以免	9374
▁155	9375
心病	9376
▁体制	9377
▁绍	9378
士奇	9379
▁饲料	9380
▁酿	9381
▁亩	9382
▁西装	9383
▁新华	9384
▁雷神	9385
▁白酒	9386
▁掀	9387
▁骗钱	9388
▁菜鸟	9389
▁顺风	9390
▁扭曲	9391
▁哺乳	9392
▁二百	9393
▁澄清	9394
▁婚后	9395
▁果果	9396
▁舆	9397
▁ra	9398
▁户外	9399
▁朝阳	9400
▁球星	9401
▁万岁	9402
拇指	9403
▁荔	9404
▁雪花	9405
▁戒烟	9406
▁拎	9407
学金	9408
▁奖学金	9409
▁┻	9410
▁*^	9411
▁上边	9412
▁算命	9413
▁绿豆	9414
▁一字	9415
▁两岁	9416
▁上进	9417
▁包裹	9418
▁看开	9419
▁雇	9420
▁迷你	9421
▁后边	9422
▁宁可	9423
▁张艺兴	9424
▁掺	9425
▁一听	9426
▁刘诗	9427
▁不宜	9428
▁漏洞	9429
▁小鹿	9430
▁惦记	9431
▁远方	9432
▁阜	9433
▁绑架	9434
▁日剧	9435
▁喜爱	9436
▁生涯	9437
▁🐷	9438
▁下限	9439
▁音量	9440
▁葬	9441
▁二哥	9442
▁傍	9443
▁ai	9444
▁沙漠	9445
▁一票	9446
▁大手	9447
▁汤圆	9448
▁牙套	9449
▁球衣	9450
▁沃尔	9451
▁等人	9452
ag	9453
▁∑	9454
▁集合	9455
▁犊子	9456
▁玩法	9457
▁die	9458
ld	9459
▁高峰	9460
▁八千	9461
▁庞	9462
▁失踪	9463
▁学业	9464
▁咚	9465
▁skt	9466
▁您说	9467
▁观音	9468
▁邮寄	9469
▁边框	9470
▁dw	9471
▁节食	9472
▁lh	9473
▁柜台	9474
31	9475
▁柚子	9476
▁麦当	9477
▁嗑	9478
▁小样	9479
▁杠杠	9480
▁预言	9481
▁LOL	9482
▁羽毛球	9483
▁分泌	9484
▁点评	9485
▁身后	9486
▁舟	9487
密达	9488
▁图纸	9489
▁佳能	9490
▁震撼	9491
▁内向	9492
▁也罢	9493
▁帮会	9494
▁剪掉	9495
▁鹦鹉	9496
▁入学	9497
▁追到	9498
▁挑拨	9499
▁ly	9500
▁十来	9501
▁采取	9502
▁xp	9503
▁来电	9504
▁诚心	9505
▁休假	9506
▁哈士奇	9507
▁微云	9508
▁八九	9509
▁雯	9510
▁单元	9511
▁南北	9512
▁号称	9513
▁宵夜	9514
▁保温	9515
▁康熙	9516
▁嚣	9517
▁假设	9518
▁游客	9519
▁便便	9520
▁中意	9521
▁社会主义	9522
▁王八	9523
▁零件	9524
▁心得	9525
▁辟	9526
▁披风	9527
▁windows	9528
▁lpl	9529
▁诸葛亮	9530
▁师妹	9531
▁IP	9532
▁恋情	9533
▁搭讪	9534
▁105	9535
▁南站	9536
▁打火	9537
▁打牌	9538
▁矮子	9539
▁龙虾	9540
▁10%	9541
▁总部	9542
▁胸口	9543
▁同胞	9544
▁满月	9545
▁骑行	9546
▁ゝ	9547
▁眼角	9548
▁坐骑	9549
▁蝙蝠	9550
▁羞耻	9551
▁广大	9552
▁凡事	9553
▁萨摩	9554
▁主观	9555
▁还送	9556
▁管理员	9557
▁尬	9558
▁滑板	9559
▁睡衣	9560
▁空中	9561
▁氢	9562
▁圣人	9563
85	9564
▁东风	9565
▁发射	9566
▁双休	9567
▁才说	9568
▁适量	9569
▁译	9570
▁亨	9571
▁溃疡	9572
▁艾迪	9573
▁男士	9574
▁签字	9575
▁下线	9576
▁预报	9577
▁air	9578
▁工程师	9579
▁几时	9580
▁4500	9581
▁赣	9582
▁鲤	9583
▁士兵	9584
▁武术	9585
▁纠正	9586
▁永不	9587
▁word	9588
▁YY	9589
▁喝醉	9590
▁备用	9591
▁鸡肉	9592
▁阿哲	9593
▁争议	9594
▁亮度	9595
ash	9596
▁受害	9597
▁车票	9598
▁瞧不起	9599
▁困扰	9600
▁点水	9601
▁诚实	9602
TV	9603
▁直径	9604
▁假发	9605
▁50%	9606
▁sorry	9607
▁学分	9608
▁钦	9609
▁蓄	9610
▁常年	9611
▁__	9612
▁手脚	9613
▁打断	9614
▁持久	9615
▁汉字	9616
▁贴心	9617
▁马特	9618
▁rng	9619
▁吕布	9620
▁当前	9621
▁卢克	9622
▁VI	9623
▁南山	9624
▁编号	9625
分泌	9626
com	9627
▁毒瘤	9628
▁adc	9629
▁烟花	9630
▁稀有	9631
▁诞	9632
▁透气	9633
▁体能	9634
▁热点	9635
▁证券	9636
ah	9637
▁乐队	9638
▁测量	9639
▁御姐	9640
▁内分泌	9641
▁装作	9642
fc	9643
▁油门	9644
-15	9645
▁发誓	9646
▁汇率	9647
▁恼	9648
ool	9649
▁舅舅	9650
ey	9651
▁橙子	9652
▁奥斯卡	9653
▁亲身	9654
▁春风	9655
▁波动	9656
▁优雅	9657
▁离职	9658
▁筷子	9659
▁八一	9660
▁列车	9661
▁诊断	9662
▁阵子	9663
▁狭	9664
▁big	9665
▁移植	9666
ime	9667
▁js	9668
▁戒赌	9669
▁泉州	9670
建华	9671
▁体积	9672
▁做题	9673
▁人力	9674
▁粘贴	9675
▁强力	9676
▁室外	9677
▁穴	9678
zz	9679
▁小红	9680
▁煎熬	9681
▁尺码	9682
▁tt	9683
▁人文	9684
▁修罗	9685
会儿	9686
170	9687
▁噪音	9688
▁臀	9689
▁亲生	9690
▁地盘	9691
▁火力	9692
▁跑跑	9693
▁暴雨	9694
▁杆子	9695
▁粗暴	9696
▁如下	9697
▁貂蝉	9698
▁炒股	9699
▁读者	9700
▁用途	9701
▁评测	9702
▁染色	9703
▁绿绿	9704
▁陶瓷	9705
▁年薪	9706
▁期货	9707
ant	9708
▁好受	9709
▁全能	9710
▁微星	9711
▁格斗	9712
▁茂	9713
▁👿	9714
▁皇上	9715
▁贩子	9716
▁辫	9717
▁嚣张	9718
▁牵手	9719
▁CPU	9720
▁尹	9721
▁sy	9722
▁癌症	9723
▁西皮	9724
▁传送	9725
▁头顶	9726
▁混血	9727
▁付费	9728
斯特	9729
▁墨迹	9730
▁削弱	9731
▁手办	9732
▁优质	9733
▁地儿	9734
▁洋气	9735
▁蛋黄	9736
ip	9737
▁细小	9738
▁思密达	9739
▁书籍	9740
▁年少	9741
ost	9742
▁才到	9743
▁不幸	9744
▁闭口	9745
▁有利	9746
▁汉堡	9747
▁庭	9748
▁TT	9749
▁同房	9750
km	9751
胞胎	9752
▁舆论	9753
▁质感	9754
pro	9755
▁汉奸	9756
▁苍蝇	9757
▁厚度	9758
▁扑街	9759
▁狂犬	9760
▁秋裤	9761
▁刀剑	9762
▁线条	9763
▁猩猩	9764
▁外语	9765
▁东部	9766
▁拖着	9767
▁畸	9768
▁鲸	9769
▁栀	9770
▁开除	9771
▁断电	9772
▁柿	9773
▁民间	9774
▁芝士	9775
▁配图	9776
▁省会	9777
▁彪	9778
▁传媒	9779
▁处罚	9780
▁7.0	9781
有所	9782
▁怜	9783
▁外省	9784
▁金鱼	9785
▁vx	9786
ll	9787
不着	9788
▁预感	9789
▁饰品	9790
▁棺	9791
▁闽	9792
▁楠	9793
▁终点	9794
▁叻	9795
▁👇	9796
▁无言	9797
▁暴躁	9798
▁实验室	9799
▁通信	9800
▁不利	9801
95	9802
▁非法	9803
▁领证	9804
▁小龙虾	9805
▁了得	9806
▁电商	9807
▁前列	9808
▁北海	9809
▁国语	9810
▁妄想	9811
▁麻木	9812
▁鲫	9813
▁缺陷	9814
▁嫁人	9815
▁书法	9816
▁忍者	9817
▁细心	9818
▁附加	9819
▁劈腿	9820
▁呼呼	9821
▁月季	9822
▁白条	9823
▁淑女	9824
▁丶	9825
▁home	9826
▁命令	9827
▁女排	9828
以对	9829
▁换换	9830
▁无言以对	9831
▁火山	9832
▁happy	9833
▁琼	9834
▁功课	9835
▁昕	9836
▁上涨	9837
▁珊	9838
▁香菇	9839
▁傅	9840
▁62	9841
▁不仅仅	9842
▁带动	9843
▁权威	9844
▁开发商	9845
▁关羽	9846
▁饮水	9847
▁武装	9848
▁霍建华	9849
▁底子	9850
▁aa	9851
▁颤	9852
▁南通	9853
巴巴	9854
▁sn	9855
▁摇滚	9856
▁直说	9857
▁达人	9858
▁黛	9859
▁ye	9860
▁退伍	9861
▁郊区	9862
▁野外	9863
io	9864
▁害人	9865
▁相思	9866
▁衫	9867
拉克	9868
▁买单	9869
▁变色	9870
▁代练	9871
▁2-3	9872
.12	9873
▁小儿	9874
▁狂魔	9875
▁见证	9876
▁轿	9877
▁辛辣	9878
▁′	9879
▁碱	9880
▁摆摊	9881
▁新欢	9882
锈钢	9883
▁匆匆	9884
▁不锈钢	9885
▁万圣	9886
▁明儿	9887
▁158	9888
▁延长	9889
▁明晚	9890
▁隔着	9891
▁咁	9892
▁岸	9893
▁脚步	9894
向上	9895
▁阀	9896
▁人儿	9897
▁约定	9898
▁2400	9899
▁剪短	9900
▁伤人	9901
▁今后	9902
▁流星	9903
▁鱼缸	9904
▁单一	9905
▁手写	9906
▁膨胀	9907
▁ktv	9908
▁编程	9909
▁滚滚	9910
▁苑	9911
▁报纸	9912
tu	9913
▁德行	9914
▁格林	9915
▁绿帽	9916
98	9917
▁感触	9918
▁给出	9919
▁言情	9920
▁上台	9921
kl	9922
▁停产	9923
▁妖刀	9924
▁结核	9925
▁绝版	9926
无故	9927
▁胶带	9928
▁开朗	9929
▁猜对	9930
▁还钱	9931
▁大唐	9932
▁痛经	9933
▁火腿	9934
▁发电	9935
▁轮到	9936
▁椒	9937
▁解脱	9938
▁暮	9939
▁金牌	9940
ji	9941
▁乳液	9942
ili	9943
▁阶级	9944
▁坊	9945
▁too	9946
▁高人	9947
ning	9948
▁浸	9949
▁春秋	9950
▁小妹	9951
▁tr	9952
▁tw	9953
▁分区	9954
▁法语	9955
▁诚信	9956
▁先买	9957
▁格格	9958
▁耽美	9959
▁司法	9960
▁已婚	9961
▁call	9962
▁路子	9963
▁麦当劳	9964
▁欢喜	9965
▁闻到	9966
▁可悲	9967
▁后背	9968
nt	9969
事人	9970
▁乐乐	9971
▁当事人	9972
▁妥协	9973
▁结实	9974
第一	9975
▁意向	9976
▁解散	9977
▁装甲	9978
▁有救	9979
▁试验	9980
▁财经	9981
▁随身	9982
▁戴尔	9983
▁脸色	9984
▁260	9985
▁鹏	9986
▁out	9987
▁土狗	9988
▁微软	9989
▁笛	9990
▁天下第一	9991
▁唧唧	9992
▁出行	9993
▁书包	9994
AD	9995
▁mb	9996
uli	9997
▁小马	9998
▁洗手	9999
▁看重	10000
▁网银	10001
▁棚	10002
▁年终	10003
▁点名	10004
▁自愿	10005
▁糖尿病	10006
▁套房	10007
▁对头	10008
▁天蝎座	10009
▁👉	10010
▁乡镇	10011
▁如同	10012
▁彩色	10013
▁拔牙	10014
▁看台	10015
▁老马	10016
▁赵云	10017
▁心血	10018
▁暗黑	10019
▁高档	10020
▁死掉	10021
▁阿三	10022
▁多重	10023
▁扮演	10024
▁古城	10025
▁探讨	10026
▁立即	10027
不上	10028
▁在校	10029
▁眼霜	10030
▁退回	10031
▁赶不上	10032
▁cm	10033
心病狂	10034
▁丧心病狂	10035
▁报应	10036
▁无疑	10037
▁非洲人	10038
▁恐龙	10039
▁往年	10040
▁反倒	10041
斯坦	10042
▁慢点	10043
▁抱紧	10044
▁某某	10045
▁结石	10046
▁内马尔	10047
▁冷战	10048
▁外号	10049
▁9000	10050
▁提起	10051
▁誓	10052
▁几百万	10053
▁原文	10054
▁无理	10055
▁送货	10056
▁挖掘	10057
▁旋风	10058
▁航班	10059
▁一传	10060
▁光盘	10061
▁皇冠	10062
▁sw	10063
▁气势	10064
▁迷路	10065
▁羞涩	10066
▁侦探	10067
▁午安	10068
▁提成	10069
ree	10070
▁一串	10071
▁占领	10072
▁bo	10073
▁便利	10074
▁mo	10075
▁规格	10076
▁连锁	10077
▁开出	10078
▁幽魂	10079
▁陆地	10080
▁公婆	10081
▁妾	10082
▁顺着	10083
▁卖完	10084
▁纽约	10085
▁误解	10086
▁院子	10087
▁现状	10088
▁湛	10089
▁火线	10090
ER	10091
▁小车	10092
▁泰坦	10093
IF	10094
▁fm	10095
▁模拟器	10096
▁名牌	10097
▁讨好	10098
▁财政	10099
▁ε	10100
▁博物馆	10101
▁求婚	10102
▁祛痘	10103
▁183	10104
▁眼影	10105
▁首选	10106
▁地摊	10107
▁院长	10108
▁吱	10109
▁擎	10110
▁岂不	10111
▁五万	10112
▁吸烟	10113
▁小卡	10114
▁鼎	10115
▁卡顿	10116
▁usb	10117
▁订婚	10118
▁黑头	10119
▁miui	10120
▁遭遇	10121
▁骏	10122
▁煽	10123
▁心想	10124
▁泰达	10125
▁军团	10126
▁看透	10127
ast	10128
▁王朝	10129
▁体谅	10130
▁保罗	10131
▁总得	10132
▁三世	10133
▁暂停	10134
▁极其	10135
▁太空	10136
▁原子	10137
▁机电	10138
▁药丸	10139
▁tx	10140
▁体贴	10141
▁北上	10142
▁明日	10143
▁苏北	10144
▁大明	10145
▁数值	10146
▁睁眼	10147
▁活力	10148
▁花费	10149
▁气球	10150
▁平胸	10151
▁廉价	10152
▁糯米	10153
▁7700	10154
▁发呆	10155
▁能源	10156
▁拟	10157
▁推销	10158
▁后腿	10159
▁学术	10160
▁补习	10161
▁嬛	10162
▁岚	10163
▁先天	10164
▁国米	10165
▁矜	10166
day	10167
▁成龙	10168
ith	10169
▁黄河	10170
▁打理	10171
▁欣慰	10172
▁作家	10173
▁入住	10174
▁艘	10175
▁小丑	10176
400	10177
▁im	10178
▁ko	10179
▁身子	10180
▁陈伟	10181
▁双胞胎	10182
▁迎接	10183
▁存储	10184
▁武侠	10185
▁太平洋	10186
▁╥	10187
.30	10188
▁大厅	10189
▁sei	10190
▁煞	10191
▁家务	10192
▁挂件	10193
▁蝎子	10194
▁一早	10195
▁绝壁	10196
▁语法	10197
▁茫	10198
▁心爱	10199
▁感想	10200
▁连胜	10201
▁嫌疑	10202
▁扣分	10203
▁重来	10204
▁水电	10205
▁体温	10206
▁简称	10207
▁六一	10208
▁存档	10209
▁急需	10210
▁苦恼	10211
▁冤枉	10212
▁加重	10213
▁海底	10214
▁唯有	10215
▁外边	10216
▁枸	10217
▁眨	10218
▁nc	10219
▁大厂	10220
▁鸭梨	10221
▁写作	10222
▁孤儿	10223
▁肿瘤	10224
▁腰疼	10225
▁较大	10226
▁超出	10227
▁82	10228
▁烂片	10229
▁后门	10230
▁海关	10231
▁孙悟	10232
▁着想	10233
▁愚蠢	10234
▁试纸	10235
▁巢	10236
血压	10237
▁一亿	10238
▁全体	10239
▁肆	10240
▁鲍	10241
▁总能	10242
▁按住	10243
▁景区	10244
▁👊	10245
▁20%	10246
▁华人	10247
▁襄	10248
▁谣言	10249
▁史诗	10250
▁大年	10251
▁雏	10252
ex	10253
▁鸡翅	10254
中心	10255
▁保重	10256
▁网球	10257
▁达成	10258
▁顶顶	10259
.15	10260
▁仅供	10261
▁高通	10262
▁丐帮	10263
▁绵阳	10264
▁通行	10265
▁188	10266
▁之上	10267
▁雌	10268
cd	10269
▁萤	10270
▁勤快	10271
▁手中	10272
▁底层	10273
▁坏处	10274
▁当当	10275
▁构成	10276
▁脊	10277
▁as	10278
▁2018	10279
▁赞美	10280
▁琳	10281
▁付钱	10282
▁共和	10283
um	10284
▁打钱	10285
▁腥	10286
▁上上	10287
▁人情	10288
▁江浙	10289
▁缴费	10290
▁联机	10291
▁开工	10292
▁茨木	10293
▁比分	10294
96	10295
▁瞪	10296
▁乞丐	10297
▁生子	10298
▁厂商	10299
▁混沌	10300
▁收留	10301
贝尔	10302
▁空腹	10303
▁丁丁	10304
▁表扬	10305
▁重要性	10306
▁敦	10307
▁狠心	10308
▁禽	10309
▁教会	10310
▁疯狗	10311
▁模块	10312
▁重温	10313
▁超大	10314
▁插入	10315
▁较真	10316
▁成交	10317
▁甜品	10318
▁大本营	10319
▁冒泡	10320
▁霞	10321
▁中期	10322
▁喔喔	10323
▁部长	10324
▁田园	10325
▁酵	10326
▁大队	10327
▁麻雀	10328
▁加速器	10329
▁栗子	10330
▁珍贵	10331
▁掉落	10332
▁320	10333
▁sd	10334
▁点亮	10335
▁功耗	10336
▁调到	10337
lo	10338
▁矿泉	10339
▁浆	10340
▁出处	10341
▁肉体	10342
▁出路	10343
▁不屑	10344
▁供应	10345
▁出色	10346
▁脑壳	10347
▁邹	10348
▁氨	10349
▁开播	10350
▁法学	10351
▁续约	10352
▁遗忘	10353
per	10354
▁参照	10355
▁集成	10356
boy	10357
▁身价	10358
-30	10359
▁头盔	10360
▁举手	10361
▁捧场	10362
▁身心	10363
▁下山	10364
▁play	10365
▁市面	10366
▁肥肉	10367
▁陈伟霆	10368
63	10369
▁修行	10370
▁多才	10371
▁案例	10372
▁AB	10373
▁二月	10374
▁念头	10375
▁花絮	10376
▁协商	10377
▁文凭	10378
▁汪汪	10379
▁额外	10380
▁投降	10381
▁片段	10382
▁面霜	10383
▁空军	10384
▁%	10385
▁包皮	10386
▁口子	10387
▁泡菜	10388
▁货币	10389
▁亚军	10390
▁骁	10391
▁婚前	10392
▁弄成	10393
▁孙悟空	10394
糊涂	10395
▁南阳	10396
▁认知	10397
▁推理	10398
▁本性	10399
▁配套	10400
▁孵	10401
▁际	10402
▁专利	10403
▁平平	10404
▁PP	10405
▁后遗	10406
▁∀	10407
▁抽风	10408
▁补钙	10409
bang	10410
▁前置	10411
▁强队	10412
▁喷雾	10413
▁底薪	10414
▁深处	10415
▁阡	10416
ud	10417
▁燥	10418
▁孝顺	10419
▁不顾	10420
▁加大	10421
▁已有	10422
▁暴风	10423
▁灵感	10424
▁括	10425
▁位于	10426
▁分身	10427
▁较好	10428
▁丛	10429
▁摧	10430
▁上万	10431
▁长成	10432
▁会议	10433
▁锡	10434
▁跳过	10435
▁偷懒	10436
▁股份	10437
▁mix	10438
▁绩	10439
▁年初	10440
▁打磨	10441
▁长草	10442
▁贫血	10443
▁干吗	10444
▁天平	10445
▁山地	10446
▁露出	10447
▁居民	10448
~~~	10449
▁心烦	10450
▁原作	10451
▁大名	10452
▁策略	10453
▁车架	10454
▁-_-\#	10455
▁一档	10456
▁绳子	10457
▁盖子	10458
▁打印机	10459
▁颓	10460
▁武林	10461
▁洁面	10462
▁后半	10463
▁圈圈	10464
▁盛世	10465
▁星辰	10466
▁care	10467
▁一如	10468
▁邮票	10469
▁黑化	10470
▁旭	10471
▁中原	10472
▁比亚	10473
▁绅	10474
▁回想	10475
▁差价	10476
▁魔鬼	10477
▁匠	10478
▁出于	10479
不得	10480
▁国籍	10481
▁盐水	10482
▁原型	10483
▁红楼	10484
▁户籍	10485
▁寨	10486
▁涌	10487
▁此人	10488
▁紧急	10489
▁补补	10490
▁视野	10491
▁fgo	10492
▁歼	10493
▁离谱	10494
▁难忘	10495
▁茉	10496
▁咖喱	10497
▁四星	10498
▁用不着	10499
▁81	10500
▁在场	10501
▁零下	10502
▁小熊	10503
▁红薯	10504
▁长生	10505
▁领悟	10506
:1	10507
▁入侵	10508
▁温水	10509
▁htc	10510
▁警告	10511
▁潮流	10512
▁╠	10513
▁败家	10514
▁防弹	10515
▁组长	10516
▁🎂	10517
▁走好	10518
▁均匀	10519
▁照着	10520
▁名叫	10521
▁呛	10522
▁替换	10523
▁王牌	10524
▁〃	10525
▁文档	10526
▁战胜	10527
▁感性	10528
▁扩大	10529
▁吓唬	10530
▁过户	10531
▁氯	10532
MB	10533
▁精通	10534
▁事后	10535
▁冰雪	10536
▁寄给	10537
▁物体	10538
▁驼	10539
▁豆子	10540
▁java	10541
▁茄子	10542
▁后遗症	10543
▁无用	10544
▁矜持	10545
▁车管	10546
▁创建	10547
▁引发	10548
▁渝	10549
▁阴谋	10550
▁大国	10551
▁建国	10552
▁排毒	10553
▁采购	10554
▁佐助	10555
不住	10556
▁同龄	10557
▁墨镜	10558
▁避开	10559
▁磊	10560
▁当场	10561
▁规范	10562
▁北站	10563
▁外出	10564
▁好惨	10565
play	10566
▁卿	10567
▁功劳	10568
▁快手	10569
▁次奥	10570
▁青蛙	10571
▁呕吐	10572
▁佑	10573
▁访问	10574
▁箫	10575
▁电台	10576
▁眼球	10577
▁fa	10578
▁拉稀	10579
▁阡陌	10580
▁剑圣	10581
▁宜家	10582
▁满脸	10583
▁能行	10584
▁水煮	10585
▁传承	10586
▁报废	10587
▁栀子	10588
▁吸引力	10589
▁争气	10590
▁大炮	10591
▁涩	10592
▁搞好	10593
▁造价	10594
▁忽视	10595
▁门槛	10596
▁鸡血	10597
▁万物	10598
▁一度	10599
▁发霉	10600
▁吃苦	10601
▁效应	10602
▁走进	10603
▁师弟	10604
▁衡量	10605
▁公关	10606
▁杰伦	10607
▁碰瓷	10608
▁翻页	10609
▁排斥	10610
▁伴娘	10611
▁👀	10612
▁电竞	10613
▁解析	10614
▁阴暗	10615
▁霸刀	10616
▁刘诗诗	10617
▁磅	10618
▁大话	10619
▁眠	10620
▁赋	10621
▁前场	10622
▁大鱼	10623
▁免疫力	10624
▁廊	10625
▁表弟	10626
▁多得	10627
▁违约	10628
▁''	10629
▁封建	10630
▁灶	10631
▁个儿	10632
▁客栈	10633
▁输液	10634
▁魔方	10635
▁炒饭	10636
▁翻翻	10637
▁准的	10638
▁揣	10639
▁д	10640
▁填写	10641
▁俺们	10642
▁同居	10643
91	10644
巴克	10645
▁尺度	10646
▁过渡	10647
▁想像	10648
▁手腕	10649
▁胸部	10650
▁><	10651
▁言语	10652
▁狗肉	10653
▁逆转	10654
▁陈奕	10655
▁机身	10656
▁开户	10657
▁双排	10658
68	10659
▁提名	10660
▁短暂	10661
▁敷衍	10662
▁boom	10663
▁忧郁	10664
▁编制	10665
▁猝	10666
▁违和	10667
大利亚	10668
▁888	10669
▁~~[	10670
▁修养	10671
▁加到	10672
▁背心	10673
▁战友	10674
▁极好	10675
▁赛尔	10676
▁渲	10677
▁低音	10678
▁柱子	10679
▁社长	10680
▁车队	10681
ix	10682
▁橙色	10683
▁密封	10684
▁思域	10685
▁民谣	10686
▁嗜	10687
▁户型	10688
▁贸易	10689
▁蒲	10690
▁站街	10691
▁关键词	10692
▁裸奔	10693
▁锁骨	10694
▁澳大利亚	10695
▁your	10696
▁交叉	10697
▁家园	10698
▁目录	10699
▁碘	10700
▁日出	10701
▁爱好者	10702
▁en	10703
▁荔枝	10704
▁饭卡	10705
▁乏	10706
▁酋	10707
.25	10708
▁威海	10709
▁急求	10710
▁月卡	10711
▁伊斯	10712
▁火龙	10713
假日	10714
▁顺产	10715
▁极度	10716
▁腹部	10717
▁阴天	10718
▁一针	10719
▁美貌	10720
▁义工	10721
▁写好	10722
▁ng	10723
▁鸡肋	10724
▁but	10725
▁合约	10726
▁枸杞	10727
▁sl	10728
▁急性	10729
▁无名	10730
▁fr	10731
▁高音	10732
▁腌	10733
▁出院	10734
▁显存	10735
▁产权	10736
▁链子	10737
▁冲锋	10738
▁元气	10739
▁话筒	10740
▁双倍	10741
▁增高	10742
▁查找	10743
▁108	10744
▁同在	10745
▁展现	10746
▁嚒	10747
▁分组	10748
▁富美	10749
▁解封	10750
▁打底	10751
▁声明	10752
▁知己	10753
▁泛滥	10754
▁点钟	10755
▁宴	10756
▁例外	10757
▁拨打	10758
▁抗日	10759
▁山路	10760
▁垫底	10761
▁诞生	10762
▁omg	10763
▁罪恶	10764
▁金山	10765
▁坂	10766
▁写错	10767
▁天鹅	10768
▁红茶	10769
▁锯	10770
▁儿女	10771
▁安定	10772
▁live	10773
▁同类	10774
▁换装	10775
▁肤浅	10776
▁饥渴	10777
▁挨打	10778
▁豪门	10779
▁小镇	10780
▁辉煌	10781
▁高能	10782
▁470	10783
▁✨	10784
▁交大	10785
▁洁癖	10786
▁邯	10787
▁小明	10788
▁省心	10789
▁将会	10790
▁掏钱	10791
▁冒充	10792
▁吵醒	10793
▁框架	10794
▁绝育	10795
▁转型	10796
▁出线	10797
▁镶	10798
▁逃跑	10799
▁脱发	10800
▁橡皮	10801
▁闷骚	10802
▁发酵	10803
▁脚下	10804
▁麦克	10805
出来	10806
▁看得出来	10807
▁半斤	10808
▁172	10809
▁摸头	10810
▁5.5	10811
▁毫米	10812
▁围脖	10813
▁篮板	10814
▁输球	10815
▁玛丽苏	10816
▁ic	10817
▁小众	10818
▁海口	10819
ua	10820
▁搭档	10821
▁棺材	10822
▁10.3	10823
▁妍	10824
▁出错	10825
▁古典	10826
▁找事	10827
▁万圣节	10828
▁富士康	10829
▁郡	10830
▁钢笔	10831
▁🌻	10832
▁武力	10833
▁嗝	10834
▁展开	10835
▁not	10836
▁ls	10837
▁菩提	10838
德华	10839
▁活到	10840
▁高就	10841
▁摁	10842
▁外传	10843
▁宽容	10844
▁秋冬	10845
▁凳	10846
▁厄	10847
▁电费	10848
xkl	10849
▁牛皮	10850
▁扔掉	10851
▁━	10852
▁徽章	10853
▁相声	10854
▁30%	10855
▁婉	10856
▁预备	10857
▁鼻孔	10858
by	10859
ds	10860
▁家养	10861
▁转正	10862
▁鼬	10863
▁法比	10864
▁逃课	10865
▁化验	10866
▁梅花	10867
▁jjc	10868
▁熔	10869
畏惧	10870
▁贝贝	10871
▁1100	10872
▁づ	10873
▁寓	10874
▁韧	10875
▁小猪	10876
▁公演	10877
▁沙子	10878
zi	10879
▁十九	10880
▁北美	10881
▁唯独	10882
▁改改	10883
▁练手	10884
▁找出	10885
▁解压	10886
▁改动	10887
▁血量	10888
▁广东人	10889
▁泰山	10890
▁过时	10891
▁fps	10892
▁意境	10893
▁烤箱	10894
▁口头	10895
▁地道	10896
▁纸巾	10897
▁万万	10898
▁保姆	10899
▁前台	10900
▁说爱	10901
▁引擎	10902
▁瞌	10903
▁厌恶	10904
▁牌照	10905
▁畸形	10906
▁人妖	10907
▁土耳	10908
▁孔雀	10909
▁康康	10910
▁排球	10911
▁富贵	10912
▁反省	10913
▁憋屈	10914
▁想不开	10915
▁巨头	10916
▁加载	10917
▁安检	10918
▁土耳其	10919
▁耳环	10920
▁这天	10921
▁做菜	10922
▁冷却	10923
▁陈奕迅	10924
▁sc	10925
▁意甲	10926
▁花都	10927
▁超神	10928
鲁斯	10929
▁un	10930
▁伙食	10931
▁沐浴	10932
▁参观	10933
▁真空	10934
▁再想	10935
▁泡水	10936
67	10937
▁蒂	10938
▁大奖	10939
▁woc	10940
▁谎言	10941
无忌	10942
▁小刀	10943
▁恶劣	10944
▁皮带	10945
▁禁言	10946
▁沉淀	10947
▁乍	10948
▁双人	10949
▁收回	10950
▁2.3	10951
**	10952
▁wuli	10953
▁封印	10954
▁肾虚	10955
▁发觉	10956
▁杖	10957
▁邱	10958
▁弟子	10959
▁褪	10960
▁夜猫	10961
▁精油	10962
▁一招	10963
▁卡住	10964
▁缩水	10965
▁入口	10966
▁学前	10967
▁崩坏	10968
▁从而	10969
▁反思	10970
▁荒古	10971
▁贫困	10972
▁し	10973
▁虚荣	10974
▁魔力	10975
▁唠嗑	10976
▁原先	10977
▁极致	10978
▁魔女	10979
维斯	10980
▁尽情	10981
▁色调	10982
▁芜	10983
▁la	10984
▁香菜	10985
▁减速	10986
▁连载	10987
▁阿迪	10988
▁忙碌	10989
▁粗糙	10990
所欲	10991
▁丰田	10992
▁乐器	10993
▁产后	10994
▁核弹	10995
▁油管	10996
▁饭后	10997
▁讯	10998
▁CD	10999
▁三哥	11000
▁上牌	11001
▁厚道	11002
▁牙龈	11003
▁疤痕	11004
▁鲨鱼	11005
▁星巴克	11006
▁密集	11007
▁巧合	11008
▁海尔	11009
▁立体	11010
▁大水	11011
▁王国	11012
▁赚到	11013
▁白人	11014
▁feel	11015
▁好象	11016
▁两根	11017
▁借给	11018
▁血腥	11019
▁1.3	11020
▁双标	11021
▁网点	11022
▁读音	11023
▁say	11024
▁陵	11025
▁反手	11026
▁米线	11027
▁抗体	11028
▁吃力	11029
▁牙疼	11030
▁磨损	11031
▁下方	11032
▁多事	11033
▁青龙	11034
▁竿	11035
▁脚趾	11036
▁节约	11037
▁震动	11038
▁尿尿	11039
▁披萨	11040
▁痔	11041
▁多些	11042
▁一炮	11043
▁内战	11044
▁拔掉	11045
▁疑惑	11046
▁伊朗	11047
▁省油	11048
▁自知	11049
▁实习生	11050
钟情	11051
-9	11052
▁音频	11053
▁压迫	11054
▁柿子	11055
▁卫衣	11056
▁行车	11057
▁820	11058
▁恍惚	11059
▁无缘	11060
▁节假日	11061
▁小看	11062
▁省事	11063
▁一见钟情	11064
ick	11065
ony	11066
▁te	11067
▁底盘	11068
▁难为	11069
▁💩	11070
▁好办	11071
▁应付	11072
▁建行	11073
▁水瓶座	11074
▁反射	11075
▁大嘴	11076
▁调色	11077
▁无缘无故	11078
▁5.	11079
▁冇	11080
▁武大	11081
▁再开	11082
▁打掉	11083
▁离子	11084
▁橄	11085
▁渲染	11086
▁哟哟	11087
▁80%	11088
150	11089
拉斯	11090
▁汕头	11091
▁大图	11092
▁快餐	11093
▁ppt	11094
jpg	11095
▁贝尔	11096
▁货车	11097
▁美金	11098
▁排量	11099
▁特典	11100
▁瞌睡	11101
▁姐弟	11102
▁畜生	11103
▁鸡毛	11104
▁蔓	11105
ive	11106
▁全日	11107
▁执法	11108
▁电工	11109
▁趁早	11110
▁邓超	11111
▁太狠	11112
▁深沉	11113
▁直白	11114
▁倔	11115
▁慰	11116
▁快进	11117
▁开盘	11118
▁大象	11119
▁使命	11120
▁死刑	11121
▁白头	11122
▁耐克	11123
▁运用	11124
▁颇	11125
▁吃香	11126
▁木耳	11127
▁尽头	11128
▁洗脚	11129
▁卫士	11130
▁成型	11131
▁自来水	11132
▁gs	11133
▁橄榄	11134
▁下图	11135
▁发贴	11136
ose	11137
▁露脸	11138
▁固件	11139
▁座椅	11140
莱坞	11141
▁÷	11142
▁沿海	11143
▁招商	11144
▁单单	11145
▁太紧	11146
▁祝贺	11147
▁融入	11148
▁孔明	11149
▁上山	11150
▁炫舞	11151
▁玄学	11152
▁制定	11153
▁950	11154
▁系数	11155
▁驱虫	11156
▁坚信	11157
65	11158
▁发病	11159
▁情报	11160
▁复古	11161
▁女团	11162
▁长毛	11163
▁客车	11164
▁四百	11165
▁天台	11166
▁火焰	11167
▁惭	11168
▁转化	11169
▁断奶	11170
▁下边	11171
▁后盖	11172
▁剩余	11173
▁心底	11174
▁武将	11175
▁居多	11176
▁拍成	11177
▁招募	11178
▁高原	11179
▁方程	11180
▁诋	11181
▁出柜	11182
▁韩信	11183
拉多	11184
▁影像	11185
▁绯闻	11186
▁白板	11187
以为是	11188
▁自以为是	11189
▁曲子	11190
▁评估	11191
▁邮局	11192
▁失调	11193
▁担保	11194
▁狡	11195
▁内蒙古	11196
▁督	11197
▁天河	11198
▁绞	11199
▁松鼠	11200
▁胸围	11201
▁侄子	11202
▁擦擦	11203
▁淋巴	11204
▁➕	11205
▁也敢	11206
▁果真	11207
格兰	11208
▁清纯	11209
▁脑海	11210
▁进展	11211
▁な	11212
▁海绵	11213
▁寄生	11214
▁前世	11215
▁诗人	11216
▁午觉	11217
▁失忆	11218
▁抹茶	11219
▁赠品	11220
▁油炸	11221
▁1.0	11222
▁禅	11223
▁葵	11224
宝石	11225
▁布置	11226
▁圣女	11227
▁姚明	11228
▁违规	11229
▁憨	11230
man	11231
▁口号	11232
▁感应	11233
▁案件	11234
衣库	11235
▁举办	11236
▁公认	11237
▁火火	11238
▁王菲	11239
▁图里	11240
▁酸菜	11241
▁优衣库	11242
▁电力	11243
▁缺钙	11244
▁转变	11245
▁说谎	11246
▁战国	11247
▁武警	11248
▁冻结	11249
不来	11250
▁哭泣	11251
▁男孩儿	11252
▁保密	11253
▁凡人	11254
▁惠州	11255
▁操控	11256
▁新东	11257
▁163	11258
▁实说	11259
▁本本	11260
▁戒掉	11261
▁流动	11262
▁娃儿	11263
▁诋毁	11264
▁接吻	11265
▁极速	11266
▁让给	11267
▁晒黑	11268
▁差劲	11269
▁悬念	11270
▁伤病	11271
▁前方	11272
▁瑞士	11273
▁声优	11274
▁co	11275
▁er	11276
▁南门	11277
▁本能	11278
hold	11279
▁利率	11280
▁̅	11281
▁sr	11282
▁幽灵	11283
▁助听	11284
▁奴隶	11285
▁鳄鱼	11286
▁罐子	11287
▁持有	11288
▁匀	11289
▁现有	11290
▁穆斯	11291
▁ddr	11292
▁桔	11293
▁抽血	11294
▁红花	11295
▁书里	11296
▁象征	11297
▁MV	11298
▁变异	11299
▁小黄	11300
▁台湾人	11301
▁刀子	11302
▁小受	11303
▁都特	11304
ans	11305
▁天前	11306
▁2800	11307
▁帝王	11308
▁新城	11309
▁瘦脸	11310
▁耶稣	11311
▁艾滋病	11312
▁伴侣	11313
▁大伙	11314
▁发球	11315
▁棕色	11316
▁风气	11317
▁抵押	11318
▁新建	11319
▁涨停	11320
▁前列腺	11321
之谦	11322
▁da	11323
▁宽松	11324
▁滥	11325
▁悲观	11326
▁景色	11327
▁1-2	11328
▁华山	11329
▁变动	11330
▁夏日	11331
▁韦德	11332
tion	11333
▁台北	11334
▁淄	11335
▁出卖	11336
▁满天	11337
▁碧瑶	11338
▁扰	11339
▁贪心	11340
▁自动化	11341
▁用水	11342
情愿	11343
▁砍死	11344
▁薛之谦	11345
▁焖	11346
▁邵	11347
▁中级	11348
▁大麦	11349
co	11350
▁资深	11351
▁删减	11352
▁suv	11353
▁特定	11354
▁脚本	11355
▁dps	11356
▁卡号	11357
▁黄山	11358
ara	11359
▁船长	11360
▁银子	11361
八道	11362
▁格局	11363
▁胡说八道	11364
▁受罪	11365
▁序列	11366
▁花式	11367
▁讲解	11368
▁TV	11369
▁繁华	11370
▁认出	11371
▁230	11372
▁抑制	11373
▁转速	11374
▁快说	11375
▁音源	11376
▁乐天	11377
▁勤奋	11378
▁外交	11379
▁nice	11380
▁上方	11381
▁整机	11382
▁借鉴	11383
▁黎明	11384
way	11385
▁目光	11386
▁期限	11387
▁灰尘	11388
▁VIP	11389
▁钞	11390
▁自有	11391
▁新东方	11392
▁狄	11393
▁确有	11394
▁车道	11395
▁局长	11396
▁风筝	11397
▁老爹	11398
▁胃疼	11399
▁用钱	11400
▁上头	11401
▁母鸡	11402
▁镀	11403
▁体育馆	11404
▁同等	11405
▁瓷砖	11406
▁自已	11407
▁选好	11408
▁why	11409
▁MP	11410
▁渺	11411
▁氧气	11412
▁蜜汁	11413
▁阅兵	11414
▁三十多	11415
▁幺	11416
到尾	11417
▁便当	11418
▁从头到尾	11419
▁沁	11420
▁玥	11421
▁别字	11422
▁郭靖	11423
▁挂号	11424
▁特性	11425
▁难熬	11426
▁光荣	11427
▁沙滩	11428
▁红尘	11429
▁水泡	11430
▁补录	11431
our	11432
▁幅度	11433
▁底部	11434
▁管道	11435
▁关爱	11436
▁投档	11437
▁姿态	11438
▁客串	11439
▁忘掉	11440
▁日元	11441
▁绅士	11442
▁拼车	11443
37	11444
▁铅笔	11445
▁市中心	11446
▁大餐	11447
▁布丁	11448
▁独生	11449
▁鼻血	11450
▁光驱	11451
▁干妈	11452
▁二十几	11453
▁垮	11454
▁miss	11455
▁人参	11456
▁六人	11457
▁内在	11458
▁看似	11459
▁轿车	11460
▁101	11461
▁下水道	11462
▁惭愧	11463
▁瞒	11464
▁湿疹	11465
▁峡	11466
▁吃素	11467
▁快走	11468
▁弱点	11469
▁状元	11470
▁外壳	11471
▁环节	11472
▁绝杀	11473
▁花苞	11474
▁送来	11475
▁雷达	11476
▁滩	11477
▁尊敬	11478
▁理念	11479
▁电线	11480
▁贝吉	11481
▁懒觉	11482
▁投篮	11483
ono	11484
▁仰卧	11485
▁麻药	11486
▁巩	11487
▁阎	11488
▁刷子	11489
▁战地	11490
▁灿烂	11491
当然	11492
▁公正	11493
▁公民	11494
▁凡是	11495
▁赢得	11496
▁瘾	11497
▁运势	11498
▁拿起	11499
▁无爱	11500
▁装好	11501
▁骷	11502
▁一塌	11503
▁学员	11504
▁绝交	11505
▁优惠券	11506
▁窗帘	11507
▁*/	11508
▁魄	11509
▁合唱	11510
▁奶爸	11511
▁行啦	11512
▁面瘫	11513
▽╰	11514
▁╯▽╰	11515
俊杰	11516
▁十一月	11517
▁寿司	11518
▁欧阳	11519
▁做作	11520
▁一塌糊涂	11521
▁乡村	11522
▁听完	11523
▁手链	11524
▁过高	11525
▁加快	11526
▁弯弯	11527
▁杂谈	11528
为力	11529
▁籍	11530
▁鳖	11531
▁无能为力	11532
▁围着	11533
▁转给	11534
▁愧	11535
▁dc	11536
▁登场	11537
▁神龙	11538
▁挑食	11539
▁转行	11540
34	11541
▁色差	11542
▁发车	11543
▁鲫鱼	11544
▁正脸	11545
▁较多	11546
之年	11547
▁惠普	11548
话可	11549
▁剑灵	11550
▁造句	11551
▁叙利亚	11552
▁无话可	11553
▁比亚迪	11554
▁梵	11555
▁ct	11556
▁探索	11557
▁公道	11558
▁爱玩	11559
尔特	11560
▁克服	11561
▁出入	11562
▁禁区	11563
▁西边	11564
▁面部	11565
▁反转	11566
▁抱团	11567
▁努比亚	11568
▁冷冻	11569
▁女权	11570
▁呲	11571
▁蚕	11572
▁腐败	11573
▁预期	11574
▁like	11575
▁猪蹄	11576
▁油漆	11577
▁玩去	11578
▁意愿	11579
▁房屋	11580
▁爱听	11581
▁喂养	11582
▁主管	11583
▁偏见	11584
▁多花	11585
▁5.1	11586
▁高血压	11587
▁委员	11588
▁以往	11589
▁抗战	11590
▁抽筋	11591
▁模板	11592
▁叭	11593
▁熙	11594
▁女婿	11595
▁旋律	11596
▁东南亚	11597
▁经济学	11598
▁=-	11599
▁划痕	11600
▁挽留	11601
▁爵士	11602
拉里	11603
▁果汁	11604
▁出演	11605
▁哨	11606
▁无话可说	11607
▁凌乱	11608
▁收下	11609
▁溺	11610
天宇	11611
▁做起	11612
▁特长	11613
▁干点	11614
▁精准	11615
▁转运	11616
▁捶	11617
▁何止	11618
▁别拿	11619
▁窒	11620
▁///	11621
▁三甲	11622
▁剖腹	11623
▁闭关	11624
NO	11625
▁大汉	11626
▁牛排	11627
▁鱿	11628
▁cv	11629
▁害死	11630
▁家门	11631
▁主攻	11632
▁啾	11633
▁特工	11634
▁肚脐	11635
600	11636
▁嘉兴	11637
MA	11638
▁日照	11639
▁喂奶	11640
▁悠悠	11641
▁骑兵	11642
▁物种	11643
▁山治	11644
▁判定	11645
▁古人	11646
▁绍兴	11647
▁远古	11648
不忍	11649
▁待见	11650
▁整形	11651
▁火爆	11652
▁硫酸	11653
▁读完	11654
▁tmd	11655
▁单间	11656
▁大包	11657
▁电视机	11658
▁希腊	11659
▁旺旺	11660
▁翻唱	11661
乎乎	11662
▁cq	11663
▁写到	11664
▁店员	11665
▁昆仑	11666
▁赢球	11667
▁屁屁	11668
▁演绎	11669
hi	11670
斯塔	11671
▁对号	11672
▁10.2	11673
▁心目	11674
▁疲惫	11675
▁阿玛	11676
▁荣幸	11677
▁dlc	11678
▁观赏	11679
▁蹭蹭	11680
▁~\\	11681
▁储存	11682
▁lv	11683
▁因果	11684
▁太白	11685
▁揉揉	11686
▁敞	11687
▁拘留	11688
▁骷髅	11689
▁内饰	11690
▁塑造	11691
▁大雪	11692
▁随心	11693
▁No	11694
▁全开	11695
▁糖果	11696
▁大饼	11697
▁圆圆	11698
▁当家	11699
▁标点	11700
▁嵩	11701
▁介入	11702
▁真情	11703
▁按理	11704
▁老李	11705
▁忆	11706
▁谐	11707
▁以此	11708
▁别走	11709
▁穆斯林	11710
▁触摸	11711
▁咆	11712
hia	11713
▁指着	11714
▁李小	11715
▁艾伦	11716
▁龙哥	11717
▁打火机	11718
▁乌鸦	11719
▁轨道	11720
▁雁	11721
▁好样	11722
▁建造	11723
▁6500	11724
▁定价	11725
▁椰子	11726
▁翻盘	11727
▁赢家	11728
▁带领	11729
▁棉袄	11730
Fi	11731
ft	11732
▁琉	11733
▁酷炫	11734
▁走势	11735
▁匪	11736
▁遍地	11737
▁格式化	11738
▁冬眠	11739
▁指责	11740
▁门面	11741
▁求救	11742
▁艾斯	11743
▁一厅	11744
▁受害者	11745
72	11746
▁度数	11747
▁放肆	11748
▁嫁接	11749
▁楼盘	11750
不忍睹	11751
▁接待	11752
▁斗争	11753
▁澡堂	11754
▁pv	11755
▁义乌	11756
▁长袖	11757
▁业主	11758
▁薏	11759
▁声卡	11760
▁陨	11761
▁取代	11762
▁小于	11763
▁好莱坞	11764
▁丧尸	11765
▁半死	11766
▁唱功	11767
▁惨不忍睹	11768
▁黄油	11769
▁层面	11770
▁拉开	11771
▁正事	11772
▁火烧	11773
▁窒息	11774
▁3.0	11775
▁长白	11776
▁new	11777
▁叠加	11778
▁整齐	11779
▁有生	11780
▁唤	11781
▁亲眼	11782
▁越野	11783
▁淀	11784
▁写成	11785
▁大龄	11786
▁渤	11787
▁气垫	11788
▁625	11789
▁造假	11790
▁坛	11791
蛋白	11792
▁掩盖	11793
▁浴室	11794
▁自理	11795
▁种种	11796
▁蹬	11797
▁难民	11798
▁代谢	11799
▁正片	11800
▁东站	11801
ock	11802
▁不只	11803
▁变相	11804
▁有线	11805
▁延边	11806
▁宫颈	11807
▁ti	11808
▁哒哒	11809
▁旅馆	11810
▁药膏	11811
▁青山	11812
▁腕	11813
▁总分	11814
▁牙刷	11815
▁度假	11816
▁轮换	11817
▁下滑	11818
▁从业	11819
▁乌鲁	11820
▁扇子	11821
▁黑屋	11822
▁交集	11823
▁想家	11824
▁游侠	11825
▁后妈	11826
▁莹	11827
▁PK	11828
.-	11829
▁全屏	11830
▁呀呀	11831
▁虾米	11832
ist	11833
▁此生	11834
▁着凉	11835
▁西甲	11836
oe	11837
▁减轻	11838
▁手势	11839
▁眼袋	11840
▁刑事	11841
▁骨架	11842
▁水都	11843
▁礼品	11844
▁出家	11845
▁金庸	11846
▁纪录片	11847
▁出品	11848
▁外贸	11849
▁炮灰	11850
▁荧光	11851
▁面临	11852
▁暴雪	11853
▁芜湖	11854
▁转圈	11855
▁针灸	11856
▁ん	11857
▁外来	11858
▁穿衣	11859
▁制裁	11860
▁小雨	11861
▁手枪	11862
▁排气	11863
▁搬运	11864
▁笔画	11865
▁傍晚	11866
▁器官	11867
▁放生	11868
▁缩小	11869
na	11870
pe	11871
▁帘	11872
▁CC	11873
▁剧中	11874
ne	11875
▁事务	11876
▁胡思	11877
▁五五	11878
▁伊布	11879
▁很怕	11880
▁纯净	11881
▁行走	11882
▁通病	11883
▁间隔	11884
min	11885
乱想	11886
▁初学	11887
▁代言人	11888
▁6.0	11889
▁uc	11890
▁彩超	11891
▁果粉	11892
▁情话	11893
▁全日制	11894
▁胡思乱想	11895
▁压惊	11896
▁画师	11897
▁供暖	11898
▁长寿	11899
▁中性	11900
▁天黑	11901
▁面相	11902
▁90%	11903
▁南海	11904
▁商标	11905
▁带队	11906
▁秘书	11907
▁较高	11908
▁单号	11909
▁```	11910
▁斗士	11911
▁抗生素	11912
▁茉莉	11913
▁输赢	11914
▁一哥	11915
▁气人	11916
▁相片	11917
▁真美	11918
▁再生	11919
▁呼噜	11920
▁135	11921
▁山里	11922
▁不赖	11923
▁固执	11924
▁朱婷	11925
▁短腿	11926
▁pa	11927
▁内场	11928
▁指南	11929
▁aj	11930
▁码字	11931
▁蓝屏	11932
▁浦东	11933
uk	11934
▁愈合	11935
▁洗碗	11936
▁特种	11937
▁电车	11938
▁重播	11939
▁情书	11940
▁潮湿	11941
▁惊人	11942
▁标记	11943
▁担忧	11944
▁零点	11945
▁660	11946
ity	11947
▁兄妹	11948
▁兰花	11949
▁庚	11950
▁凡凡	11951
▁壳子	11952
▁家电	11953
▁母狗	11954
▁水库	11955
▁自定	11956
▁保质	11957
▁别管	11958
▁大灯	11959
▁心头	11960
▁水质	11961
▁皂片	11962
▁结算	11963
▁螺旋	11964
▁gu	11965
▁天线	11966
▁叶片	11967
▁咆哮	11968
▁毫升	11969
▁痴汉	11970
▁方位	11971
▁民用	11972
▁杰克逊	11973
▁首尔	11974
▁饵	11975
▁富裕	11976
▁涂抹	11977
▁盗号	11978
▁癫	11979
▁图像	11980
▁大运	11981
▁高新	11982
▁取暖	11983
▁对口	11984
▁突击	11985
▁全员	11986
▁Wi	11987
▁明智	11988
▁气味	11989
▁榆	11990
▁亲近	11991
▁实行	11992
▁起源	11993
▁猪脚	11994
▁发黄	11995
▁房贷	11996
▁科学家	11997
▁保值	11998
▁色素	11999
▁影片	12000
▁捕捉	12001
▁0.1	12002
▁怀抱	12003
▁ban	12004
▁山区	12005
▁气血	12006
▁蓝光	12007
▁话语	12008
特色	12009
▁桂花	12010
▁溜溜	12011
▁黑幕	12012
▁有特色	12013
▁徘	12014
▁鱿鱼	12015
▁173	12016
▁大使	12017
▁抢走	12018
▁倾城	12019
▁Ch	12020
▁分散	12021
▁放出	12022
▁玲珑	12023
hz	12024
正经	12025
▁挑剔	12026
▁合资	12027
▁小生	12028
▁蔷	12029
▁周星	12030
▁韩服	12031
▁vr	12032
▁截屏	12033
▁滚出	12034
▁欧洲人	12035
▁产期	12036
▁人称	12037
既往	12038
▁出走	12039
▁昆山	12040
1000	12041
▁真够	12042
▁货色	12043
▁霓虹	12044
▁鲤鱼	12045
▁直升	12046
▁高调	12047
▁一如既往	12048
▁曲线	12049
▁水冷	12050
▁烂尾	12051
▁管子	12052
▁纳尼	12053
▁辨别	12054
vi	12055
▁东边	12056
▁韩版	12057
▁肇	12058
▁档期	12059
▁能耐	12060
▁面粉	12061
▁分布	12062
▁回路	12063
▁掌控	12064
▁民政	12065
▁满地	12066
▁这时	12067
▁赞成	12068
▁防盗	12069
▁空格	12070
▁再战	12071
▁徐海	12072
▁111	12073
▁好哇	12074
▁痔疮	12075
▁弩	12076
▁玄幻	12077
▁轮流	12078
罗拉	12079
▁店面	12080
▁棍子	12081
▁印刷	12082
▁迷恋	12083
▁水壶	12084
▁自爆	12085
▁实质	12086
▁狗头	12087
▁垄	12088
▁宝珠	12089
▁256	12090
▁磨砂	12091
▁转弯	12092
▁近战	12093
▁湿度	12094
▁取向	12095
▁大侠	12096
book	12097
▁红发	12098
▁卖出	12099
▁神兽	12100
▁入睡	12101
▁路费	12102
▁勃	12103
▁可说	12104
▁听课	12105
▁安康	12106
▁汝	12107
▁划分	12108
▁硝	12109
▁形势	12110
▁绿化	12111
▁全队	12112
▁时时	12113
▁贤惠	12114
gle	12115
▁缝隙	12116
▁US	12117
▁对劲	12118
▁比方	12119
▁请求	12120
▁OT	12121
▁对焦	12122
▁选中	12123
▁公益	12124
▁市长	12125
▁顶尖	12126
▁打压	12127
▁辫子	12128
now	12129
▁写出	12130
▁向来	12131
▁散热器	12132
47	12133
▁墨水	12134
▁实施	12135
▁蕾丝	12136
▁fly	12137
▁祁	12138
-18	12139
▁字数	12140
▁新剧	12141
▁忠诚	12142
▁油条	12143
▁治安	12144
▁辩论	12145
▁孽	12146
▁指示	12147
▁文案	12148
▁选择性	12149
▁圆通	12150
▁夕阳	12151
▁放入	12152
▁瘦身	12153
▁沦陷	12154
▁心声	12155
▁致敬	12156
▁璐	12157
▁场子	12158
▁热火	12159
▁犯错	12160
▁严谨	12161
▁挑选	12162
▁媚	12163
▁曦	12164
▁下铺	12165
▁总归	12166
▁5.0	12167
▁xi	12168
▁大雄	12169
/3	12170
▁察	12171
▁单打	12172
▁已然	12173
▁金卡	12174
▁quq	12175
▁虚弱	12176
max	12177
▁风光	12178
▁微量	12179
▁囚	12180
▁徘徊	12181
▁进门	12182
▁乌鲁木	12183
49	12184
AY	12185
▁出没	12186
▁土鳖	12187
▁翻倍	12188
▁薯片	12189
▁前四	12190
▁吴彦	12191
如何	12192
▁互换	12193
▁成真	12194
▁一锅	12195
▁被迫	12196
▁乌鲁木齐	12197
▁抽象	12198
▁hello	12199
▁人像	12200
▁可耻	12201
▁无论如何	12202
▁ol	12203
▁马天宇	12204
▁ssd	12205
▁̥	12206
▁楞	12207
▁丈母	12208
▁官员	12209
▁心软	12210
▁算法	12211
▁bd	12212
▁炒菜	12213
▁两千多	12214
▁腹泻	12215
▁╞	12216
▁答题	12217
▁想通	12218
▁原味	12219
▁潮汕	12220
▁原生	12221
▁琦	12222
▁奥巴	12223
▁痒痒	12224
到大	12225
ife	12226
▁kind	12227
▁佩戴	12228
▁实时	12229
▁窗外	12230
xx	12231
▁转向	12232
▁日游	12233
▁无穷	12234
▁NBA	12235
▁亚瑟	12236
▁女仆	12237
▁好似	12238
▁摸着	12239
▁脚踏	12240
▁违反	12241
▁众多	12242
▁样式	12243
▁莆	12244
▁gl	12245
▁正当	12246
▁遵守	12247
▁雪地	12248
▁糊糊	12249
▁衬衣	12250
▁教务	12251
▁侍	12252
▁东门	12253
▁手持	12254
▁-.-	12255
▁大楼	12256
▁打滚	12257
▁消停	12258
▁光纤	12259
▁止痛	12260
▁常态	12261
▁跳槽	12262
▁偏远	12263
▁吴彦祖	12264
▁瘤	12265
▁diy	12266
▁双击	12267
▁直觉	12268
▁蜕	12269
▁中东	12270
▁前端	12271
▁外界	12272
▁灾难	12273
▁惹不起	12274
▁亲手	12275
▁人手	12276
▁offer	12277
+3	12278
▁胚	12279
.14	12280
▁少林	12281
▁熄火	12282
▁爱护	12283
▁吃奶	12284
▁影帝	12285
▁福气	12286
▁颁奖	12287
▁6700	12288
▁真话	12289
▁复出	12290
▁豫	12291
尼斯	12292
▁低点	12293
尼尔	12294
ber	12295
▁580	12296
▁章鱼	12297
▁王思	12298
▁张口	12299
▁从小到大	12300
▁征集	12301
▁条腿	12302
▁直邮	12303
▁欸	12304
▁此处	12305
▁一本	12306
▁德语	12307
▁坐牢	12308
▁增生	12309
▁插座	12310
▁贞德	12311
▁雪糕	12312
▁合伙	12313
▁有生之年	12314
▁多爱	12315
▁见效	12316
▁尼康	12317
▁原料	12318
▁大哭	12319
▁得知	12320
▁正装	12321
不约	12322
▁动词	12323
▁售票	12324
▁夜市	12325
▁曲面	12326
▁异界	12327
▁主食	12328
▁同名	12329
▁情愿	12330
▁掩饰	12331
▁青旅	12332
_^*	12333
▁售价	12334
▁多特	12335
▁怎能	12336
▁限时	12337
▁饭菜	12338
▁众人	12339
▁济宁	12340
▁乳腺	12341
▁维权	12342
▁虎牙	12343
▁急用	12344
▁眼力	12345
▁提取	12346
▁零售	12347
61	12348
▁侄女	12349
▁农家	12350
2015	12351
▁ˇ	12352
▁博客	12353
▁花盆	12354
▁共鸣	12355
▁拖拉	12356
▁归属	12357
▁pd	12358
▁凳子	12359
▁聚餐	12360
▁高楼	12361
起坐	12362
▁俯卧	12363
▁栀子花	12364
▁just	12365
▁仰卧起坐	12366
▁寡妇	12367
▁柳州	12368
▁战役	12369
▁自作	12370
▁___	12371
bi	12372
▁exc	12373
▁林俊杰	12374
▁ง	12375
79	12376
OW	12377
▁纵横	12378
▁产物	12379
▁解开	12380
▁gr	12381
▁油性	12382
▁垄断	12383
▁武士	12384
▁♀	12385
▁法拉	12386
▁强袭	12387
▁吃糖	12388
▁寻求	12389
▁雪山	12390
▁佣	12391
▁长短	12392
▁伍	12393
▁琛	12394
▁同理	12395
▁电阻	12396
▁看穿	12397
▁躺下	12398
AR	12399
▁侵略	12400
▁基层	12401
▁摸索	12402
▁清真	12403
▁遮住	12404
▁鸡皮	12405
▁用好	12406
▁餐饮	12407
▁裤衩	12408
▁褶	12409
▁贯	12410
▁神舟	12411
▁科研	12412
▁part	12413
▁小手	12414
▁电容	12415
▁辅食	12416
▁偏爱	12417
▁名次	12418
▁稳重	12419
▁山顶	12420
▁虞	12421
▁分成	12422
▁微波	12423
▁美观	12424
▁杉	12425
▁俗称	12426
▁穷游	12427
▁三中	12428
▁会考	12429
ers	12430
▁橡胶	12431
very	12432
▁may	12433
▁ོ	12434
▁替身	12435
▁机枪	12436
▁职工	12437
ug	12438
▁她俩	12439
▁视线	12440
▁角质	12441
▁618	12442
▁委婉	12443
▁达标	12444
▁た	12445
▁zf	12446
▁970	12447
▁分段	12448
▁大树	12449
▁四周	12450
▁手头	12451
▁涂装	12452
▁2200	12453
▁倚	12454
▁小乔	12455
▁闵	12456
uan	12457
▁双重	12458
▁ve	12459
▁念念	12460
▁领土	12461
▁青春期	12462
▁喷漆	12463
▁淄博	12464
▁兹	12465
▁内测	12466
▁~~~[	12467
▁四强	12468
▁看啦	12469
▁补助	12470
▁长假	12471
▁跑车	12472
▁npc	12473
▁侬	12474
▁岔	12475
▁断断	12476
▁cad	12477
▁争霸	12478
▁忙完	12479
▁见谅	12480
▁中卫	12481
▁惊吓	12482
▁李宇	12483
▁热心	12484
▁小牛	12485
▁癖	12486
▁270	12487
▁反光	12488
▁心慌	12489
▁有偿	12490
▁消极	12491
▁屿	12492
▁珂	12493
▁中立	12494
▁退学	12495
▁bgm	12496
▁with	12497
▁锥	12498
▁泡脚	12499
▁阁下	12500
▁庸	12501
▁基数	12502
38	12503
▁眯	12504
▁馨	12505
▁古剑	12506
▁愉悦	12507
▁战车	12508
▁预科	12509
▁美人鱼	12510
▁关照	12511
▁⚡	12512
▁南边	12513
▁回放	12514
▁场所	12515
▁天天向上	12516
▁膀	12517
尔夫	12518
思议	12519
▁教养	12520
▁气体	12521
▁不可思议	12522
▁大眼	12523
▁男装	12524
▁老区	12525
不同	12526
▁唐朝	12527
▁官司	12528
ho	12529
▁黑发	12530
ny	12531
▁嗲	12532
▁吹吹	12533
▁磨牙	12534
▁脸部	12535
▁涡	12536
▁多玩	12537
▁年糕	12538
▁金牛座	12539
▁嘅	12540
▁特权	12541
▁相对于	12542
▁约不约	12543
▁必胜	12544
▁胶水	12545
▁露露	12546
▁惜	12547
▁瘟	12548
▁扩散	12549
▁看戏	12550
▁退烧	12551
▁问道	12552
▁偿	12553
▁窜	12554
▁微妙	12555
▁累计	12556
▁爱丽丝	12557
▁懦	12558
▁千千	12559
▁谅	12560
▁波波	12561
▁丢掉	12562
tel	12563
▁颓废	12564
▁个把	12565
▁代入	12566
▁柔软	12567
▁浮夸	12568
▁国旗	12569
▁坚果	12570
▁年份	12571
▁莆田	12572
▁发条	12573
▁屠杀	12574
ama	12575
▁外甥	12576
▁料子	12577
▁美男	12578
▁盖章	12579
▁里皮	12580
▁拷	12581
▁内幕	12582
▁不妨	12583
▁放纵	12584
▁劳累	12585
▁手册	12586
▁一本正经	12587
▁乘坐	12588
▁俯卧撑	12589
▁刘德华	12590
▁2300	12591
▁爆头	12592
里斯	12593
▁季度	12594
▁陆毅	12595
▁基督教	12596
▁制品	12597
▁大意	12598
▁大批	12599
▁舰队	12600
▁周星驰	12601
▁殊	12602
律宾	12603
▁剧烈	12604
▁奖品	12605
▁菲律宾	12606
▁位子	12607
▁确切	12608
▁蘸	12609
气壮	12610
▁理直	12611
▁理直气壮	12612
▁耕	12613
-16	12614
▁大军	12615
bm	12616
▁柴油	12617
▁活捉	12618
▁演讲	12619
▁传授	12620
▁奸商	12621
-14	12622
▁腋	12623
▁怕冷	12624
▁主体	12625
▁住房	12626
▁源源	12627
▁棱	12628
▁丝毫	12629
▁夜店	12630
▁捣乱	12631
▁间接	12632
▁旷	12633
▁淤	12634
▁彩妆	12635
▁自取	12636
▁2.4	12637
▁夜景	12638
▁中兴	12639
▁就坐	12640
▁学徒	12641
▁春季	12642
▁快活	12643
▁报仇	12644
▁想象力	12645
▁明了	12646
▁芙蓉	12647
▁画图	12648
▁心急	12649
▁光辉	12650
▁=-=	12651
▁馍	12652
▁厂长	12653
▁灯笼	12654
▁感悟	12655
▁辱	12656
▁喷嚏	12657
▁倪	12658
▁当心	12659
▁拉伸	12660
▁来年	12661
▁可言	12662
▁支架	12663
▁这招	12664
▁3-4	12665
▁9.9	12666
▁车位	12667
▁835	12668
▁聂	12669
▁勤劳	12670
▁增肥	12671
▁bt	12672
▁练级	12673
▁免税	12674
▁👄	12675
▁CS	12676
▁马丁	12677
▁咬牙	12678
▁扩展	12679
▁杨过	12680
▁牧师	12681
▁防火	12682
▁弹药	12683
▁红眼	12684
▁聘	12685
▁个中	12686
▁寓意	12687
▁步枪	12688
柏然	12689
▁井柏然	12690
▁鳞	12691
▁奥利	12692
▁苏打	12693
▁地瓜	12694
▁姥爷	12695
▁浓度	12696
▁ml	12697
▁满嘴	12698
▁白兔	12699
oogle	12700
▁佢	12701
▁肘	12702
码事	12703
▁支招	12704
▁保卫	12705
▁悲惨	12706
▁同好	12707
▁素描	12708
▁薰	12709
▁月球	12710
OSS	12711
▁小四	12712
▁扫地	12713
▁本命	12714
▁NO	12715
▁一搜	12716
▁分量	12717
▁情深	12718
▁贬低	12719
▁本命年	12720
▁划水	12721
▁古董	12722
▁外用	12723
▁拍片	12724
▁驱逐	12725
▁xl	12726
▁偏高	12727
▁天梯	12728
▁混混	12729
尼亚	12730
▁who	12731
▁玩完	12732
▁六星	12733
▁土著	12734
▁不平	12735
▁布局	12736
▁手抖	12737
▁红旗	12738
▁莫斯	12739
▁诊所	12740
▁面料	12741
▁1.1	12742
▁嘚	12743
▁一年	12744
▁各路	12745
▁小苗	12746
▁治病	12747
▁献血	12748
▁秦皇	12749
▁尖叫	12750
▁稳住	12751
▁除去	12752
▁弹出	12753
▁货源	12754
▁台阶	12755
巴拉	12756
▁嘉伦	12757
▁审判	12758
▁兄台	12759
▁圣经	12760
▁打动	12761
▁瘪	12762
▁🌟	12763
▁声控	12764
▁李宇春	12765
▁弊	12766
▁宠爱	12767
▁小兵	12768
▁骡	12769
▁漫游	12770
▁皮鞋	12771
▁rap	12772
.00	12773
▁应对	12774
▁虐待	12775
▁10086	12776
ger	12777
▁传感	12778
▁盐城	12779
▁业绩	12780
▁恰恰	12781
▁自定义	12782
▁里头	12783
▁黑黑	12784
▁ty	12785
▁终老	12786
▁抹黑	12787
▁糖糖	12788
▁缅甸	12789
▁补完	12790
▁水温	12791
▁除以	12792
▁720	12793
▁发小	12794
▁小强	12795
▁经销	12796
▁邢	12797
▁大钱	12798
▁恰好	12799
▁惊悚	12800
▁搜狗	12801
▁标注	12802
▁洗车	12803
▁资本主义	12804
▁惆	12805
▁骨子	12806
▁6.5	12807
▁镖	12808
▁上街	12809
▁西宁	12810
▁逼死	12811
110	12812
▁发力	12813
▁情歌	12814
BO	12815
▁增值	12816
▁袖子	12817
▁上船	12818
▁静音	12819
▁射击	12820
▁润滑	12821
▁干货	12822
▁病因	12823
▁插头	12824
▁双子座	12825
▁遂	12826
▁人际	12827
▁珠宝	12828
▁釉	12829
▁ca	12830
▁催眠	12831
▁各有所	12832
▁沸	12833
▁右侧	12834
▁白点	12835
▁齿轮	12836
▁光圈	12837
▁演义	12838
▁猪猪	12839
▁摊手	12840
▁改过	12841
▁装扮	12842
▁试探	12843
▁妨	12844
▁两斤	12845
德里	12846
▁回味	12847
▁损害	12848
▁正直	12849
▁肤质	12850
▁车库	12851
▁今生	12852
▁封杀	12853
▁打雷	12854
▁看头	12855
▁可恨	12856
▁高利	12857
▁ow	12858
▁发放	12859
▁汇报	12860
▁新生儿	12861
▁崽子	12862
▁艺术家	12863
▁一无	12864
▁搭车	12865
▁暴食	12866
▁顺心	12867
▁重伤	12868
▁mua	12869
▁处在	12870
▁br	12871
▁得病	12872
▁解读	12873
▁公立	12874
▁外科	12875
▁怨念	12876
▁有鬼	12877
▁大车	12878
▁闹腾	12879
▁极大	12880
人意	12881
▁GT	12882
▁两面	12883
▁以至	12884
西兰	12885
▁美洲	12886
▁沫	12887
▁蚁	12888
▁恶毒	12889
▁证实	12890
▁3200	12891
▁匿	12892
▁厂子	12893
▁钙片	12894
▁军校	12895
▁2.2	12896
▁🌙	12897
▁可可	12898
▁补血	12899
▁理会	12900
▁铺垫	12901
▁天花	12902
▁一律	12903
▁发红	12904
▁如来	12905
▁痞	12906
▁肋	12907
▁气功	12908
▁biu	12909
▁time	12910
▁东区	12911
▁太刀	12912
▁争论	12913
▁八成	12914
▁加水	12915
▁缓缓	12916
▁六千	12917
▁性子	12918
▁颠倒	12919
▁履	12920
▁医药	12921
▁煤气	12922
▁金华	12923
▁耳鸣	12924
▁帧数	12925
▁见见	12926
▁will	12927
▁dx	12928
▁不妥	12929
▁参赛	12930
▁蚌	12931
▁宪	12932
▁馄	12933
▁制冷	12934
▁家家	12935
▁惆怅	12936
▁抢劫	12937
▁法定	12938
▁超赞	12939
73	12940
外线	12941
▁仪器	12942
▁执照	12943
▁破烂	12944
▁麻醉	12945
▁彩蛋	12946
▁沦落	12947
▁二十四	12948
▁摔倒	12949
ala	12950
▁卡西	12951
▁接应	12952
▁揽	12953
▁人造	12954
▁燕子	12955
▁再者	12956
▁撞死	12957
▁叛逆	12958
▁干爹	12959
▁友善	12960
东尼	12961
▁延续	12962
▁心愿	12963
▁说和	12964
▁水肿	12965
▁潜伏	12966
▁蔷薇	12967
▁解毒	12968
▁一路	12969
▁侵犯	12970
▁空降	12971
cp	12972
▁陀	12973
▁丈母娘	12974
▁人命	12975
▁解救	12976
成功	12977
▁上心	12978
▁局面	12979
▁次要	12980
▁黑心	12981
▁颂	12982
▁五菱	12983
▁领袖	12984
▁🎁	12985
▁SB	12986
UT	12987
▁戚	12988
▁镰	12989
▁分装	12990
▁条纹	12991
▁热刺	12992
▁荷花	12993
▁农行	12994
▁分给	12995
▁安庆	12996
▁王爷	12997
不在	12998
▁农场	12999
▁娜扎	13000
▁慢热	13001
▁音色	13002
▁洒脱	13003
▁清空	13004
▁百货	13005
▁980	13006
▁头部	13007
▁技嘉	13008
▁染发	13009
▁点头	13010
▁一百万	13011
▁王思聪	13012
▁白羊座	13013
▁后人	13014
▁父子	13015
▁红颜	13016
▁防护	13017
▁码头	13018
▁甲醛	13019
▁芋	13020
]\#	13021
▁缺水	13022
▁辛辛	13023
▁恺	13024
▁cg	13025
▁蛾	13026
▁冰冰	13027
▁多来	13028
▁捎	13029
续续	13030
▁四叶	13031
▁大坑	13032
▁本金	13033
▁湛江	13034
▁断断续续	13035
▁隧	13036
▁fate	13037
▁刀片	13038
▁签收	13039
▁轴承	13040
▁拦截	13041
▁水中	13042
▁自用	13043
▁飘飘	13044
mi	13045
▁洋葱	13046
▁转眼	13047
58	13048
▁☺	13049
▁殖	13050
▁7500	13051
▁圆脸	13052
▁屠夫	13053
▁传感器	13054
▁新西兰	13055
▁AD	13056
▁小宝	13057
▁路程	13058
▁泄露	13059
▁全班	13060
▁左转	13061
▁嚷	13062
▁举行	13063
▁奉献	13064
▁老化	13065
▁调料	13066
▁行货	13067
▁警惕	13068
▁大自然	13069
▁志愿者	13070
▁内外	13071
▁左侧	13072
▁赛车	13073
▁嘴角	13074
▁相识	13075
▁访谈	13076
▁踏板	13077
▁华晨	13078
▁四处	13079
▁黑洞	13080
过去	13081
▁如花	13082
▁钢筋	13083
▁太阳能	13084
▁同道	13085
▁囊肿	13086
▁真菌	13087
▁站台	13088
▁2600	13089
▁黑猫	13090
▁股东	13091
▁行人	13092
▁马龙	13093
▁益生	13094
▁哎呀呀	13095
▁瓣	13096
难尽	13097
▁只眼	13098
▁慈善	13099
▁行星	13100
▁一言难尽	13101
▁杂种	13102
▁跳跃	13103
▁惧	13104
▁批判	13105
▁甜心	13106
▁风情	13107
▁北极	13108
▁底气	13109
▁灭亡	13110
▁进货	13111
▁阻挡	13112
▁少说	13113
▁祝愿	13114
▁四六	13115
▁深海	13116
特尔	13117
▁水龙	13118
▁天长	13119
▁芥	13120
▁远征	13121
▁别哭	13122
▁药品	13123
po	13124
▁忠实	13125
▁花鸟	13126
▁黑狗	13127
▁330	13128
▁不禁	13129
▁取名	13130
▁浮躁	13131
▁贺电	13132
热巴	13133
▁情景	13134
▁美景	13135
▁开导	13136
▁耿直	13137
▁堪忧	13138
▁色情	13139
▁赛事	13140
▁飞天	13141
▁吓哭	13142
▁地气	13143
▁干涉	13144
▁抽空	13145
▁自欺	13146
▁出彩	13147
▁心虚	13148
xy	13149
▁人选	13150
▁日韩	13151
▁水彩	13152
▁洗掉	13153
▁邯郸	13154
▁竞技场	13155
▁磷	13156
▁西医	13157
OM	13158
尔斯	13159
▁家居	13160
▁高等	13161
▁翰	13162
▁七星	13163
▁时常	13164
▁十几万	13165
▁瘦瘦	13166
▁博格	13167
▁聚集	13168
▁闺密	13169
▁210	13170
▁破戒	13171
▁枉	13172
▁茬	13173
▁农大	13174
▁烤鱼	13175
▁忐	13176
▁星光	13177
▁美军	13178
▁西站	13179
尔德	13180
▁wa	13181
▁传递	13182
▁西路	13183
▁雨天	13184
▁香香	13185
▁歹	13186
欺人	13187
▁代沟	13188
▁发火	13189
▁殷	13190
ush	13191
▁水深	13192
▁群主	13193
▁耳洞	13194
▁赚点	13195
▁烹	13196
▁TF	13197
▁大蒜	13198
▁小便	13199
▁满贯	13200
▁硬度	13201
▁手电	13202
▁越位	13203
▁唾	13204
▁日日	13205
▁有待	13206
▁果冻	13207
▁yes	13208
ort	13209
▁套套	13210
▁宿管	13211
▁教堂	13212
▁kindle	13213
▁初代	13214
▁善于	13215
▁工伤	13216
▁清清	13217
▁面目	13218
▁す	13219
▁开枪	13220
▁花朵	13221
▁陆续	13222
▁南路	13223
▁应有	13224
▁林志	13225
▁露娜	13226
▁梭	13227
▁峨	13228
晓明	13229
▁卷发	13230
▁爆破	13231
▁升高	13232
▁揭穿	13233
▁测评	13234
▁苗子	13235
▁锦绣	13236
▁沙拉	13237
▁金鹰	13238
▁生殖	13239
▁野猪	13240
▁黑夜	13241
▁脓	13242
▁稀奇	13243
▁长篇	13244
▁万世	13245
▁冲刺	13246
▁愚人	13247
▁蛇精	13248
▁马来西亚	13249
▁铸	13250
▁不计	13251
▁俩一	13252
▁MM	13253
▁文盲	13254
▁烧饼	13255
▁产量	13256
boys	13257
▁国民党	13258
ouch	13259
▁俗话	13260
▁后勤	13261
▁星爷	13262
▁结晶	13263
her	13264
▁动心	13265
▁忐忑	13266
▁救救	13267
▁只怕	13268
块儿	13269
▁同伴	13270
▁白带	13271
▁一块儿	13272
▁萍	13273
ade	13274
▁rx	13275
▁办好	13276
▁忌口	13277
▁正统	13278
▁哈利	13279
▁太后	13280
▁栓	13281
▁放款	13282
▁遗精	13283
▁红牌	13284
▁走位	13285
▁战斗机	13286
▁东海	13287
▁字典	13288
▁真难	13289
▁花纹	13290
▁pg	13291
▁百花	13292
▁xjj	13293
▁涮	13294
▁骆	13295
▁顾虑	13296
▁佟	13297
▁糟蹋	13298
▁上古	13299
▁被抢	13300
▁安娜	13301
▁比特	13302
▁背书	13303
-13	13304
▁垂直	13305
oney	13306
▁三餐	13307
▁夜间	13308
▁步伐	13309
.18	13310
▁广泛	13311
▁扒皮	13312
▁海上	13313
▁问号	13314
42	13315
▁烛	13316
▁就诊	13317
▁赵薇	13318
▁大山	13319
▁炫酷	13320
▁run	13321
▁ฅ	13322
▁抒	13323
▁👋	13324
-17	13325
▁宿迁	13326
▁诗词	13327
ei	13328
泊尔	13329
▁受过	13330
▁增幅	13331
基尼	13332
▁PC	13333
ream	13334
▁这会儿	13335
▁份子	13336
▁张学	13337
▁支配	13338
ED	13339
▁か	13340
▁做主	13341
入座	13342
▁加密	13343
▁牢骚	13344
▁cut	13345
▁对号入座	13346
▁连衣	13347
▁饥饿	13348
▁鲁迅	13349
▁双鱼座	13350
▁程序员	13351
▁高利贷	13352
▁伽	13353
▁稳定性	13354
▁BOSS	13355
▁痊	13356
▁招牌	13357
▁杂牌	13358
▁枝条	13359
unes	13360
▁加装	13361
▁局限	13362
▁横扫	13363
▁纲	13364
▁不二	13365
▁钛	13366
▁血丝	13367
▁ry	13368
▁巡演	13369
▁写给	13370
▁服饰	13371
▁物语	13372
不及待	13373
▁eas	13374
▁廖	13375
▁早恋	13376
▁软软	13377
▁千金	13378
▁嘴脸	13379
▁礼服	13380
苦苦	13381
▁了事	13382
▁流通	13383
▁白龙	13384
▁硬要	13385
▁隧道	13386
▁7.5	13387
▁辛辛苦苦	13388
▁提莫	13389
▁烧钱	13390
▁脸蛋	13391
▁出水	13392
▁红牛	13393
▁闪避	13394
▁迫不及待	13395
▁八戒	13396
▁前些	13397
▁好话	13398
▁虚空	13399
▁定做	13400
▁换机	13401
▁懒人	13402
▁茅台	13403
▁💰	13404
▁低下	13405
▁天秤座	13406
格里	13407
▁外汇	13408
.[	13409
▁建业	13410
ation	13411
▁神圣	13412
▁切记	13413
▁帐篷	13414
▁年华	13415
▁沉重	13416
▁漠	13417
▁坏话	13418
▁天道	13419
▁好车	13420
▁平原	13421
▁油皮	13422
▁迷糊	13423
斯拉	13424
250	13425
▁停水	13426
▁美甲	13427
▁姓氏	13428
▁抗议	13429
▁步兵	13430
▁洛克	13431
▁英灵	13432
▁脱落	13433
▁朝代	13434
▁over	13435
▁郝	13436
▁显示屏	13437
▁大喊	13438
▁要强	13439
▁通通	13440
雷斯	13441
▁公测	13442
▁前线	13443
▁民众	13444
▁化身	13445
▁接班	13446
▁格外	13447
▁痊愈	13448
▁玫瑰花	13449
ux	13450
▁wt	13451
▁小钱	13452
▁漏水	13453
▁记载	13454
▁点火	13455
▁糊弄	13456
▁轮毂	13457
▁卑微	13458
▁肢	13459
▁园林	13460
▁恶性	13461
▁棒棒糖	13462
▁私立	13463
▁高尚	13464
▁苛	13465
▁二传	13466
cl	13467
演员	13468
▁显摆	13469
▁灵敏	13470
▁跳跳	13471
▁tvb	13472
▁二姐	13473
▁促销	13474
▁省略	13475
▁弘	13476
▁中小	13477
▁要约	13478
▁选秀	13479
▁掉色	13480
▁托福	13481
▁撒谎	13482
▁活血	13483
▁热带	13484
▁真品	13485
PPO	13486
▁多元	13487
▁快门	13488
▁各样	13489
▁は	13490
二十	13491
儿八	13492
▁女演员	13493
▁cb	13494
▁腐蚀	13495
▁圈钱	13496
▁突发	13497
▁嗖	13498
▁大笑	13499
▁汉中	13500
▁海里	13501
▁秘籍	13502
▁上铺	13503
▁德州	13504
▁通俗	13505
▁天际	13506
▁电子书	13507
▁人脉	13508
▁太烂	13509
▁脚踝	13510
▁名片	13511
▁现成	13512
▁融化	13513
▁葡萄牙	13514
▁今夜	13515
▁含金	13516
▁委托	13517
▁容忍	13518
▁短篇	13519
▁车费	13520
▁古镇	13521
▁手环	13522
▁点子	13523
▁脚气	13524
▁金银	13525
▁北边	13526
.20	13527
▁写写	13528
▁法拉利	13529
▁鞍	13530
▁71	13531
▁ff	13532
▁欧联	13533
▁挨骂	13534
▁阿拉伯	13535
▁舒畅	13536
▁偷袭	13537
▁水管	13538
▁仪式	13539
▁在职	13540
▁试管	13541
▁暑期	13542
▁甜食	13543
▁起伏	13544
44	13545
▁光速	13546
▁各人	13547
▁屁颠	13548
▁狸	13549
▁ji	13550
▁把持	13551
▁生姜	13552
▁三无	13553
▁攻防	13554
▁肚皮	13555
▁光顾	13556
▁叨叨	13557
▁好闻	13558
▁没女	13559
▁全名	13560
▁图文	13561
▁高科	13562
▁cqy	13563
ct	13564
▁侏	13565
▁管住	13566
▁雍	13567
斯加	13568
▁飞行员	13569
▁睿智	13570
▁缴纳	13571
▁宁夏	13572
▁暗杀	13573
▁温格	13574
▁锦鲤	13575
▁馄饨	13576
▁三叶	13577
▁张国	13578
▁碳酸	13579
▁4.0	13580
▁自欺欺人	13581
▁蛀	13582
▁半路	13583
ca	13584
▁约束	13585
▁小麦	13586
▁粉饼	13587
▁have	13588
▁钠	13589
▁来临	13590
▁相约	13591
▁统统	13592
▁以至于	13593
▁领导人	13594
▁LS	13595
▁led	13596
vd	13597
▁东亚	13598
▁女星	13599
▁徒步	13600
▁剧照	13601
▁成全	13602
▁旗袍	13603
▁俺家	13604
▁内置	13605
▁束缚	13606
900	13607
▁泸州	13608
▁跳水	13609
-25	13610
▁切除	13611
▁富力	13612
▁隔音	13613
▁818	13614
▁回回	13615
▁素素	13616
▁EXO	13617
▁连衣裙	13618
▁文理	13619
▁激励	13620
▁翻脸	13621
同身	13622
▁八强	13623
▁再走	13624
▁家军	13625
▁小二	13626
▁短路	13627
同身受	13628
▁感同身受	13629
▁に	13630
▁强者	13631
▁新房	13632
▁资历	13633
▁午夜	13634
▁骨骼	13635
▁何苦	13636
▁养家	13637
▁眼科	13638
▁联播	13639
▁后防	13640
▁很乖	13641
▁伙计	13642
▁国军	13643
▁木马	13644
▁马尔	13645
▁导入	13646
▁带好	13647
▁抢购	13648
▁记忆力	13649
▁中暑	13650
▁宜昌	13651
▁拔草	13652
▁流失	13653
▁经期	13654
▁退钱	13655
▁mark	13656
▁床位	13657
▁浓浓	13658
▁硅胶	13659
▁经意	13660
wn	13661
▁刘邦	13662
▁课堂	13663
▁四十多	13664
▁三百多	13665
▁假面	13666
▁晋江	13667
▁扦	13668
▁IN	13669
▁秦始	13670
▁换位	13671
▁滞	13672
▁jo	13673
▁保鲜	13674
▁凶残	13675
▁动摇	13676
▁喂食	13677
▁欧元	13678
▁重建	13679
▁医师	13680
▁老总	13681
▁见解	13682
▁进场	13683
▁kiss	13684
▁mt	13685
▁人鱼	13686
▁帝君	13687
▁改掉	13688
▁事先	13689
▁迪丽	13690
▁cba	13691
▁1999	13692
ze	13693
▁大体	13694
▁妨碍	13695
▁花粉	13696
▁剑魂	13697
▁半岛	13698
▁女帝	13699
▁好汉	13700
▁精确	13701
▁试图	13702
▁两百多	13703
▁天狗	13704
▁山水	13705
▁揪心	13706
▁闪现	13707
▁鲸鱼	13708
▁吟	13709
▁ba	13710
▁一击	13711
▁偏激	13712
▁悠闲	13713
▁苦瓜	13714
▁xd	13715
▁人缘	13716
▁送礼	13717
▁梧	13718
▁北门	13719
▁器材	13720
▁带回	13721
▁旅途	13722
▁留恋	13723
▁地段	13724
▁果仁	13725
▁殖民	13726
不弃	13727
▁sf	13728
▁XDD	13729
▁wi	13730
▁幕后	13731
▁宝箱	13732
▁月月	13733
▁灭绝	13734
▁朦	13735
biu	13736
▁求生	13737
▁复兴	13738
▁鄂	13739
正大	13740
▁特技	13741
▁猫砂	13742
▁虚假	13743
▁起名	13744
fi	13745
▁南充	13746
▁每当	13747
▁wo	13748
▁共产	13749
▁勺子	13750
▁异国	13751
▁滑雪	13752
▁纠纷	13753
▁经管	13754
▁sha	13755
▁党员	13756
▁地级	13757
▁童子	13758
▁马克思	13759
▁坎坷	13760
▁墙角	13761
▁拳击	13762
riend	13763
▁下联	13764
▁不离	13765
▁发微	13766
▁堵塞	13767
▁不离不弃	13768
▁仰望	13769
▁村长	13770
▁陆军	13771
▁久久	13772
▁打斗	13773
▁白搭	13774
▁风流	13775
aber	13776
▁单方	13777
▁愧疚	13778
▁明教	13779
▁176	13780
▁⁄	13781
金刚	13782
oto	13783
▁备案	13784
▁秦始皇	13785
▁开战	13786
▁爽快	13787
▁决斗	13788
▁弹性	13789
▁搬走	13790
▁福特	13791
而知	13792
▁ga	13793
▁定点	13794
▁也搞	13795
▁推倒	13796
▁港澳	13797
▁妊	13798
▁贝吉塔	13799
▁奶瓶	13800
▁游玩	13801
▁牙医	13802
▁直销	13803
▁超强	13804
▁陷阱	13805
▁华东	13806
▁深奥	13807
▁亚索	13808
▁市民	13809
▁脆皮	13810
▁队里	13811
▁未央	13812
▁能手	13813
▁金子	13814
ero	13815
▁大刀	13816
▁大纲	13817
▁想必	13818
▁把脸	13819
▁爆出	13820
▁驰	13821
▁外公	13822
▁多几	13823
▁绝配	13824
▁饱和	13825
▁啰嗦	13826
▁You	13827
▁see	13828
▁益生菌	13829
▁弱势	13830
▁护甲	13831
▁满清	13832
▁车身	13833
▁很准	13834
▁离别	13835
▁走来	13836
▁186	13837
▁快船	13838
▁恼火	13839
▁排出	13840
▁细致	13841
达尔	13842
▁瞎扯	13843
/2	13844
▁烙	13845
▁充气	13846
▁重心	13847
▁ั	13848
▁化疗	13849
▁秦皇岛	13850
▁黄晓明	13851
▁三叔	13852
▁塞尔	13853
▁山楂	13854
▁歌唱	13855
▁MA	13856
▁乘以	13857
▁推进	13858
▁来去	13859
▁留住	13860
▁850	13861
▁know	13862
▁强壮	13863
ana	13864
▁布料	13865
▁散发	13866
▁人权	13867
▁腿毛	13868
▁包围	13869
▁活人	13870
▁联发	13871
▁避孕药	13872
▁4+	13873
▁310	13874
▁怠	13875
规模	13876
▁各类	13877
▁基于	13878
▁天窗	13879
▁大规模	13880
不清	13881
▁重做	13882
▁hp	13883
▁托运	13884
▁炭	13885
▁点数	13886
尿酸	13887
▁巫师	13888
▁接机	13889
▁鸦	13890
▁别克	13891
▁rm	13892
▁窦	13893
▁散打	13894
▁跟前	13895
▁连云	13896
▁门诊	13897
▁0.3	13898
▁光明正大	13899
▁金钟	13900
▁二三十	13901
▁及其	13902
▁👈	13903
▁文采	13904
▁葡萄糖	13905
▁考核	13906
▁贝壳	13907
▁噉	13908
▁得慌	13909
▁鹰眼	13910
▁凉水	13911
▁建模	13912
▁普洱	13913
▁荤	13914
▁消肿	13915
▁come	13916
▁糜	13917
▁当官	13918
▁进程	13919
▁原话	13920
▁收取	13921
▁点滴	13922
▁荆州	13923
儿八经	13924
▁0.8	13925
▁正儿八经	13926
里奥	13927
▁环球	13928
▁稀里	13929
▁鬼泣	13930
▁114	13931
▁下坡	13932
▁大婶	13933
▁家常	13934
▁确保	13935
▁罗斯	13936
▁余生	13937
▁卖点	13938
▁床头	13939
▁选举	13940
▁xj	13941
▁仙子	13942
▁分班	13943
▁木瓜	13944
▁四叶草	13945
▁ン	13946
意识	13947
▁牵扯	13948
▁竹子	13949
▁问好	13950
▁青梅	13951
▁鞭炮	13952
▁活生生	13953
▁潜意识	13954
▁檀	13955
-01	13956
▁凯凯	13957
▁散粉	13958
▁水浒	13959
▁阳性	13960
▁502	13961
▁OPPO	13962
▁滕	13963
▁到点	13964
▁拜年	13965
▁迪士	13966
▁460	13967
ase	13968
▁校内	13969
▁老早	13970
▁肠道	13971
▁跟随	13972
▁首次	13973
▁👧	13974
▁一摸	13975
▁蛊	13976
▁乐山	13977
▁大老	13978
▁星月	13979
▁下期	13980
▁厨艺	13981
▁定律	13982
▁小包	13983
▁经销商	13984
350	13985
▁发胖	13986
▁法术	13987
▁淀粉	13988
▁瘦腿	13989
▁过冬	13990
▁365	13991
▁う	13992
▁丧失	13993
▁批准	13994
▁主办	13995
▁冰糖	13996
▁大脚	13997
▁白马	13998
▁本科生	13999
/1	14000
▁冰激	14001
▁就学	14002
▁饱满	14003
得着	14004
▁整套	14005
▁几千万	14006
▁无所畏惧	14007
▁低保	14008
▁完好	14009
▁胡乱	14010
▁gpu	14011
▁崩盘	14012
▁考前	14013
▁反差	14014
▁泰安	14015
▁蓝莓	14016
hop	14017
▁国防	14018
▁城堡	14019
▁天理	14020
▁箭头	14021
▁莫拉	14022
▁谢娜	14023
▁马到	14024
EL	14025
▁悉	14026
▁助学	14027
▁收养	14028
▁胃炎	14029
▁举例	14030
▁九江	14031
▁母校	14032
▁沧桑	14033
▁铁血	14034
尼奥	14035
米花	14036
▁哄哄	14037
▁爆米花	14038
▁心安	14039
la	14040
▁事项	14041
▁全省	14042
▁欠费	14043
▁美化	14044
▁变质	14045
▁夏洛	14046
▁大蛇	14047
▁收敛	14048
▁杀伤	14049
▁热身	14050
取闹	14051
▁五险	14052
▁无理取闹	14053
▁击败	14054
▁ま	14055
▁抗拒	14056
▁调试	14057
▁高估	14058
▁玻尿酸	14059
▁巷子	14060
▁老汉	14061
▁人名	14062
▁收音	14063
▁胜负	14064
▁边路	14065
▁金发	14066
▁粉红色	14067
].[	14068
▁做大	14069
▁哎哎	14070
▁城镇	14071
▁屈臣	14072
▁提速	14073
▁跳出	14074
▁妲	14075
不如	14076
▁堪比	14077
▁收缩	14078
▁杂交	14079
▁胃肠	14080
▁苏苏	14081
▁徐海乔	14082
▁迪士尼	14083
▁池子	14084
▁特写	14085
▁幻影	14086
▁张翰	14087
▁伴随	14088
▁娘子	14089
▁射雕	14090
▁484	14091
▁老爷子	14092
▁折叠	14093
▁袄	14094
▁慢跑	14095
▁迷失	14096
▁龚	14097
▁联动	14098
▁芹	14099
▁仪表	14100
▁音箱	14101
39	14102
▁修路	14103
▁发卡	14104
▁朵花	14105
▁酸辣	14106
士顿	14107
▁再玩	14108
▁失效	14109
▁调调	14110
▁cdx	14111
▁丰满	14112
▁习俗	14113
▁国贸	14114
▁资讯	14115
▁善待	14116
▁晕车	14117
▁爱爱	14118
▁发疯	14119
▁阻碍	14120
▁神作	14121
▁缩写	14122
▁胶原	14123
▁羁	14124
▁四肢	14125
▁菜刀	14126
▁四方	14127
▁少喝	14128
▁就事	14129
▁相伴	14130
▁阑	14131
▁焊接	14132
▁艰辛	14133
ily	14134
▁倾诉	14135
▁唐僧	14136
▁灼	14137
▁光滑	14138
▁龙华	14139
▁屈臣氏	14140
▁韬	14141
▁信阳	14142
▁家境	14143
▁马到成功	14144
gr	14145
▁补给	14146
▁镯	14147
▁希特	14148
▁成衣	14149
▁肺炎	14150
▁信念	14151
亚文	14152
▁幻觉	14153
▁水面	14154
▁谴	14155
人心	14156
▁油菜	14157
▁钳	14158
▁^^	14159
▁午睡	14160
▁吓跑	14161
▁182	14162
:5	14163
▁豌	14164
不能	14165
▁三环	14166
▁情趣	14167
▁投影	14168
▁转手	14169
▁项羽	14170
▁109	14171
基因	14172
▁凉皮	14173
▁各家	14174
▁轩辕	14175
▁发起	14176
▁捐款	14177
▁答复	14178
▁草稿	14179
▁转基因	14180
▁马达	14181
▁乘客	14182
▁白送	14183
▁跳绳	14184
塞尔	14185
128	14186
are	14187
▁IT	14188
▁招待	14189
▁特有	14190
▁卜	14191
▁煽情	14192
▁良药	14193
▁迹象	14194
▁海水	14195
▁ˉ	14196
▁na	14197
▁伯爵	14198
▁国道	14199
▁清晨	14200
▁眼花	14201
▁宅男	14202
▁红莲	14203
▁GD	14204
▁区间	14205
▁瓶颈	14206
▁车间	14207
▁脱毛	14208
▁face	14209
▁安东尼	14210
▁て	14211
▁com	14212
▁兵器	14213
▁县级	14214
▁回顾	14215
▁常驻	14216
/5	14217
▁下垂	14218
▁用法	14219
▁菠菜	14220
▁行尸	14221
▁毒药	14222
▁邮编	14223
▁埃及	14224
▁孔子	14225
▁送走	14226
▁预览	14227
-24	14228
▁几何	14229
▁板块	14230
▁店长	14231
▁跃	14232
▁JJ	14233
▁摆设	14234
▁老友	14235
▁谅解	14236
▁妞妞	14237
▁楼房	14238
▁玛德	14239
▁阳痿	14240
MG	14241
▁出局	14242
▁龙头	14243
▁径	14244
▁三明	14245
▁后备	14246
▁过夜	14247
▁黑鬼	14248
▁重度	14249
▁680	14250
▁对联	14251
▁石膏	14252
▁USB	14253
▁尼泊尔	14254
46	14255
▁ˊ	14256
▁🎉	14257
▁战舰	14258
▁节哀	14259
▁换乘	14260
▁推测	14261
▁水表	14262
▁理所	14263
▁轻薄	14264
▁九州	14265
▁清风	14266
▁老张	14267
▁理所当然	14268
▁5%	14269
▁诱人	14270
▁尖锐	14271
▁巴士	14272
▁成名	14273
▁笑脸	14274
▁绘画	14275
▁遛狗	14276
丸子	14277
▁九寨	14278
▁无偿	14279
▁正月	14280
▁纺	14281
▁前往	14282
▁多难	14283
▁难题	14284
▁机动车	14285
▁不容	14286
▁张飞	14287
▁泡妞	14288
▁分红	14289
▁太特	14290
▁老三	14291
▁封神	14292
▁故乡	14293
▁溶液	14294
之明	14295
▁ie	14296
▁mg	14297
▁牛头	14298
▁两眼	14299
▁中南	14300
德森	14301
▁抚养	14302
▁摄入	14303
▁批量	14304
▁低落	14305
▁行李箱	14306
++	14307
▁乜	14308
-19	14309
▁东路	14310
▁大碗	14311
▁麻花	14312
▁伊斯兰	14313
时捷	14314
▁熬过	14315
▁缺德	14316
▁莉莉	14317
▁雕刻	14318
▁反义词	14319
▁小樱	14320
▁标价	14321
▁泥巴	14322
▁挖掘机	14323
▁天马	14324
▁胡椒	14325
▁真皮	14326
▁附带	14327
▁禁忌	14328
▁简洁	14329
▁腊肉	14330
▁过奖	14331
▁长远	14332
zh	14333
▁保时捷	14334
▁彦	14335
▁淳	14336
▁主宰	14337
▁帮主	14338
▁汽修	14339
不忘	14340
▁围绕	14341
▁明媚	14342
▁野心	14343
▁集资	14344
▁哗啦	14345
▁婆家	14346
▁体育场	14347
▁耳钉	14348
▁身影	14349
▁醇	14350
▁主唱	14351
▁寻思	14352
▁淘气	14353
ner	14354
▁所致	14355
▁挑衅	14356
▁粗口	14357
▁颤抖	14358
▁小丸子	14359
▁1230	14360
▁皓	14361
▁受益	14362
▁实事	14363
▁缺氧	14364
▁2700	14365
无二	14366
▁ur	14367
▁diss	14368
▁酸痛	14369
▁号牌	14370
▁温差	14371
▁眨眼	14372
▁敲门	14373
▁don	14374
▁挚	14375
▁上岗	14376
▁保住	14377
▁反之	14378
▁楼顶	14379
▁粉刺	14380
▁二十五	14381
▁天策	14382
▁集训	14383
OR	14384
▁隋	14385
▁胃病	14386
▁赐教	14387
▁矣	14388
▁凉拌	14389
▁着火	14390
▁讲理	14391
▁好奇心	14392
▁朱亚文	14393
use	14394
▁边境	14395
▁交际	14396
▁大厨	14397
▁试听	14398
▁☔	14399
▁榜样	14400
▁液晶	14401
▁○	14402
而过	14403
▁fx	14404
▁好走	14405
▁大拇指	14406
43	14407
▁呱	14408
▁百分比	14409
▁上级	14410
▁凶手	14411
▁独一	14412
▁占据	14413
▁糟心	14414
▁不解	14415
▁夜深	14416
▁播音	14417
▁评委	14418
▁ips	14419
▁可口	14420
▁合集	14421
▁吻戏	14422
▁咕噜	14423
▁微胖	14424
▁投稿	14425
▁枪毙	14426
▁短裙	14427
▁带入	14428
▁德甲	14429
▁海棠	14430
▁西药	14431
▁扦插	14432
▁轻轨	14433
▁钾	14434
▁实况	14435
▁有益	14436
▁职称	14437
▁绵绵	14438
▁限速	14439
▁连云港	14440
▁と	14441
▁减脂	14442
▁搞搞	14443
▁耗子	14444
▁bp	14445
▁hk	14446
▁卡尔	14447
▁廊坊	14448
▁聋	14449
▁烤鸭	14450
▁纷纷	14451
▁墙头	14452
▁王凯	14453
▁腰椎	14454
▁远处	14455
▁秩	14456
▁回避	14457
▁月入	14458
▁酵素	14459
▁防空	14460
▁💅	14461
▁mk	14462
▁幼师	14463
▁接手	14464
▁sad	14465
▁that	14466
▁反面	14467
▁司令	14468
▁车厢	14469
▁查出	14470
▁礼仪	14471
▁禽兽	14472
▁回族	14473
▁鸡排	14474
▁判决	14475
▁大块	14476
▁脾胃	14477
▁安妮	14478
▁尧	14479
▁快滚	14480
▁机顶	14481
▁贴图	14482
▁英格兰	14483
▁梓	14484
▁念书	14485
▁排水	14486
▁星级	14487
▁熊熊	14488
▁薯条	14489
▁养猪	14490
▁认清	14491
▁河边	14492
▁飙车	14493
▁7.1	14494
▁入伍	14495
▁麦迪	14496
▁债务	14497
▁那双	14498
▁志同	14499
▁金木	14500
▁惬	14501
▁jd	14502
▁特朗	14503
▁上榜	14504
▁李晨	14505
ars	14506
▁唔系	14507
▁茫茫	14508
▁螨	14509
▁闸	14510
▁号召	14511
▁抛开	14512
nm	14513
▁彬	14514
▁定居	14515
▁收人	14516
▁香肠	14517
▁许可	14518
▁改正	14519
▁曼谷	14520
▁契约	14521
▁尽早	14522
▁无助	14523
▁正比	14524
▁爱到	14525
▁算得	14526
▁格力	14527
▁百搭	14528
▁航天	14529
▁谴责	14530
▁rmb	14531
▁漳	14532
▁SM	14533
▁歉	14534
imi	14535
▁坏蛋	14536
▁奖项	14537
▁威廉	14538
▁潜艇	14539
▁黄蜂	14540
▁一动	14541
▁大仙	14542
▁野蛮	14543
▁随口	14544
▁停机	14545
▁高科技	14546
▁男团	14547
▁蓝黑	14548
▁阿里巴巴	14549
▁冈	14550
▁吭	14551
▁晕倒	14552
▁民生	14553
▁气愤	14554
▁五金	14555
▁咬死	14556
▁大棚	14557
▁根治	14558
▁被查	14559
▁壹	14560
IFI	14561
▁悬疑	14562
▁细细	14563
▁脱皮	14564
▁不佳	14565
▁作风	14566
▁凤姐	14567
▁厚厚	14568
▁带坏	14569
▁赣州	14570
▁造反	14571
▁会心	14572
▁前妻	14573
▁来两	14574
▁死死	14575
▁禾	14576
▁异味	14577
▁红人	14578
▁批次	14579
▁清流	14580
▁1.7	14581
▁os	14582
▁哪吒	14583
▁明亮	14584
▁碑	14585
▁典礼	14586
▁宇文	14587
▁向日	14588
▁存活	14589
▁杀猪	14590
▁婧	14591
▁世锦	14592
▁刺猬	14593
▁看得见	14594
▁金球	14595
-100	14596
▁惬意	14597
▁护发	14598
▁漂流	14599
▁自治	14600
▁大火	14601
▁守门	14602
▁摔跤	14603
▁政权	14604
▁比利	14605
▁若干	14606
▁近义词	14607
▁打分	14608
▁练字	14609
▁DI	14610
▁数据库	14611
▁独一无二	14612
▁更低	14613
▁修正	14614
▁宝贵	14615
▁着实	14616
▁KTV	14617
box	14618
▁小屋	14619
▁用户名	14620
▁跆	14621
宝宝	14622
▁全天	14623
▁暗号	14624
AS	14625
▁女巫	14626
▁残留	14627
▁宛	14628
道合	14629
▁学完	14630
▁献给	14631
▁美工	14632
▁鱼塘	14633
▁印记	14634
▁贬值	14635
▁志同道合	14636
▁/~	14637
▁一概	14638
▁众生	14639
▁纯真	14640
▁迎来	14641
▁195	14642
▁婷婷	14643
▁波斯	14644
▁奥巴马	14645
▁阿拉斯加	14646
41	14647
+10	14648
▁燕麦	14649
▁车门	14650
▁卒	14651
▁non	14652
▁联系人	14653
▁所得	14654
▁记录仪	14655
▁开眼	14656
▁心寒	14657
▁阜阳	14658
▁疆	14659
▁劣势	14660
▁搅拌	14661
▁近代	14662
▁=3	14663
▁勿扰	14664
▁半生	14665
▁影后	14666
oll	14667
▁一查	14668
▁拉姆	14669
▁疗程	14670
out	14671
▁升值	14672
▁响应	14673
▁绵羊	14674
▁对决	14675
膜炎	14676
▁迷彩	14677
▁隐隐	14678
▁2008	14679
▁书名	14680
▁只管	14681
▁监考	14682
▁و	14683
ond	14684
▁包车	14685
▁团子	14686
▁步入	14687
▁说道	14688
fs	14689
▁门外	14690
▁胯	14691
▁腚	14692
▁弓箭	14693
▁打通	14694
▁两码事	14695
▁用得着	14696
▁变性	14697
▁城建	14698
▁峨眉	14699
▁年费	14700
▁盆栽	14701
TC	14702
bb	14703
▁张靓	14704
▁新乡	14705
▁无赖	14706
▁村子	14707
▁梅林	14708
▁胸肌	14709
▁腰围	14710
▁冀	14711
▁困惑	14712
▁拆机	14713
▁煮熟	14714
▁附上	14715
▁变形金刚	14716
▁平底	14717
▁接送	14718
▁纯情	14719
▁下跌	14720
▁ysl	14721
▁睾	14722
▁填充	14723
▁树林	14724
▁坐下	14725
▁路况	14726
▁途中	14727
▁友人	14728
▁掌柜	14729
▁活儿	14730
▁知心	14731
▁紫薇	14732
▁联考	14733
▁趣味	14734
▁重力	14735
ik	14736
▁TA	14737
▁福田	14738
▁show	14739
▁tp	14740
▁卡通	14741
▁盒饭	14742
▁零花	14743
▁DV	14744
▁大黄	14745
▁指出	14746
▁掉价	14747
▁春夏	14748
▁美利	14749
▁明知	14750
▁稀释	14751
▁豌豆	14752
▁抽出	14753
▁白虎	14754
▁162	14755
-06	14756
▁沉浸	14757
▁|170	14758
▁斑马	14759
▁无处	14760
▁秋季	14761
▁诉讼	14762
▁猖	14763
少年	14764
▁dj	14765
▁烟火	14766
▁商丘	14767
▁声望	14768
▁心率	14769
▁早泄	14770
▁里程	14771
▁冷清	14772
▁大阪	14773
▁酒窝	14774
▁张靓颖	14775
▁😑	14776
-03	14777
▁喜悦	14778
▁小孩儿	14779
▁竞争力	14780
▁csgo	14781
▁匈	14782
▁咱家	14783
▁技师	14784
▁早出	14785
▁蒸汽	14786
zy	14787
ord	14788
▁别动	14789
▁多情	14790
▁张小	14791
▁螳	14792
▁人种	14793
▁机体	14794
04	14795
bu	14796
▁教导	14797
▁断食	14798
▁失灵	14799
▁抱枕	14800
▁立方	14801
▁增大	14802
▁忍耐	14803
▁编码	14804
▁猕	14805
▁褐	14806
▁梅毒	14807
▁热烈	14808
▁西区	14809
▁谜底	14810
▁坝	14811
▁赴	14812
▁北区	14813
▁手心	14814
▁飞翔	14815
▁黄昏	14816
▁丨	14817
▁泌	14818
▁🙄	14819
▁带路	14820
▁延期	14821
▁镜像	14822
▁注明	14823
▁颠覆	14824
无期	14825
▁光芒	14826
▁妊娠	14827
▁掏出	14828
▁断货	14829
▁来水	14830
▁河里	14831
▁经费	14832
▁节省	14833
▁绷	14834
▁中信	14835
▁判刑	14836
▁必死	14837
▁看破	14838
▁结伴	14839
▁屡	14840
▁下海	14841
▁遁	14842
▁二爷	14843
▁配对	14844
▁sun	14845
▁世锦赛	14846
▁The	14847
▁锂	14848
▁四万	14849
▁拓印	14850
▁2.1	14851
▁不知所	14852
▁迪丽热巴	14853
▁仕	14854
▁墩	14855
▁瘸	14856
丽莎	14857
▁泪水	14858
▁冰激凌	14859
▁俞	14860
.28	14861
▁住校	14862
▁立案	14863
▁笔芯	14864
▁黑客	14865
aster	14866
▁saber	14867
▁驯	14868
▁八万	14869
▁叫醒	14870
▁轻度	14871
▁韩文	14872
有可	14873
▁冬瓜	14874
▁疼爱	14875
▁门店	14876
▁刊	14877
ide	14878
▁垫子	14879
▁拦网	14880
▁水洗	14881
▁猕猴	14882
▁球王	14883
▁音效	14884
拳道	14885
▁拆穿	14886
▁拉松	14887
▁留名	14888
▁跆拳道	14889
▁庐	14890
▁师哥	14891
▁る	14892
▁戟	14893
▁周瑜	14894
▁治理	14895
▁酒量	14896
▁酷派	14897
▁砖头	14898
ES	14899
▁눈	14900
▁上演	14901
▁首映	14902
▁切割	14903
▁台州	14904
▁拇指	14905
▁知音	14906
▁篮子	14907
▁骑马	14908
▁1900	14909
=1	14910
▁邋	14911
▁🎀	14912
▁借款	14913
▁寄出	14914
▁懦弱	14915
▁遵义	14916
▁奢侈品	14917
▁富有	14918
▁道士	14919
▁饲养	14920
62	14921
▁上回	14922
▁作孽	14923
▁良辰	14924
▁皇子	14925
▁刘烨	14926
▁弄错	14927
▁日志	14928
▁全包	14929
▁耻辱	14930
mo	14931
▁纸质	14932
▁耐看	14933
▁10.1	14934
▁↓	14935
▁体测	14936
▁看花	14937
▁衬托	14938
不尽	14939
▁中和	14940
▁大帅	14941
▁最先	14942
▁力学	14943
▁年限	14944
▁往返	14945
▁棒球	14946
▁淹死	14947
▁食材	14948
▁技校	14949
▁银川	14950
-22	14951
▁独家	14952
▁空手	14953
▁银魂	14954
▁概括	14955
▁野兽	14956
▁特朗普	14957
▁bigbang	14958
MS	14959
▁芸	14960
▁住宅	14961
▁国美	14962
▁疾风	14963
▁薪水	14964
▁含蓄	14965
▁索性	14966
▁镜片	14967
▁莫拉塔	14968
▁彼岸	14969
▁污蔑	14970
▁卡罗拉	14971
▁葡萄酒	14972
▁胶原蛋白	14973
▁耳光	14974
▁黄蓉	14975
▁三角形	14976
▁借用	14977
▁发自	14978
▁屠龙	14979
▁玩偶	14980
▁违背	14981
运会	14982
▁挂失	14983
▁歌声	14984
▁老表	14985
▁亚泰	14986
▁富婆	14987
▁打手	14988
▁许久	14989
▁拖拉机	14990
▁で	14991
▁煮饭	14992
▁生肉	14993
▁请来	14994
▁账单	14995
▁贵人	14996
▁💕	14997
▁奶水	14998
▁每场	14999
▁图形	15000
▁日报	15001
▁没辙	15002
▁四维	15003
▁素养	15004
▁红字	15005
▁妲己	15006
▁钉子	15007
▁向日葵	15008
▁焚	15009
▁村民	15010
▁附属	15011
▁五花	15012
▁台球	15013
▁薪资	15014
▁二氧化	15015
▁鸳	15016
▁清单	15017
▁陪陪	15018
▁宁静	15019
▁海带	15020
▁降临	15021
▁山药	15022
▁换算	15023
▁浮动	15024
▁二十一	15025
▁3800	15026
▁蚯	15027
▁燃气	15028
▁转接	15029
▁299	15030
▁阿玛尼	15031
▁衍	15032
▁双开	15033
▁多亏	15034
▁小年	15035
▁收割	15036
▁甲状	15037
roid	15038
▁黑车	15039
▁70%	15040
▁逊	15041
-02	15042
▁王宝	15043
▁神雕	15044
▁秩序	15045
▁连击	15046
▁动人	15047
▁学籍	15048
ven	15049
▁腿短	15050
▁遥遥	15051
itch	15052
IS	15053
▁临摹	15054
▁北路	15055
▁归宿	15056
▁\\/~	15057
▁偏差	15058
▁征婚	15059
▁迁就	15060
▁小凡	15061
▁烟雾	15062
▁重发	15063
▁非诚	15064
▁青少年	15065
▁✧	15066
勿扰	15067
***	15068
-05	15069
▁脑筋	15070
▁非诚勿扰	15071
ighting	15072
▁心里话	15073
▁强悍	15074
▁数一	15075
▁李子	15076
▁珍爱	15077
▁斋	15078
>_<	15079
克兰	15080
▁炫富	15081
▁澜	15082
论事	15083
▁高高	15084
▁102	15085
▁就事论事	15086
反复	15087
▁口才	15088
▁蛾子	15089
反复复	15090
▁反反复复	15091
▁代步	15092
▁博格巴	15093
▁google	15094
▁office	15095
▁撕裂	15096
▁火气	15097
▁舱	15098
▁oo	15099
▁抗病	15100
▁独孤	15101
▁私服	15102
▁过往	15103
▁彤	15104
▁低压	15105
▁带头	15106
▁脸小	15107
▁sim	15108
▁高尔夫	15109
▁‖	15110
世勋	15111
▁乌鸡	15112
▁兰博	15113
▁唯美	15114
▁甜点	15115
▁郭敬	15116
▁巴拉	15117
▁惨案	15118
▁新婚	15119
▁😤	15120
▁决战	15121
▁对称	15122
▁拼图	15123
▁陈晓	15124
▁顺畅	15125
▁便携	15126
▁先后	15127
▁脐	15128
▁乌龙	15129
▁像样	15130
▁奔腾	15131
▁找死	15132
▁旺盛	15133
▁犹太	15134
▁销魂	15135
▁隔天	15136
▁ju	15137
▁宝鸡	15138
▁颜料	15139
▁啷	15140
▁ot	15141
▁密保	15142
▁生怕	15143
▁胡扯	15144
▁ems	15145
▁end	15146
▁韶	15147
▁佳人	15148
▁推动	15149
▁娜美	15150
▁敏捷	15151
▁猝死	15152
▁线索	15153
▁金立	15154
▁🌝	15155
▁ds	15156
▁ky	15157
▁井盖	15158
▁适宜	15159
▁高频	15160
▁希拉里	15161
▁一版	15162
▁三七	15163
▁下床	15164
▁世俗	15165
▁德比	15166
▁石化	15167
▁全文	15168
▁坐坐	15169
▁富豪	15170
▁乱想	15171
▁地形	15172
▁永生	15173
▁不纯	15174
▁冰心	15175
▁super	15176
▁es	15177
▁变更	15178
▁缓慢	15179
▁蚯蚓	15180
▁越发	15181
▁甲状腺	15182
▁丰胸	15183
▁建成	15184
▁打胎	15185
▁节能	15186
▁速腾	15187
▁郭敬明	15188
▁吵吵	15189
▁性情	15190
▁杀菌	15191
▁{	15192
▁部件	15193
▁裴	15194
▁排列	15195
▁民工	15196
▁翻拍	15197
▁眷	15198
▁几多	15199
▁合计	15200
▁月租	15201
▁皮卡丘	15202
▁吆	15203
▁太郎	15204
▁庄园	15205
▁酸酸	15206
▁除夕	15207
哇伊	15208
▁安抚	15209
▁淮安	15210
▁跟踪	15211
▁搞懂	15212
▁瘦肉	15213
▁自乐	15214
▁豆芽	15215
▁两侧	15216
▁硬生生	15217
▁挂钩	15218
▁盔	15219
▁菏	15220
▁牵挂	15221
▁三千多	15222
▁深陷	15223
压器	15224
▁天性	15225
▁申论	15226
▁瞄准	15227
▁装置	15228
▁ovo	15229
▁+100	15230
▁侧脸	15231
▁原配	15232
▁强硬	15233
▁胡同	15234
▁南区	15235
▁购置	15236
▁AA	15237
▁全校	15238
▁必修	15239
▁片花	15240
▁纳税	15241
▁讲课	15242
▁ヾ	15243
▁SU	15244
▁头球	15245
▁放置	15246
▁税务	15247
▁脚丫	15248
▁小队	15249
▁当今	15250
▁鉴别	15251
▁叫法	15252
▁天半	15253
▁运作	15254
▁卖得	15255
▁寄托	15256
▁金丝	15257
▁事事	15258
▁内功	15259
▁博爱	15260
▁小七	15261
▁私房	15262
-07	15263
ift	15264
▁低估	15265
▁兽医	15266
▁出炉	15267
▁峡谷	15268
▁羁绊	15269
▁喻	15270
▁主城	15271
▁注水	15272
▁灵异	15273
▁襄阳	15274
▁进城	15275
▁初步	15276
▁华北	15277
▁雅阁	15278
▁艺考	15279
▁倔强	15280
▁奢望	15281
▁审计	15282
▁本钱	15283
▁飞升	15284
▁两头	15285
▁小名	15286
▁淋雨	15287
▁看房	15288
▁老兄	15289
▁起义	15290
▁转载	15291
▁腮红	15292
▁美妙	15293
▁进阶	15294
▁翁	15295
-50	15296
▁哦哟	15297
▁闽南	15298
▁影评	15299
▁分队	15300
▁吴世勋	15301
▁储蓄	15302
▁短短	15303
▁误差	15304
▁下拉	15305
▁复旦	15306
▁括号	15307
▁流年	15308
▁海豹	15309
▁生锈	15310
▁line	15311
▁双飞	15312
▁恭维	15313
▁摩尔	15314
▁自娱	15315
▁落叶	15316
▁黄子	15317
▁apple	15318
▁半点	15319
▁场次	15320
▁学得	15321
▁小数	15322
▁正道	15323
▁港币	15324
▁米国	15325
▁偷看	15326
▁打中	15327
▁狱	15328
▁挨个	15329
▁挫折	15330
▁明目	15331
▁牛牛	15332
▁草草	15333
▁释怀	15334
▁威信	15335
▁张开	15336
▁当代	15337
▁控油	15338
▁灰心	15339
▁144	15340
01	15341
▁器械	15342
▁插曲	15343
▁政法	15344
▁清热	15345
▁狂野	15346
▁甜美	15347
▁稍稍	15348
▁被扣	15349
▁媛	15350
▁皖	15351
▁诀	15352
▁弹簧	15353
▁衡阳	15354
▁各国	15355
▁多样	15356
ach	15357
▁修身	15358
▁医科	15359
▁戏剧	15360
▁把子	15361
▁放宽	15362
▁静脉	15363
▁龙王	15364
▁焕	15365
▁xs	15366
▁业界	15367
▁审批	15368
▁白话	15369
▁追究	15370
▁Ha	15371
▁世人	15372
▁深色	15373
▁订票	15374
▁噱	15375
▁万恶	15376
▁品尝	15377
▁油脂	15378
拉德	15379
▁油画	15380
▁法子	15381
▁羊水	15382
▁漱	15383
▁副攻	15384
▁慕容	15385
▁独角	15386
▁肥胖	15387
▁张国荣	15388
▁出击	15389
▁噗噗	15390
ep	15391
▁紊	15392
凝土	15393
▁亏损	15394
▁安吉	15395
▁租金	15396
▁貌美	15397
▁混凝土	15398
lt	15399
-04	15400
▁双面	15401
▁小姑	15402
▁花椒	15403
▁鼻梁	15404
▁张家界	15405
gg	15406
▁嘀	15407
▁安眠	15408
▁扑倒	15409
▁负债	15410
▁les	15411
▁夭	15412
▁洋洋	15413
▁还手	15414
▁大庆	15415
▁文革	15416
▁蒸发	15417
▁有力	15418
▁退换	15419
▁night	15420
口子	15421
▁域名	15422
▁破碎	15423
▁WIFI	15424
ody	15425
▁买入	15426
▁例假	15427
▁5500	15428
▁店名	15429
▁抢救	15430
▁正气	15431
▁洵	15432
▁褒	15433
西哥	15434
▁囤货	15435
▁龙猫	15436
▁单方面	15437
▁人形	15438
▁彭于	15439
▁骨灰	15440
▁裱	15441
▁天域	15442
▁怀旧	15443
▁衡水	15444
▁转世	15445
▁三秒	15446
▁六百	15447
▁南无	15448
▁开荒	15449
▁烫伤	15450
▁琉璃	15451
▁上楼	15452
▁吓坏	15453
▁漫漫	15454
▁背带	15455
▁彭于晏	15456
▁修剪	15457
▁右转	15458
▁解约	15459
▁177	15460
/4	15461
▁检察	15462
▁没心	15463
▁锈	15464
没肺	15465
▁不便	15466
▁小品	15467
▁终生	15468
▁手指头	15469
▁没心没肺	15470
▁写信	15471
▁祖先	15472
▁药都	15473
▁橱	15474
▁学问	15475
▁总局	15476
▁漏光	15477
▁读取	15478
▁掠	15479
▁开来	15480
▁牙签	15481
▁纯种	15482
▁归路	15483
▁没落	15484
▁元帅	15485
▁风俗	15486
▁喀	15487
▁柄	15488
-21	15489
▁侵权	15490
▁乾隆	15491
▁拉布	15492
▁转播	15493
▁风头	15494
▁卡哇伊	15495
▁敢于	15496
▁海拔	15497
▁炸毛	15498
▁电热	15499
▁破车	15500
▁镇江	15501
▁flag	15502
▁吸取	15503
▁小叶	15504
▁布鲁	15505
▁拉链	15506
▁病变	15507
▁科室	15508
▁矢	15509
▁||	15510
▁关灯	15511
▁怕死	15512
▁高危	15513
▁下旬	15514
▁信赖	15515
▁自虐	15516
▁蜡笔	15517
▁路透	15518
▁靶	15519
▁受凉	15520
▁涡轮	15521
▁生吃	15522
▁鞋垫	15523
▁昊	15524
▁东华	15525
▁赶走	15526
▁盏	15527
▁招惹	15528
▁迷宫	15529
▁全运会	15530
▁开销	15531
▁枯燥	15532
▁气泡	15533
▁酷酷	15534
▁卢卡	15535
▁心境	15536
▁真事	15537
▁事务所	15538
ure	15539
▁大锤	15540
▁搜狐	15541
▁同期	15542
▁漂移	15543
▁睡睡	15544
▁豹子	15545
▁Th	15546
▁简体	15547
▁罪过	15548
▁武昌	15549
▁热敷	15550
-28	15551
▁受苦	15552
▁随风	15553
▁香格里	15554
▁引力	15555
▁妓	15556
▁叙述	15557
▁片头	15558
▁伊拉克	15559
▁回民	15560
▁打倒	15561
▁芭比	15562
▁风衣	15563
▁挺住	15564
▁收纳	15565
八两	15566
▁珊瑚	15567
76	15568
▁天桥	15569
▁夹子	15570
▁机甲	15571
▁撒比	15572
▁追杀	15573
▁化解	15574
▁方块	15575
▁歌迷	15576
▁讲座	15577
▁跌停	15578
▁大卫	15579
▁大班	15580
▁纳米	15581
▁走廊	15582
▁174	15583
▁出版社	15584
kb	15585
▁二环	15586
▁伤身	15587
▁神威	15588
▁无处不在	15589
▁SH	15590
▁名校	15591
▁文具	15592
▁泳池	15593
▁蒽	15594
▁推翻	15595
▁轨迹	15596
▁边锋	15597
▁小鬼	15598
▁窃	15599
▁功底	15600
▁抛光	15601
▁种地	15602
▁In	15603
▁做多	15604
▁各项	15605
▁拿手	15606
▁更少	15607
▁飞哥	15608
▁大度	15609
▁往来	15610
▁掐死	15611
▁法则	15612
▁樊	15613
▁会所	15614
▁字面	15615
hy	15616
▁焰	15617
▁后场	15618
▁噱头	15619
▁捷达	15620
▁期盼	15621
▁海岸	15622
▁焦点	15623
▁邋遢	15624
▁隐瞒	15625
▁两字	15626
▁赎	15627
▁-1	15628
▁家猫	15629
▁喧	15630
▁一贯	15631
▁磨练	15632
▁路径	15633
▁香格里拉	15634
▁均价	15635
▁网课	15636
▁风向	15637
▁半斤八两	15638
▁围棋	15639
▁备考	15640
▁无声	15641
▁紊乱	15642
▁闰	15643
▁ag	15644
▁寒冰	15645
▁岛国	15646
▁有数	15647
▁雾化	15648
▁1%	15649
▁内科	15650
▁流弊	15651
▁睁开	15652
▁软膏	15653
▁ro	15654
▁忽冷	15655
▁舔舔	15656
▁龙门	15657
▁fc	15658
▁传闻	15659
▁奶酪	15660
▁手掌	15661
▁白雪	15662
▁勋章	15663
▁发声	15664
▁呦呦	15665
▁散心	15666
▁无形	15667
▁顾问	15668
▁420	15669
▁猕猴桃	15670
▁内力	15671
▁投胎	15672
▁文本	15673
▁白皮	15674
▁盖楼	15675
▁离线	15676
▁耳塞	15677
八九	15678
▁余地	15679
▁北欧	15680
▁爱惜	15681
▁珍藏	15682
完没	15683
▁印花	15684
▁点券	15685
完没了	15686
▁没完没了	15687
而论	15688
▁小块	15689
▁绿地	15690
net	15691
▁蝉	15692
而不	15693
▁绝地	15694
▁0.2	15695
▁念念不忘	15696
▁镁	15697
▁机能	15698
▁机车	15699
▁肉丝	15700
▁西塘	15701
▁雪女	15702
▁收音机	15703
▁玖	15704
▁VS	15705
▁yu	15706
▁传到	15707
▁绝情	15708
▁墨西哥	15709
马哈	15710
▁if	15711
▁ui	15712
▁故宫	15713
▁瑞典	15714
▁黑莓	15715
▁fu	15716
▁交道	15717
▁孩儿	15718
▁哉	15719
▁嗅	15720
▁初音	15721
▁心甘	15722
▁王妃	15723
▁着手	15724
▁空空	15725
▁104	15726
▁窑	15727
活来	15728
▁6.	15729
▁pad	15730
▁死去活来	15731
▁甭	15732
▁受骗	15733
▁地平	15734
▁安置	15735
▁贪官	15736
卡通	15737
▁产地	15738
▁变胖	15739
▁好耍	15740
▁比鲁斯	15741
▁主见	15742
▁弄坏	15743
▁考科	15744
▁圣痕	15745
▁旁观	15746
▁监管	15747
▁迷惑	15748
▁布偶	15749
▁来凑	15750
▁竞赛	15751
▁董事	15752
▁养眼	15753
▁江北	15754
▁翻滚	15755
▁🌸	15756
▁af	15757
▁去取	15758
▁懒惰	15759
▁相逢	15760
▁领到	15761
▁pass	15762
▁房源	15763
▁票数	15764
▁空位	15765
▁tom	15766
▁横店	15767
▁空姐	15768
▁不胜	15769
▁儒家	15770
▁内脏	15771
▁晕死	15772
▁足矣	15773
▁一卡通	15774
▁看得起	15775
▁flyme	15776
▁旱	15777
▁绊	15778
▁氮	15779
ect	15780
▁燕窝	15781
家子	15782
▁见鬼	15783
▁到头来	15784
▁添加剂	15785
▁克隆	15786
▁动动	15787
▁善意	15788
▁日久	15789
▁日历	15790
▁洗漱	15791
▁8.5	15792
▁僵硬	15793
▁影音	15794
▁毒素	15795
之百	15796
▁rs	15797
▁何不	15798
▁圣杯	15799
▁秃子	15800
▁色球	15801
▁百分之百	15802
歪歪	15803
▁下月	15804
▁朦胧	15805
▁}	15806
▁拙	15807
▁觅	15808
▁海豚	15809
▁马力	15810
▁撬	15811
▁分担	15812
▁名言	15813
▁敦煌	15814
▁OMG	15815
▁殇	15816
▁丝丝	15817
▁园区	15818
▁整合	15819
▁绝世	15820
▁透支	15821
ku	15822
▁大件	15823
▁hahaha	15824
▁崴	15825
▁同乐	15826
▁诗句	15827
▁骨气	15828
▁憔	15829
▁乱来	15830
▁伏笔	15831
▁开拓	15832
▁清凉	15833
▁私家	15834
EN	15835
▁昨儿	15836
▁风车	15837
▁两分	15838
▁招工	15839
▁杏仁	15840
▁haha	15841
▁🙋	15842
▁与众	15843
▁寄生虫	15844
▁与众不同	15845
▁〉	15846
▁窥	15847
▁入围	15848
▁楚楚	15849
▁紧紧	15850
▁老一	15851
▁5.2	15852
▁nonono	15853
PN	15854
▁香奈	15855
▁感激不尽	15856
▁年老	15857
▁麻子	15858
▁公牛	15859
▁减震	15860
▁双核	15861
▁3.4	15862
rmb	15863
▁6+	15864
▁先走	15865
▁开奖	15866
▁机率	15867
▁构图	15868
▁样样	15869
▁芹菜	15870
▁三轮车	15871
-23	15872
▁偏僻	15873
▁白衣	15874
▁超标	15875
▁闹事	15876
▁雪碧	15877
▁🐔	15878
▁命名	15879
▁章节	15880
▁soga	15881
▁tfboys	15882
▁魁	15883
▁湿气	15884
▁钢板	15885
则天	15886
▁发下	15887
▁提议	15888
▁暴毙	15889
▁毁容	15890
▁BU	15891
▁三体	15892
▁亲子	15893
▁包头	15894
▁女娲	15895
▁补肾	15896
▁cnm	15897
▁亢	15898
▁笠	15899
▁世面	15900
▁焉	15901
翼翼	15902
▁站点	15903
▁武则天	15904
▁小心翼翼	15905
▁intel	15906
▁绰	15907
▁xz	15908
▁方子	15909
▁私心	15910
▁卡特	15911
▁市内	15912
▁包袱	15913
▁白毛	15914
▁pap	15915
▁爽歪歪	15916
▁引援	15917
▁教科	15918
▁监测	15919
▁相位	15920
▁紧身	15921
▁藏獒	15922
▁选拔	15923
▁4.2	15924
▁luck	15925
▁偷吃	15926
▁嘴边	15927
▁小道	15928
▁医嘱	15929
▁受损	15930
▁白日	15931
▁预留	15932
▁千多	15933
▁提倡	15934
▁精髓	15935
▁饭碗	15936
▁乔治	15937
▁泳装	15938
▁萎缩	15939
▁lum	15940
▁曜	15941
▁pm	15942
▁同班	15943
▁法规	15944
▁海景	15945
忽热	15946
▁太急	15947
▁有余	15948
▁忽冷忽热	15949
▁对眼	15950
▁检讨	15951
▁白费	15952
▁ᄇ	15953
trl	15954
▁抽屉	15955
▁敢当	15956
▁谐音	15957
▁过量	15958
▁315	15959
▁uzi	15960
走肉	15961
▁冷冷	15962
▁同伙	15963
▁水土	15964
▁爱美	15965
▁白字	15966
▁肠子	15967
▁胃痛	15968
▁Win	15969
▁行尸走肉	15970
▁关卡	15971
▁前边	15972
▁横着	15973
▁活路	15974
▁长裙	15975
▁娄	15976
▁陨石	15977
▁属实	15978
▁止损	15979
▁毒舌	15980
OP	15981
▁冲洗	15982
▁拐弯	15983
▁沃尔玛	15984
▁卯	15985
▁七七	15986
▁包场	15987
▁封顶	15988
▁憔悴	15989
▁本意	15990
▁跑步机	15991
▁五毒	15992
▁新书	15993
▁芦苇	15994
▁乾坤	15995
▁向下	15996
▁小妞	15997
▁瞎话	15998
▁鸳鸯	15999
▁倒地	16000
▁兜里	16001
▁地暖	16002
▁大猫	16003
▁骡子	16004
▁魔神	16005
▁自知之明	16006
▁脸颊	16007
▁171	16008
而然	16009
▁lx	16010
▁冷面	16011
▁卧铺	16012
▁松动	16013
▁油烟	16014
▁she	16015
▁自然而然	16016
▁上镜	16017
▁交配	16018
▁凉凉	16019
▁地带	16020
▁流传	16021
▁润发	16022
alk	16023
▁允儿	16024
▁沧州	16025
▁蝙蝠侠	16026
-26	16027
▁前腰	16028
▁前行	16029
▁实地	16030
int	16031
▁大户	16032
▁费钱	16033
▁阿莫	16034
▁高烧	16035
ms	16036
▁靳	16037
▁杀青	16038
▁唠叨	16039
▁疑似	16040
▁天下无	16041
▁ep	16042
▁阿杜	16043
▁3600	16044
▁衔	16045
▁寄养	16046
▁底蕴	16047
▁渗透	16048
▁美感	16049
▁亚麻	16050
▁单个	16051
▁四海	16052
▁天国	16053
▁天意	16054
▁à	16055
▁呵护	16056
▁外围	16057
ady	16058
▁总攻	16059
▁蚊帐	16060
▁香奈儿	16061
▁下文	16062
▁恰当	16063
▁玄机	16064
▁心甘情愿	16065
▁大口	16066
▁气压	16067
▁螳螂	16068
atch	16069
年期	16070
▁土壤	16071
▁核实	16072
▁胎盘	16073
▁过山	16074
▁长裤	16075
▁更年期	16076
▁但凡	16077
▁花瓶	16078
▁妇幼	16079
▁扩张	16080
▁案子	16081
▁联手	16082
▁肥料	16083
▁顺路	16084
▁十二月	16085
▁胰	16086
▁3+	16087
▁最弱	16088
▁李敏	16089
▁条款	16090
▁签售	16091
▁蹄	16092
▁作曲	16093
▁太软	16094
▁软弱	16095
▁宽度	16096
▁算计	16097
▁血型	16098
▁潭	16099
方形	16100
▁权益	16101
▁蒸煮	16102
GB	16103
▁恬	16104
-09	16105
▁家暴	16106
▁救人	16107
▁法宝	16108
aker	16109
▁树叶	16110
▁菏泽	16111
▁间谍	16112
▁栖	16113
▁完胜	16114
▁张学友	16115
▁同济	16116
▁名著	16117
▁象棋	16118
▁透彻	16119
▁头孢	16120
▁打小	16121
▁突突	16122
▁黄毛	16123
▁2.8	16124
▁伴奏	16125
▁扣子	16126
▁闭合	16127
▁制作人	16128
▁呼叫	16129
▁底裤	16130
▁扁桃	16131
▁演艺	16132
▁劳务	16133
▁后援	16134
▁小将	16135
▁引用	16136
▁🐱	16137
▁厌倦	16138
▁小路	16139
▁惊醒	16140
▁滴血	16141
▁红白	16142
▁🔥	16143
▁根源	16144
▁躯	16145
▁凭证	16146
▁老手	16147
▁量产	16148
▁国有	16149
▁坦然	16150
▁天神	16151
▁好强	16152
▁昨日	16153
▁碱性	16154
▁被套	16155
▁铁粉	16156
▁阿德	16157
▁女警	16158
▁眼部	16159
▁转租	16160
▁储备	16161
▁支线	16162
▁淡化	16163
▁禁赛	16164
▁落落	16165
▁骗局	16166
07	16167
▁冉	16168
▁磁盘	16169
▁雅马哈	16170
▁华南	16171
▁帮派	16172
▁法官	16173
▁rom	16174
▁人海	16175
▁切磋	16176
▁合算	16177
▁铁皮	16178
▁教科书	16179
▁carry	16180
▁稚	16181
▁午休	16182
▁呆呆	16183
▁热恋	16184
▁各有所爱	16185
▁空闲	16186
▁进出	16187
ich	16188
▁七彩	16189
▁五折	16190
▁校花	16191
▁鱼儿	16192
▁初衷	16193
▁双十	16194
▁叫声	16195
▁自重	16196
▁逃离	16197
▁累积	16198
▁一气	16199
▁哼唧	16200
▁寺庙	16201
▁无常	16202
▁保镖	16203
▁小卖	16204
▁时段	16205
▁编导	16206
▁yo	16207
▁碧池	16208
▁167	16209
▁侥	16210
▁瓢	16211
▁巴基	16212
▁拉人	16213
▁餐馆	16214
▁冶	16215
▁陛	16216
-08	16217
▁袭击	16218
▁岳父	16219
dd	16220
▁AP	16221
▁XP	16222
▁孵化	16223
▁小五	16224
▁线程	16225
▁进食	16226
▁阅历	16227
97	16228
▁文库	16229
▁残废	16230
▁水乳	16231
▁盒装	16232
▁现役	16233
▁皱纹	16234
▁直升机	16235
无愧	16236
▁雨伞	16237
▁dan	16238
▁hia	16239
▁豚	16240
▁+2	16241
▁名号	16242
▁按下	16243
▁续集	16244
▁赛亚	16245
▁冷藏	16246
▁汉口	16247
▁获奖	16248
▁采集	16249
▁填报	16250
▁风湿	16251
▁残疾人	16252
▁拉布拉多	16253
▁港行	16254
▁相貌	16255
▁谈话	16256
▁铠甲	16257
▁酝	16258
▁夜行	16259
▁安琪	16260
▁新兵	16261
羊羊	16262
▁入魔	16263
▁热线	16264
▁省级	16265
▁成绩单	16266
▁厮	16267
▁奔波	16268
▁行者	16269
▁互补	16270
▁字眼	16271
▁漏电	16272
▁全年	16273
▁兰陵	16274
▁凄凉	16275
▁另类	16276
▁吞噬	16277
▁大群	16278
▁师徒	16279
▁短线	16280
▁2100	16281
▁裆	16282
▁下家	16283
▁两节	16284
▁填空	16285
▁安阳	16286
▁死皮	16287
▁比熊	16288
▁活塞	16289
▁烹饪	16290
▁酋长	16291
▁倒下	16292
▁在内	16293
▁赞赞	16294
▁🍺	16295
▁上等	16296
▁冥王	16297
▁喜闻	16298
▁帆布	16299
▁灿烈	16300
▁2020	16301
▁藻	16302
▁世事	16303
▁出席	16304
▁毛笔	16305
line	16306
提琴	16307
▁千古	16308
▁定型	16309
▁异形	16310
▁浙大	16311
▁苍穹	16312
▁转机	16313
▁韩庚	16314
乐见	16315
▁式神	16316
▁敬请	16317
▁私密	16318
▁综合症	16319
▁喜闻乐见	16320
▁think	16321
▁誉	16322
是好	16323
▁产妇	16324
▁加深	16325
▁原油	16326
▁躲避	16327
▁改签	16328
▁稿子	16329
▁如何是好	16330
不通	16331
▁传输	16332
▁梦境	16333
▁榜单	16334
▁票子	16335
▁阿胶	16336
▁勇者	16337
▁局势	16338
▁算数	16339
▁外在	16340
▁无痛	16341
▁迪拜	16342
▁郑秀	16343
▁濮	16344
▁一闪	16345
▁扑克	16346
▁来几	16347
▁肝脏	16348
▁太矮	16349
▁老牛	16350
▁王宝强	16351
▁务必	16352
▁卡拉	16353
▁psp	16354
▁两双	16355
▁冰冻	16356
▁天命	16357
▁热天	16358
▁防线	16359
▁40%	16360
▁DVD	16361
▁want	16362
▁kt	16363
▁不败	16364
▁梨花	16365
▁纯正	16366
▁hr	16367
▁到此	16368
▁大戏	16369
▁宝剑	16370
▁换货	16371
▁炉子	16372
▁膈	16373
▁咸菜	16374
▁哑铃	16375
▁图图	16376
▁摆渡	16377
▁梦游	16378
▁精度	16379
▁迟迟	16380
▁优美	16381
▁发家	16382
▁港台	16383
▁闪光灯	16384
色列	16385
▁助力	16386
▁台面	16387
▁外包	16388
▁就近	16389
▁希尔	16390
▁牛腩	16391
▁着眼	16392
▁练就	16393
▁以色列	16394
▁发愁	16395
▁日产	16396
▁che	16397
▁绫	16398
▁7.8	16399
to	16400
▁年假	16401
▁配送	16402
hq	16403
▁古诗	16404
▁大乱	16405
▁黄豆	16406
▁上层	16407
▁公车	16408
▁花瓣	16409
▁观光	16410
▁眩	16411
特林	16412
▁主卧	16413
▁夏普	16414
▁端正	16415
▁鬼片	16416
▁瀑	16417
▁ov	16418
▁大龙	16419
▁白子	16420
▁重返	16421
▁招式	16422
▁挂掉	16423
▁清仓	16424
▁辟谣	16425
▁人脸	16426
▁实木	16427
▁摸鱼	16428
▁缓冲	16429
▁鲜艳	16430
▁郜	16431
▁悬赏	16432
▁ace	16433
▁噎	16434
有余	16435
▁三阳	16436
▁唐人	16437
▁痛风	16438
▁臭味	16439
▁说笑	16440
▁透视	16441
▁紫外线	16442
▁口径	16443
▁开拍	16444
▁珠江	16445
▁至极	16446
▁通稿	16447
▁雨水	16448
▁佛祖	16449
▁侥幸	16450
▁母猪	16451
▁相近	16452
▁分支	16453
▁对此	16454
▁抚摸	16455
▁黑金	16456
▁蒙蔽	16457
▁解惑	16458
▁量子	16459
▁饰演	16460
▁1066	16461
▁2009	16462
▁艰苦	16463
▁锅炉	16464
▁门牙	16465
▁399	16466
▁嘻哈	16467
▁陈学	16468
▁小龙女	16469
▁lumia	16470
▁三毛	16471
▁死于	16472
▁海参	16473
▁玩命	16474
▁白花	16475
▁糜烂	16476
▁裸考	16477
▁奕	16478
tle	16479
▁射程	16480
▁爬墙	16481
▁积水	16482
▁联络	16483
▁谢霆	16484
▁退票	16485
▁3.8	16486
▁ò	16487
▁咸阳	16488
▁情调	16489
▁歇歇	16490
▁争吵	16491
▁卵巢	16492
▁夜叉	16493
▁电玩	16494
▁过错	16495
▁出镜	16496
▁挣得	16497
▁极光	16498
▁正文	16499
▁白糖	16500
▁药房	16501
▁微薄	16502
▁毛囊	16503
▁蜜蜡	16504
▁掉进	16505
▁鸭蛋	16506
▁莽	16507
不散	16508
▁估价	16509
▁考点	16510
▁两口子	16511
▁变压器	16512
▁狩	16513
▁强点	16514
▁拴	16515
公路	16516
▁网瘾	16517
▁遗产	16518
▁定论	16519
▁楼道	16520
▁王力	16521
▁黄牌	16522
▁高速公路	16523
▁丑女	16524
▁亏本	16525
▁高效	16526
▁艾灸	16527
▁cool	16528
着玩	16529
▁万州	16530
▁地名	16531
▁狂欢	16532
▁胜过	16533
▁闹闹	16534
▁闹着玩	16535
▁锌	16536
▁不孕	16537
▁受教	16538
▁喝奶	16539
▁堡垒	16540
▁死者	16541
▁看车	16542
▁破裂	16543
▁般配	16544
▁霸占	16545
▁骆驼	16546
▁黄花	16547
▁关键字	16548
▁纬	16549
▁寒冷	16550
▁新郎	16551
▁装傻	16552
▁8.1	16553
▁天明	16554
▁kd	16555
▁WIN	16556
▁孬	16557
来潮	16558
▁AT	16559
▁口臭	16560
▁松下	16561
▁顺风车	16562
▁心血来潮	16563
▁BL	16564
▁中西	16565
▁挖坑	16566
▁新作	16567
▁生出	16568
▁谢霆锋	16569
▁时而	16570
▁波特	16571
▁而又	16572
▁馅饼	16573
衣草	16574
▁出价	16575
▁总监	16576
▁贱贱	16577
▁瓦斯	16578
▁wy	16579
▁都卡	16580
▁钦定	16581
=2	16582
▁嚷嚷	16583
▁孕酮	16584
▁干面	16585
▁禁用	16586
▁笑声	16587
▁粉碎	16588
▁初学者	16589
▁ho	16590
▁对视	16591
▁布吉	16592
▁无良	16593
▁机芯	16594
▁多愁	16595
▁铁定	16596
▁图腾	16597
▁火炮	16598
▁酸性	16599
▁俾	16600
▁报案	16601
▁林子	16602
▁被叫	16603
▁老一辈	16604
no	16605
▁琥	16606
▁人道	16607
▁入选	16608
▁直辖	16609
▁浅浅	16610
▁开灯	16611
▁枪手	16612
▁虚无	16613
▁时隔	16614
▁腰酸	16615
▁衰弱	16616
▁鞋底	16617
▁118	16618
▁let	16619
晓彤	16620
▁CT	16621
▁秘诀	16622
▁试水	16623
▁ㄒ	16624
▁援助	16625
▁陛下	16626
▁370	16627
▁嫖娼	16628
▁指头	16629
▁砍价	16630
▁翻牌	16631
▁129	16632
▁iPad	16633
▁为此	16634
▁呈现	16635
▁来往	16636
▁汪峰	16637
▁清净	16638
▁乱跑	16639
▁扎实	16640
▁招收	16641
▁要饭	16642
▁跑偏	16643
▁酝酿	16644
▁181	16645
▁dvd	16646
▁殿下	16647
▁港口	16648
▁特质	16649
▁自费	16650
▁为证	16651
▁堵住	16652
▁接线	16653
▁摇摆	16654
▁爆满	16655
▁老兵	16656
▁韧带	16657
▁一语	16658
▁对照	16659
▁烘焙	16660
▁通车	16661
71	16662
750	16663
▁举起	16664
▁奶牛	16665
▁碎碎	16666
05	16667
▁伪娘	16668
▁趁机	16669
▁有仇	16670
▁裕	16671
▁ns	16672
▁天子	16673
▁打嗝	16674
▁文献	16675
▁一举	16676
▁打进	16677
▁拜师	16678
▁条子	16679
▁缺失	16680
▁抉	16681
▁停下	16682
▁出力	16683
▁牵强	16684
▁魔术师	16685
▁only	16686
委会	16687
▁靴子	16688
▁166	16689
▁cctv	16690
▁上司	16691
▁唱片	16692
▁bra	16693
▁加州	16694
▁条鱼	16695
▁死光	16696
▁特大	16697
▁血缘	16698
▁tc	16699
▁书本	16700
▁乱搞	16701
▁使得	16702
▁夸夸	16703
▁恐慌	16704
▁穿鞋	16705
▁萤火	16706
▁费力	16707
▁防备	16708
▁九寨沟	16709
以待	16710
少少	16711
▁了却	16712
▁低频	16713
▁占卜	16714
▁河西	16715
▁苦苦	16716
▁106	16717
▁掂	16718
▁油田	16719
▁评判	16720
▁多多少少	16721
▁苔	16722
▁完工	16723
▁胭	16724
▁富人	16725
▁试穿	16726
▁货物	16727
▁3.2	16728
▁矩	16729
you	16730
▁就中	16731
▁统招	16732
▁Or	16733
▁省得	16734
▁脱水	16735
▁\#.	16736
▁jk	16737
▁千百	16738
▁树脂	16739
▁还清	16740
▁9.3	16741
▁夜场	16742
▁尘埃	16743
▁病理	16744
▁0.7	16745
▁邂	16746
▁世家	16747
▁心仪	16748
▁歌单	16749
▁网咖	16750
▁昔	16751
▁AC	16752
▁万花	16753
▁排练	16754
▁皮炎	16755
▁阵型	16756
cn	16757
安特	16758
▁图鉴	16759
▁就此	16760
▁猫眼	16761
▁自律	16762
▁质地	16763
▁回首	16764
▁太行	16765
▁尿酸	16766
▁过早	16767
▁BI	16768
▁mar	16769
▁恁	16770
▁军装	16771
▁面向	16772
▁gps	16773
▁lin	16774
▁扁桃体	16775
不动	16776
▁-0	16777
▁大锅	16778
▁山海	16779
▁CAD	16780
ite	16781
▁学区	16782
▁畏	16783
▁舍弃	16784
▁鬼神	16785
不胜	16786
▁带劲	16787
▁时辰	16788
OO	16789
▁光临	16790
▁奇瑞	16791
▁拭	16792
▁沥	16793
▁呼唤	16794
▁宋朝	16795
▁拆线	16796
▁显眼	16797
▁0.6	16798
▁奥利奥	16799
▁捷安特	16800
94	16801
eep	16802
▁大病	16803
▁高职	16804
▁忏	16805
▁人声	16806
▁动感	16807
▁外屏	16808
▁上述	16809
▁唤醒	16810
▁扣篮	16811
▁摇头	16812
▁腿部	16813
▁荡漾	16814
▁WiFi	16815
UN	16816
bl	16817
▁笋	16818
▁菱	16819
▁不识	16820
▁宜宾	16821
▁民办	16822
生堂	16823
▁一色	16824
▁嫁妆	16825
▁新番	16826
▁沙特	16827
▁航海	16828
▁光泽	16829
▁向着	16830
▁初试	16831
▁妖孽	16832
▁小虎	16833
▁干干	16834
▁必杀	16835
▁打点	16836
▁激发	16837
▁蚌埠	16838
▁3-5	16839
▁假象	16840
▁凉爽	16841
▁毒品	16842
▁187	16843
▁茧	16844
单单	16845
▁大河	16846
▁文都	16847
▁绿城	16848
itty	16849
▁奥尼尔	16850
▁无损	16851
▁牵引	16852
▁zx	16853
▁士官	16854
▁妆容	16855
▁臆	16856
▁养鸡	16857
▁大路	16858
ye	16859
▁戊	16860
姑娘	16861
▁凉鞋	16862
▁抉择	16863
▁等同	16864
▁荆轲	16865
aut	16866
▁三部	16867
▁生动	16868
▁追加	16869
▁鞍山	16870
▁中学生	16871
▁城际	16872
▁小声	16873
▁自愈	16874
▁照相机	16875
净净	16876
▁dr	16877
▁冰棍	16878
▁意料	16879
▁星盘	16880
▁薰衣草	16881
▁easy	16882
▁干干净净	16883
56	16884
玩乐	16885
▁紧凑	16886
▁三部曲	16887
▁吃喝玩乐	16888
__	16889
ats	16890
▁四核	16891
▁万象	16892
▁初次	16893
▁原画	16894
▁庞大	16895
▁拆封	16896
▁隐约	16897
YS	16898
▁数控	16899
▁病友	16900
▁财大	16901
▁一族	16902
▁单刀	16903
▁水草	16904
▁灵性	16905
▁闪存	16906
▁itunes	16907
▁傀	16908
▁狍	16909
▁<*	16910
▁老死	16911
▁贵宾	16912
▁选用	16913
▁黄钻	16914
▁App	16915
▁萱	16916
ifa	16917
▁动机	16918
▁散光	16919
▁震荡	16920
▁领主	16921
ese	16922
▁七千	16923
▁有罪	16924
▁du	16925
▁高产	16926
▁RP	16927
▁装嫩	16928
▁中外	16929
▁地质	16930
▁天籁	16931
▁聊城	16932
▁430	16933
▁灰姑娘	16934
▁堂堂	16935
▁抱有	16936
▁走啦	16937
▁说不过去	16938
▁发黑	16939
▁商贸	16940
▁总理	16941
▁长歌	16942
▁鲁班	16943
▁光阴	16944
▁淮南	16945
▁用量	16946
▁赔率	16947
▁时速	16948
▁门窗	16949
尔多	16950
▁外伤	16951
▁文静	16952
▁现身	16953
▁转折	16954
▁coc	16955
▁蓝宝石	16956
马斯	16957
▁隐患	16958
▁god	16959
-27	16960
▁叮当	16961
▁奴才	16962
▁肠炎	16963
▁虹桥	16964
▁轰轰	16965
▁福克斯	16966
▁书写	16967
▁国土	16968
▁弹跳	16969
▁战机	16970
▁叽叽	16971
▁小肚	16972
▁打入	16973
▁窝囊	16974
▁迟钝	16975
▁饭量	16976
4560	16977
▁疱	16978
▁一截	16979
▁愤青	16980
▁机遇	16981
ins	16982
▁中招	16983
▁伊利	16984
▁先手	16985
▁双向	16986
▁取出	16987
▁成家	16988
▁招行	16989
▁壬	16990
▁开张	16991
▁打歌	16992
▁限于	16993
▁❄	16994
▁皿	16995
▁处分	16996
▁提早	16997
▁施主	16998
▁看淡	16999
▁青椒	17000
▁资生堂	17001
gel	17002
▁大势	17003
▁擎天	17004
▁杀掉	17005
ooo	17006
▁把头	17007
▁究极	17008
▁龙卷	17009
▁黄子韬	17010
▁IE	17011
▁命题	17012
▁氨基	17013
▁迈腾	17014
▁♡	17015
▁苞	17016
寡闻	17017
常规	17018
▁扶持	17019
▁硅脂	17020
▁质保	17021
▁贴切	17022
▁bill	17023
▁this	17024
▁rp	17025
▁举动	17026
▁孤陋	17027
▁新春	17028
▁炼金	17029
▁孤陋寡闻	17030
▁楷	17031
▁延伸	17032
▁无从	17033
▁真名	17034
▁罗汉	17035
▁铃木	17036
▁娟	17037
▁枭	17038
▁可取	17039
▁咽喉	17040
▁床垫	17041
▁硬座	17042
▁红肿	17043
▁匕	17044
▁画室	17045
▁转车	17046
▁陈学冬	17047
▁九宫	17048
▁滑动	17049
▁补救	17050
2000	17051
▁145	17052
▁99%	17053
▁😆	17054
▁场场	17055
▁炸裂	17056
▁纹路	17057
▁能动	17058
▁追过	17059
▁🏃	17060
▁大舅	17061
▁释义	17062
▁蜈	17063
里克	17064
▁小王	17065
my	17066
▁夷	17067
▁历年	17068
▁台灯	17069
▁波兰	17070
▁霾	17071
夹馍	17072
▁小笼	17073
▁捷豹	17074
▁李世	17075
▁水箱	17076
▁满载	17077
▁赛后	17078
▁肉夹馍	17079
▁英特尔	17080
▁咿	17081
▁久违	17082
▁免息	17083
▁师资	17084
▁开幕	17085
▁本色	17086
▁链条	17087
▁飞飞	17088
电图	17089
▁lw	17090
▁ub	17091
▁vc	17092
▁分割	17093
▁分清	17094
▁王力宏	17095
▁☁	17096
注定	17097
▁离去	17098
▁笼统	17099
▁钢丝	17100
▁布林	17101
▁が	17102
▁凰	17103
▁gn	17104
▁伤疤	17105
▁变频	17106
▁好书	17107
▁孔蒂	17108
▁毫安	17109
▁自找	17110
▁话剧	17111
▁闫	17112
▁买下	17113
▁健美	17114
▁初见	17115
▁华语	17116
▁裂缝	17117
▁逼真	17118
▁初吻	17119
▁在世	17120
▁抢手	17121
▁节制	17122
▁九阴	17123
▁光影	17124
▁穿透	17125
▁黄疸	17126
▁外部	17127
▁老胡	17128
▁gif	17129
▁つ	17130
▁涅	17131
▁世道	17132
▁匿名	17133
▁单调	17134
▁品位	17135
▁盆子	17136
▁稳妥	17137
▁被告	17138
▁镯子	17139
▁催收	17140
▁神州	17141
▁租车	17142
▁面孔	17143
▁临近	17144
▁古筝	17145
▁大佛	17146
▁胭脂	17147
▁辛酸	17148
▁阶层	17149
▁骨科	17150
isa	17151
▁底座	17152
▁毒死	17153
▁略有	17154
▁罚球	17155
▁耐力	17156
▁负重	17157
▁qv	17158
▁爱意	17159
▁绕道	17160
▁钱财	17161
▁偏方	17162
▁4-5	17163
次于	17164
▁存货	17165
▁长老	17166
▁仅次于	17167
board	17168
克尔	17169
得来	17170
▁热乎	17171
▁猫腻	17172
▁狂犬病	17173
▁肮	17174
▁假话	17175
▁女皇	17176
▁左脚	17177
▁湖州	17178
▁落差	17179
▁贬义	17180
▁放飞	17181
▁狡辩	17182
▁街舞	17183
▁补货	17184
▁怪人	17185
▁海信	17186
▁紫金	17187
▁ì	17188
▁朔	17189
▁中美	17190
▁仇人	17191
▁课表	17192
▁610	17193
▁原件	17194
▁油箱	17195
▁爆率	17196
▁百变	17197
▁美式	17198
▁前传	17199
▁南湖	17200
▁恶搞	17201
▁根部	17202
▁510	17203
▁さ	17204
▁宙	17205
▁力帆	17206
▁半边	17207
▁无影	17208
▁融资	17209
▁过客	17210
▁red	17211
▁く	17212
▁旦	17213
西林	17214
▁中肯	17215
▁区区	17216
▁有望	17217
▁锦州	17218
▁ce	17219
▁拓展	17220
▁浅色	17221
▁纯白	17222
▁蜜月	17223
▁坚守	17224
▁基德	17225
▁摊位	17226
▁zuk	17227
▁后年	17228
▁文言	17229
▁春哥	17230
▁米粥	17231
▁花卉	17232
▁随后	17233
▁雪人	17234
▁农民工	17235
▁冰凉	17236
▁友军	17237
▁埋怨	17238
▁超值	17239
▁预习	17240
▁SS	17241
▁千克	17242
▁斗破	17243
▁heal	17244
▁_>	17245
▁心水	17246
▁把玩	17247
▁解剖	17248
▁许昌	17249
▁180+	17250
▁溅	17251
▁侏儒	17252
▁卓越	17253
▁轮廓	17254
▁遭到	17255
▁5.6	17256
善感	17257
▁乌镇	17258
▁卡贴	17259
▁喷水	17260
▁荷尔	17261
▁超能	17262
▁车头	17263
bili	17264
▁同龄人	17265
▁讹	17266
▁养鱼	17267
▁前夫	17268
▁后置	17269
▁谈判	17270
+5	17271
▁匡	17272
▁炮弹	17273
▁追问	17274
▁now	17275
达斯	17276
▁草地	17277
▁蛀牙	17278
▁这般	17279
▁sir	17280
▁き	17281
▁琐	17282
▁三八	17283
▁京都	17284
▁养肥	17285
▁岳阳	17286
▁渺茫	17287
▁胃镜	17288
▁隐蔽	17289
▁不能自	17290
▁男子汉	17291
IC	17292
▁迎合	17293
▁韩寒	17294
▁三色	17295
▁同病	17296
▁售楼	17297
▁娃子	17298
▁忏悔	17299
▁滴水	17300
▁LO	17301
▁效力	17302
▁重开	17303
▁地平线	17304
▁书吧	17305
▁作怪	17306
▁尚未	17307
▁换回	17308
▁169	17309
VA	17310
▁卡车	17311
▁原形	17312
▁文风	17313
▁看门	17314
▁算啦	17315
▁逆风	17316
维奇	17317
▁乱世	17318
▁天香	17319
▁平局	17320
▁泻	17321
.16	17322
▁月末	17323
▁邂逅	17324
▁psv	17325
▁出出	17326
▁剩女	17327
▁捡漏	17328
▁代工	17329
▁千米	17330
▁战列	17331
▁纸条	17332
▁excel	17333
cg	17334
自语	17335
▁傻逼	17336
▁天山	17337
▁早孕	17338
▁行列	17339
▁逐步	17340
▁高炮	17341
▁小美	17342
▁征兆	17343
▁肮脏	17344
▁连连	17345
▁飞船	17346
ower	17347
▁..[	17348
▁代理商	17349
▁็	17350
▁东哥	17351
▁披着	17352
▁放空	17353
▁株洲	17354
▁偷走	17355
▁换车	17356
▁火热	17357
▁盘点	17358
▁站位	17359
▁结巴	17360
▁背部	17361
▁sony	17362
ax	17363
▁wx	17364
▁一同	17365
▁跑动	17366
忍者	17367
▁二婚	17368
▁分校	17369
▁外教	17370
▁胸前	17371
▁四五十	17372
▁火影忍者	17373
▁蔚	17374
▁蜻	17375
▁八大	17376
▁平价	17377
▁猜想	17378
▁脑门	17379
▁词典	17380
▁课文	17381
▁chan	17382
▁憧	17383
120	17384
▁哇噻	17385
▁选课	17386
▁诠	17387
▁印尼	17388
▁热评	17389
▁高薪	17390
▁终结者	17391
▁拢	17392
▁德阳	17393
▁流出	17394
▁荒废	17395
▁抡	17396
▁三三	17397
▁俏脸	17398
▁出台	17399
▁应急	17400
▁建材	17401
▁打赌	17402
▁多愁善感	17403
▁毯	17404
▁圆润	17405
▁牛油	17406
▁略微	17407
ino	17408
▁BG	17409
▁台独	17410
▁好意	17411
▁早年	17412
▁512	17413
▁仆	17414
▁光谷	17415
▁建好	17416
▁᷄	17417
▁谈论	17418
▁道教	17419
▁fan	17420
后感	17421
▁自尊心	17422
▁乖巧	17423
▁有道	17424
▁祛斑	17425
▁转战	17426
▁香烟	17427
▁血常规	17428
▁圭	17429
▁禹	17430
▁黔	17431
▁jy	17432
▁佩佩	17433
▁术士	17434
▁贴身	17435
▁踏踏	17436
▁飞来	17437
回事	17438
▁平头	17439
▁往南	17440
▁统考	17441
▁两回事	17442
▁命中注定	17443
▁china	17444
▁SD	17445
▁整数	17446
▁美发	17447
▁通告	17448
▁抗病毒	17449
▁氟	17450
▁相聚	17451
▁花色	17452
▁pt	17453
▁仲裁	17454
▁布拉	17455
▁麦片	17456
德尔	17457
▁李健	17458
▁直流	17459
▁草药	17460
▁妒	17461
▁QW	17462
▁可想	17463
▁延误	17464
▁强吻	17465
▁拉丁	17466
▁prpr	17467
▁可想而知	17468
▁竣	17469
▁九龙	17470
▁和美	17471
▁天数	17472
▁青花	17473
▁护卫	17474
▁松江	17475
▁自言	17476
▁转动	17477
▁退步	17478
▁金马	17479
-200	17480
普森	17481
▁ea	17482
▁智者	17483
▁龙族	17484
▁+10086	17485
媚娘	17486
▁提拉	17487
▁560	17488
▁俄语	17489
▁挥手	17490
▁腰部	17491
▁奎	17492
▁公鸡	17493
▁厚重	17494
▁客家	17495
▁快跑	17496
▁针织	17497
▁食谱	17498
▁nike	17499
▁照照	17500
▁生效	17501
▁蛋挞	17502
▁杀伤力	17503
▁川大	17504
▁惊现	17505
▁水饺	17506
▁涂料	17507
▁琥珀	17508
▁还珠	17509
▁点燃	17510
▁阿米	17511
路口	17512
▁增多	17513
▁拉票	17514
▁精炼	17515
▁口头禅	17516
▁武媚娘	17517
▁十字路口	17518
▁久远	17519
▁位移	17520
▁合拍	17521
▁女鬼	17522
▁斗罗	17523
▁来袭	17524
▁阻力	17525
▁天价	17526
▁打乱	17527
▁砸死	17528
▁iOS	17529
▁tag	17530
▁霖	17531
▁TB	17532
▁nv	17533
▁下属	17534
▁就医	17535
▁开打	17536
▁正如	17537
▁每家	17538
▁罩杯	17539
▁龙泉	17540
▁卡卡西	17541
▁少于	17542
▁游民	17543
▁灌水	17544
▁窝火	17545
▁红线	17546
▁退化	17547
▁饮用	17548
▁高深	17549
▁阿莫西林	17550
▁摧毁	17551
▁朵朵	17552
▁魔道	17553
▁gre	17554
▁oppor	17555
▁三菱	17556
▁惊心	17557
▁沙县	17558
▁活活	17559
▁漳州	17560
▁走火	17561
▁风度	17562
▁===	17563
▁低谷	17564
▁全景	17565
▁发文	17566
▁大乔	17567
▁抓拍	17568
▁神乐	17569
▁红军	17570
尔克	17571
▁买断	17572
▁哑巴	17573
▁明珠	17574
▁pia	17575
▁使者	17576
▁山庄	17577
ouse	17578
▁life	17579
竹马	17580
▁日军	17581
▁王府	17582
▁简简	17583
▁菜菜	17584
▁简简单单	17585
▁こ	17586
▁り	17587
▁保管	17588
▁如愿	17589
▁雅典	17590
▁早些	17591
▁瓜皮	17592
▁自闭	17593
▁褪色	17594
▁部署	17595
▁friend	17596
▁前卫	17597
▁斯文	17598
▁被害	17599
▁青梅竹马	17600
CM	17601
▁璇	17602
▁碉	17603
▁回购	17604
▁涂鸦	17605
▁筛选	17606
▁花店	17607
▁touch	17608
▁新秀	17609
▁更远	17610
▁订购	17611
▁进击	17612
▁雷电	17613
▁阮	17614
▁外企	17615
▁狭隘	17616
▁面包车	17617
AL	17618
▁依次	17619
▁只顾	17620
▁定向	17621
▁小康	17622
▁不灵	17623
▁为师	17624
▁争夺	17625
▁兴隆	17626
▁军官	17627
▁护手	17628
▁花木	17629
▁保证金	17630
▁再送	17631
▁天宫	17632
▁路灯	17633
▁圣地	17634
▁奇特	17635
▁无私	17636
▁薏米	17637
AM	17638
PC	17639
▁绽	17640
▁xt	17641
▁吊牌	17642
▁猴哥	17643
▁肠胃炎	17644
▁下饭	17645
▁焦作	17646
▁阵亡	17647
▁前去	17648
▁喝汤	17649
▁对阵	17650
▁憧憬	17651
▁敞开	17652
▁连发	17653
▁free	17654
▁᷅	17655
▁厦大	17656
▁地毯	17657
▁弯曲	17658
▁效益	17659
▁猖狂	17660
▁蔡依	17661
▁鬼王	17662
▁车况	17663
▁附件	17664
▁aoe	17665
▁不知所措	17666
+4	17667
并论	17668
▁相提	17669
▁超车	17670
▁相提并论	17671
世界	17672
▁卖身	17673
▁川菜	17674
▁滨江	17675
▁铁道	17676
▁队形	17677
▁鱼肉	17678
host	17679
▁=.	17680
▁凭借	17681
▁叶酸	17682
▁掌门	17683
▁袍	17684
▁境内	17685
▁天安	17686
▁撤退	17687
▁日落	17688
▁更长	17689
▁破财	17690
▁租借	17691
▁老远	17692
▁苛刻	17693
▁低温	17694
▁内伤	17695
▁根号	17696
▁玩弄	17697
▁追随	17698
▁高位	17699
▁0.4	17700
▁洙	17701
▁博美	17702
▁兵种	17703
▁标识	17704
▁静电	17705
▁劳动力	17706
ble	17707
▁极少	17708
▁通透	17709
▁零钱	17710
▁剑士	17711
▁诠释	17712
IM	17713
▁攻受	17714
▁花草	17715
▁订阅	17716
▁铁板	17717
CD	17718
▁狂热	17719
▁签订	17720
▁超长	17721
▁遭罪	17722
▁青天	17723
▁珉	17724
▁🐒	17725
▁内膜	17726
▁周迅	17727
▁指令	17728
▁猫头	17729
▁网管	17730
▁边牧	17731
▁$	17732
▁做小	17733
▁傀儡	17734
▁悉尼	17735
▁毛发	17736
▁气象	17737
▁突变	17738
duang	17739
▁fifa	17740
▁sing	17741
▁自言自语	17742
▁假日	17743
▁水泵	17744
▁海王	17745
▁用料	17746
▁破案	17747
▁范畴	17748
▁赌场	17749
▁古老	17750
▁小雪	17751
▁救援	17752
▁法兰	17753
▁祖传	17754
▁60%	17755
▁XDDD	17756
▁down	17757
莱雅	17758
▁俄国	17759
▁碰撞	17760
▁长白山	17761
▁三连	17762
▁返还	17763
▁配饰	17764
▁荷尔蒙	17765
52	17766
▁压死	17767
▁队内	17768
▁露天	17769
▁魄力	17770
▁仙人掌	17771
▁running	17772
▁昼	17773
▁三维	17774
▁二流	17775
▁磕碰	17776
▁精细	17777
▁yeah	17778
EX	17779
▁毙	17780
▁国度	17781
▁讲述	17782
▁3.6	17783
▁太祖	17784
▁帝豪	17785
▁无间	17786
▁瀑布	17787
▁钻戒	17788
▁乌克兰	17789
xt	17790
▁孜	17791
多情	17792
.17	17793
▁性福	17794
▁掐架	17795
▁cod	17796
▁mdzz	17797
▁爱狗	17798
▁祈福	17799
▁运转	17800
92	17801
▁内侧	17802
▁圆形	17803
▁携手	17804
▁vivox	17805
▁一餐	17806
▁太清	17807
▁见笑	17808
▁逝去	17809
▁配乐	17810
vel	17811
▁ka	17812
▁休眠	17813
▁烈士	17814
▁排版	17815
▁节气	17816
▁雅诗	17817
▁兼容性	17818
▁̴	17819
▁来气	17820
▁泥土	17821
▁省外	17822
▁蚊香	17823
▁试问	17824
▁PV	17825
▁婶婶	17826
▁小球	17827
▁玄武	17828
▁离校	17829
▁苍天	17830
▁金士顿	17831
▁霆	17832
▁主导	17833
▁主张	17834
▁南美	17835
▁外行	17836
▁损耗	17837
▁韩红	17838
▁仅有	17839
▁再试	17840
▁南开	17841
▁惯例	17842
▁矿物	17843
▁转盘	17844
▁透析	17845
▁主教	17846
▁压线	17847
▁邓肯	17848
▁陪同	17849
▁雇佣	17850
▁15000	17851
▁家宝	17852
▁弱者	17853
▁私奔	17854
▁风口	17855
心如	17856
▁拼搏	17857
▁排序	17858
▁预警	17859
▁张大	17860
▁解码	17861
650	17862
▁政审	17863
▁清零	17864
▁顾及	17865
年华	17866
▁奥拉	17867
▁审查	17868
▁斩杀	17869
▁绿皮	17870
▁倒退	17871
▁再喝	17872
▁新图	17873
▁水滴	17874
▁落实	17875
▁赛前	17876
▁身板	17877
▁290	17878
jo	17879
▁假球	17880
▁团团	17881
▁坚挺	17882
▁肉眼	17883
▁龙凤	17884
▁*^_	17885
▁king	17886
▁嗡	17887
▁钝	17888
▁不甘	17889
▁外线	17890
▁强人	17891
▁悬崖	17892
▁清白	17893
▁贵妃	17894
▁蔡依林	17895
▁兴致	17896
▁封锁	17897
▁红叶	17898
▁终有	17899
▁鱼雷	17900
▁*^__^*	17901
.13	17902
▁修为	17903
▁彩排	17904
▁拖累	17905
▁支点	17906
▁湿润	17907
▁直观	17908
▁缕	17909
ous	17910
▁丽丽	17911
▁就木	17912
-40	17913
450	17914
▁人寿	17915
▁加满	17916
▁醉酒	17917
▁qvq	17918
ET	17919
▁ki	17920
▁切克	17921
▁情结	17922
▁贫穷	17923
▁驿	17924
▁ck	17925
▁分得	17926
▁every	17927
▁xy	17928
▁开刀	17929
▁必需	17930
▁扶贫	17931
▁抠门	17932
▁\\\\	17933
zen	17934
▁六万	17935
▁至上	17936
▁过长	17937
▁高架	17938
▁冷风	17939
▁双龙	17940
▁改良	17941
▁每秒	17942
▁申报	17943
▁红星	17944
▁亦凡	17945
▁传单	17946
▁天仙	17947
▁炸死	17948
▁脚底	17949
▁高傲	17950
▁敌方	17951
▁萨摩耶	17952
▁疣	17953
▁暴晒	17954
▁红衣	17955
▁美满	17956
▁要见	17957
▁受理	17958
▁欠钱	17959
▁死角	17960
▁沿着	17961
:2	17962
▁偏心	17963
▁抖动	17964
▁红龙	17965
▁钩子	17966
▁鲁尼	17967
▁张无忌	17968
▁拆掉	17969
▁棉被	17970
▁男儿	17971
▁而死	17972
▁虑	17973
▁修饰	17974
▁君主	17975
▁眩晕	17976
▁呼吸道	17977
利浦	17978
▁即时	17979
▁孝敬	17980
▁总站	17981
▁水笔	17982
▁滨海	17983
▁防腐	17984
▁自作多情	17985
▁丑陋	17986
▁周到	17987
▁四驱	17988
▁城墙	17989
▁天水	17990
▁左眼	17991
▁疱疹	17992
▁112	17993
▁how	17994
▁崖	17995
▁cu	17996
▁东山	17997
▁同盟	17998
▁抓人	17999
▁南航	18000
▁大牛	18001
▁处境	18002
▁大局	18003
▁寂静	18004
▁欧布	18005
▁猜中	18006
▁痴呆	18007
▁放荡	18008
▁文物	18009
▁止咳	18010
▁略略	18011
▁过剩	18012
▁面食	18013
▁rpg	18014
▁重庆人	18015
▁泊	18016
▁再版	18017
▁成活	18018
▁条条	18019
▁483	18020
▁张家口	18021
▁屁话	18022
▁挨揍	18023
▁眼界	18024
▁稻草	18025
▁鞋都	18026
▁key	18027
▁泣	18028
合物	18029
▁体操	18030
▁新村	18031
▁蕴	18032
▁塘沽	18033
▁手刹	18034
▁月中	18035
▁红毯	18036
▁跳蚤	18037
▁麻油	18038
▁敌对	18039
▁晚婚	18040
▁咽炎	18041
▁示范	18042
▁西餐	18043
▁请到	18044
▁二十万	18045
▁Lz	18046
▁上联	18047
▁咕咕	18048
▁门卫	18049
▁sur	18050
▁el	18051
▁东营	18052
▁五人	18053
▁女侠	18054
▁溶解	18055
▁熄灯	18056
▁边伯	18057
▁枢	18058
不理	18059
▁gm	18060
▁念叨	18061
▁活性	18062
▁警方	18063
▁输得	18064
▁488	18065
▁野马	18066
▁鼓楼	18067
▁莺	18068
▁刻画	18069
▁每张	18070
▁平庸	18071
▁借贷	18072
▁礼盒	18073
▁紫棋	18074
▁讲到	18075
▁锻造	18076
▁飞利浦	18077
▁拨号	18078
▁缺货	18079
▁败类	18080
▁雅漾	18081
▁伤亡	18082
▁极高	18083
▁蜈蚣	18084
▁守门员	18085
▁酶	18086
▁两队	18087
▁后脑	18088
▁正视	18089
▁赛程	18090
dm	18091
▁小额	18092
▁总量	18093
▁投机	18094
▁证人	18095
▁送花	18096
▁HTC	18097
▁崎	18098
▁凹凸	18099
▁性病	18100
▁教徒	18101
▁理综	18102
▁单亲	18103
▁阿特	18104
不得已	18105
▁wb	18106
▁三文	18107
▁中部	18108
▁少儿	18109
▁结痂	18110
▁背光	18111
▁pu	18112
▁三峡	18113
▁只认	18114
▁验货	18115
▁thank	18116
TF	18117
&\#	18118
▁卷毛	18119
▁回馈	18120
▁奖杯	18121
▁蜻蜓	18122
无忌惮	18123
▁痛哭	18124
▁避孕套	18125
▁肆无忌惮	18126
▁利索	18127
▁正剧	18128
▁犹如	18129
▁筹码	18130
▁谓	18131
▁iu	18132
▁老吴	18133
▁164	18134
▁880	18135
▁劲爆	18136
▁双清	18137
▁受众	18138
▁大牙	18139
▁泰州	18140
▁生根	18141
▁耳边	18142
▁并无	18143
▁混淆	18144
▁舒坦	18145
▁窟	18146
▁兰芝	18147
▁减半	18148
▁心计	18149
▁快车	18150
▁拥挤	18151
▁食量	18152
▁高峰期	18153
▁押韵	18154
▁走动	18155
▁土匪	18156
▁甩卖	18157
▁艳遇	18158
▁闪亮	18159
▁any	18160
▁雅诗兰	18161
▁小菜	18162
▁播种	18163
▁无色	18164
▁流感	18165
▁管管	18166
▁补发	18167
▁鱼头	18168
▁103	18169
▁后备箱	18170
▁络	18171
▁凄惨	18172
▁凯撒	18173
▁降落	18174
▁4.4	18175
▁升华	18176
▁可选	18177
▁套件	18178
▁老母	18179
▁郑智	18180
▁金龙	18181
▁1:1	18182
▁专场	18183
▁共振	18184
▁暗夜	18185
▁灭火	18186
▁烈焰	18187
▁#	18188
ple	18189
▁后退	18190
▁拿掉	18191
▁放养	18192
▁裤裆	18193
▁master	18194
▁黑马	18195
▁大旗	18196
▁惯性	18197
▁摔死	18198
▁游乐	18199
▁福尔	18200
▁存放	18201
▁濮阳	18202
▁加长	18203
▁夏洛特	18204
▁一室	18205
▁偏低	18206
▁和服	18207
▁奇异	18208
▁干巴	18209
▁数数	18210
▁翻天	18211
▁鼓起	18212
▁蛛	18213
▁龌	18214
▁别处	18215
▁国货	18216
▁尼禄	18217
▁玉林	18218
▁诗歌	18219
▁雅诗兰黛	18220
现眼	18221
▁亲口	18222
▁得奖	18223
▁碰碰	18224
▁丢人现眼	18225
▁亥	18226
▁璃	18227
▁同级	18228
▁喜庆	18229
▁职场	18230
▁要塞	18231
▁过路	18232
▁间隙	18233
▁LED	18234
▁匣	18235
▁北部	18236
▁抵挡	18237
▁超重	18238
▁ā	18239
▁🐑	18240
888	18241
▁强强	18242
▁文员	18243
▁火柴	18244
▁撤销	18245
▁膏药	18246
▁车次	18247
▁重回	18248
▁泗	18249
得住	18250
气管	18251
▁后裔	18252
▁唉唉	18253
▁墙面	18254
▁安宁	18255
▁无害	18256
▁支气管	18257
▁氵	18258
不湿	18259
▁公示	18260
▁已知	18261
▁您老	18262
▁真伪	18263
▁金花	18264
▁|||	18265
▁下不来	18266
▁尿不湿	18267
▁九九	18268
▁小李	18269
▁置换	18270
▁飘逸	18271
▁内疚	18272
▁夸大	18273
▁泡茶	18274
▁舟山	18275
▁156	18276
-29	18277
▁天文	18278
▁急救	18279
▁↗	18280
▁あ	18281
ico	18282
▁tn	18283
▁光学	18284
▁家装	18285
▁独占	18286
▁逆行	18287
▁重重	18288
▁4399	18289
▁妮可	18290
▁公元	18291
▁pptv	18292
age	18293
▁满族	18294
▁知情	18295
▁醒悟	18296
▁银币	18297
▁围攻	18298
▁小智	18299
▁私企	18300
▁😅	18301
▁新意	18302
▁138	18303
代谢	18304
▁ob	18305
▁乏力	18306
▁打拼	18307
▁0.9	18308
仁杰	18309
▁集邮	18310
▁马自	18311
尼玛	18312
▁vv	18313
▁主频	18314
▁傻笑	18315
▁出动	18316
▁碍事	18317
▁管制	18318
▁李小龙	18319
▁HD	18320
▁早死	18321
▁晶体	18322
▁有福	18323
▁药学	18324
▁门子	18325
▁DIY	18326
▁马自达	18327
93	18328
▁小巧	18329
▁摩天	18330
▁片面	18331
▁碉堡	18332
▁蠢蠢	18333
▁000	18334
▁QWQ	18335
qu	18336
we	18337
.22	18338
▁BE	18339
▁卡巴	18340
▁右眼	18341
▁拉手	18342
▁控制器	18343
▁下跪	18344
▁处事	18345
▁奔三	18346
▁美梦	18347
▁夜夜	18348
▁子孙	18349
▁容器	18350
▁弗利	18351
▁新都	18352
▁更衣	18353
▁机房	18354
▁梁山	18355
▁答对	18356
▁嫌疑人	18357
▁撵	18358
▁三金	18359
▁哈佛	18360
▁改行	18361
▁新陈	18362
▁适中	18363
▁食指	18364
▁新陈代谢	18365
▁刻刻	18366
▁学士	18367
▁归根	18368
▁碗面	18369
▁纯色	18370
▁荷包	18371
▁txt	18372
▁杜鹃	18373
▁联邦	18374
▁肢体	18375
FC	18376
▁无畏	18377
▁电缆	18378
▁野战	18379
▁陈述	18380
▁~\\\\	18381
/8	18382
▁玛瑙	18383
▁车灯	18384
▁顺口	18385
▁三四十	18386
▁孤立	18387
▁杨幂	18388
▁突兀	18389
▁107	18390
▁mom	18391
▁李敏镐	18392
▁天下无敌	18393
▁搏击	18394
▁校外	18395
▁纪委	18396
▁对不住	18397
▁麦克风	18398
▁💃	18399
▁失控	18400
▁拒收	18401
▁构造	18402
▁罗宾	18403
▁胎动	18404
▁卖肉	18405
▁预示	18406
布斯	18407
▁固然	18408
▁攒够	18409
▁螺蛳	18410
▁超声	18411
▁颗牙	18412
▁ิ	18413
▁✊	18414
▁蜥	18415
张胆	18416
▁同日	18417
▁心悦	18418
▁早被	18419
▁架构	18420
▁桂圆	18421
▁消遣	18422
▁直发	18423
▁看守	18424
▁轮滑	18425
▁明目张胆	18426
▁yi	18427
▁借助	18428
▁叫好	18429
▁饮酒	18430
▁HK	18431
▁刘涛	18432
▁民事	18433
▁洗浴	18434
▁疗法	18435
▁自大	18436
▁郭德	18437
▁159	18438
▁780	18439
▁出众	18440
▁收录	18441
▁灰灰	18442
▁车友	18443
▁转头	18444
▁卡西欧	18445
▁12306	18446
▁利器	18447
▁双头	18448
▁诗诗	18449
▁换片	18450
▁跨越	18451
▁近年	18452
▁青青	18453
▁不见	18454
▁巡逻	18455
▁常人	18456
▁校门	18457
▁潜质	18458
▁耐烦	18459
▁触动	18460
▁认领	18461
▁调味	18462
▁车轮	18463
▁重金	18464
了之	18465
▁交费	18466
▁受宠	18467
▁吃草	18468
▁小圆	18469
▁火葬	18470
▁阴性	18471
▁颗星	18472
▁不朽	18473
▁摆放	18474
▁河东	18475
▁漏气	18476
▁禁欲	18477
▁表态	18478
▁起手	18479
▁鸡爪	18480
乐祸	18481
▁幸灾	18482
▁才艺	18483
▁瞎眼	18484
▁迪奥	18485
▁邢台	18486
▁预料	18487
▁一二三	18488
▁幸灾乐祸	18489
▁偏执	18490
▁公证	18491
▁双层	18492
▁も	18493
▁咱也	18494
▁更深	18495
▁神似	18496
▁长线	18497
▁槐	18498
松松	18499
▁古龙	18500
▁外景	18501
▁忌讳	18502
▁月神	18503
▁灵犀	18504
▁雪梨	18505
▁惶	18506
▁茹	18507
▁塞子	18508
▁散件	18509
▁斯巴	18510
▁空运	18511
▁指挥官	18512
▁尔康	18513
▁某天	18514
▁烟酒	18515
▁眼红	18516
▁一念	18517
▁关怀	18518
▁半球	18519
▁换药	18520
▁白莲	18521
▁飞去	18522
ni	18523
▁ó	18524
▁可做	18525
▁照明	18526
▁球赛	18527
▁鉴于	18528
▁飞龙	18529
▁鱼腩	18530
▁三文鱼	18531
▁代号	18532
▁传达	18533
▁口香	18534
▁常德	18535
▁磨磨	18536
▁也怪	18537
▁周冬	18538
▁水利	18539
▁芈	18540
▁打炮	18541
▁极点	18542
▁狄仁杰	18543
▁dp	18544
▁台子	18545
▁插画	18546
▁水星	18547
▁清秀	18548
▁简易	18549
▁英寸	18550
▁超模	18551
▁辱骂	18552
▁轻轻松松	18553
▁昙	18554
▁茎	18555
▁jr	18556
▁买辆	18557
▁制片	18558
▁回车	18559
▁来日	18560
▁病态	18561
▁督促	18562
▁雀斑	18563
▁欧莱雅	18564
▁就读	18565
▁斗志	18566
▁翻出	18567
▁返利	18568
▁霸主	18569
▁wan	18570
▁五十多	18571
达拉	18572
ise	18573
▁匕首	18574
▁↖	18575
▁荨	18576
233	18577
▁多彩	18578
▁女郎	18579
▁西亚	18580
▁避暑	18581
▁再入	18582
▁心智	18583
▁错事	18584
720	18585
▁兰蔻	18586
▁发麻	18587
▁宫外	18588
▁平稳	18589
▁水吧	18590
▁水花	18591
▁灵气	18592
▁片儿	18593
▁结账	18594
▁飞过	18595
▁魔幻	18596
一意	18597
▁wp	18598
▁zi	18599
▁王祖	18600
▁糖醋	18601
▁羊奶	18602
▁遥遥无期	18603
▁佰	18604
▁吃光	18605
▁哈弗	18606
▁追逐	18607
▁周冬雨	18608
▁好色	18609
▁画家	18610
▁相中	18611
▁笛子	18612
▁纪律	18613
▁首轮	18614
▁七八十	18615
▁嫡	18616
▁下蛋	18617
▁外网	18618
▁妮妮	18619
▁海淀	18620
▁豆沙	18621
▁负荷	18622
▁三思	18623
▁卡塔	18624
▁戒酒	18625
▁交税	18626
▁动员	18627
▁南非	18628
▁察觉	18629
▁海马	18630
▁面签	18631
:3	18632
尿裤	18633
▁奇奇	18634
▁泥鳅	18635
▁火鸡	18636
▁纸尿裤	18637
▁禄	18638
▁述	18639
▁低俗	18640
▁吊带	18641
▁学者	18642
▁白纸	18643
▁细看	18644
▁结界	18645
▁bang	18646
▁南极	18647
▁司考	18648
▁胶片	18649
▁踏踏实实	18650
▁悍	18651
▁吴磊	18652
▁留念	18653
▁预祝	18654
▁科斯塔	18655
▁😎	18656
▁以身	18657
▁呼市	18658
▁王小	18659
▁精锐	18660
▁二氧化碳	18661
▁billboard	18662
▁一龙	18663
▁克洛	18664
▁无证	18665
▁法庭	18666
▁寅	18667
▁谍	18668
▁事成	18669
▁咔嚓	18670
▁cou	18671
▁心电图	18672
▁叛徒	18673
▁可贵	18674
▁太婆	18675
▁问答	18676
de	18677
▁毋	18678
▁一丁	18679
▁入党	18680
▁摩纳	18681
▁斗鸡	18682
▁渊博	18683
▁皮下	18684
▁莱万	18685
▁上座	18686
▁入场	18687
▁拍手	18688
▁渐变	18689
▁dt	18690
▁展览	18691
▁赶到	18692
▁较为	18693
▁ec	18694
▁uu	18695
▁勃起	18696
▁打碎	18697
▁白脸	18698
▁薇薇	18699
▁青涩	18700
▁寮	18701
▁方木	18702
▁自强	18703
▁金针	18704
▁龙套	18705
如画	18706
▁加倍	18707
▁板栗	18708
▁盛开	18709
▁保真	18710
▁国税	18711
▁é	18712
▁修成	18713
▁异能	18714
▁怠速	18715
▁溢出	18716
▁舒心	18717
▁装死	18718
▁费心	18719
▁摩纳哥	18720
▁殴	18721
▁筑	18722
▁公历	18723
▁取款	18724
▁法医	18725
▁纱布	18726
▁821	18727
▁store	18728
51	18729
▁冷落	18730
▁这等	18731
▁马可	18732
*2	18733
53	18734
▁前程	18735
▁动脉	18736
▁挽救	18737
▁望远	18738
▁武当	18739
▁金泰	18740
▁340	18741
一看	18742
▁侠客	18743
▁反胃	18744
▁直通	18745
▁银杏	18746
▁天长地	18747
OU	18748
▁◎	18749
▁小我	18750
▁推开	18751
▁景观	18752
▁视镜	18753
▁造孽	18754
▁乍一看	18755
▁9191	18756
▁天长地久	18757
▁faker	18758
▁涉嫌	18759
▁群发	18760
▁追踪	18761
▁黑板	18762
▁升职	18763
▁坦诚	18764
▁奥体	18765
▁搞出	18766
▁断绝	18767
▁点卷	18768
▁物资	18769
▁生来	18770
▁穆里	18771
▁倭	18772
▁吠	18773
ile	18774
▁才走	18775
▁bad	18776
▁3300	18777
▁を	18778
▁冷血	18779
▁变心	18780
▁对打	18781
▁带球	18782
▁杀生	18783
▁这支	18784
otos	18785
▁192	18786
▁凯尔特	18787
▁海滩	18788
▁附中	18789
▁计算器	18790
▁fighting	18791
▁dk	18792
▁壮士	18793
▁岳飞	18794
▁血色	18795
▁铃铛	18796
▁VPN	18797
切斯	18798
▁交房	18799
▁叫唤	18800
▁盖住	18801
▁腐烂	18802
▁499	18803
▁啄	18804
▁下款	18805
▁悠着	18806
▁杜绝	18807
▁绿卡	18808
▁TX	18809
▁之流	18810
▁包月	18811
▁原有	18812
▁坐垫	18813
▁孙俪	18814
▁昆虫	18815
▁车展	18816
▁过半	18817
▁▔	18818
▁女声	18819
▁此事	18820
▁球鞋	18821
▁风味	18822
▁cx	18823
▁刑法	18824
▁四中	18825
▁顽强	18826
▁高地	18827
ings	18828
▁哮	18829
▁卖钱	18830
▁心胸	18831
▁小提琴	18832
▁穿刺	18833
▁艾米	18834
▁长者	18835
▁濑	18836
▁抽签	18837
▁求职	18838
▁由此	18839
▁粘着	18840
▁中饭	18841
▁切开	18842
▁已死	18843
▁田螺	18844
▁螨虫	18845
▁记仇	18846
▁赛场	18847
▁部首	18848
▁鬼厉	18849
▁口香糖	18850
▁接班人	18851
▁爻	18852
▁干洗	18853
▁汇总	18854
▁洗牙	18855
▁炒房	18856
▁高处	18857
▁离合器	18858
▁mr	18859
▁漫天	18860
▁六合	18861
▁图层	18862
▁城南	18863
▁床边	18864
▁液压	18865
▁白玉	18866
▁鞠躬	18867
▁HI	18868
▁传言	18869
▁混搭	18870
▁zuo	18871
▁郭德纲	18872
▁look	18873
一笑	18874
▁MI	18875
▁伟哥	18876
▁厨子	18877
▁明说	18878
.19	18879
▁=0	18880
▁居家	18881
▁赶集	18882
▁默哀	18883
▁加减	18884
▁和睦	18885
▁奏凯	18886
▁就喊	18887
▁开票	18888
▁打劫	18889
▁甲亢	18890
▁额定	18891
▁自助餐	18892
▁主队	18893
▁趴下	18894
▁😋	18895
▁一抹	18896
▁人美	18897
▁佛法	18898
▁功德	18899
▁北斗	18900
▁卓机	18901
▁口令	18902
▁服药	18903
▁网民	18904
▁财神	18905
▁特维斯	18906
▁停用	18907
▁婚庆	18908
▁屋顶	18909
▁旅程	18910
▁腰子	18911
▁讲价	18912
▁喜羊羊	18913
=0	18914
▁下岗	18915
▁下风	18916
▁放毒	18917
▁无罪	18918
▁球拍	18919
▁百草	18920
▁网费	18921
▁老四	18922
▁臭美	18923
▁鸭脖	18924
▁hiahia	18925
▁净土	18926
▁卖相	18927
▁李宁	18928
▁盖世	18929
▁英俊	18930
▁调解	18931
▁酒后	18932
▁喜酒	18933
▁泰妍	18934
▁浸泡	18935
▁烧死	18936
▁砍头	18937
▁阵地	18938
血糖	18939
▁地黄	18940
▁客流	18941
▁痛心	18942
▁那英	18943
▁RMB	18944
▁低血糖	18945
▁天花板	18946
自在	18947
▁劝退	18948
▁挖矿	18949
▁橱柜	18950
▁鉴赏	18951
▁LG	18952
▁抒情	18953
▁银联	18954
▁箍	18955
老师	18956
173	18957
▁两地	18958
▁估摸	18959
▁头饰	18960
▁振作	18961
▁海选	18962
▁皮蛋	18963
▁减掉	18964
▁母子	18965
▁瓶盖	18966
▁秋风	18967
▁肾脏	18968
▁调音	18969
▁问句	18970
ko	18971
▁布欧	18972
▁年末	18973
▁苗条	18974
▁衰老	18975
▁爱慕	18976
▁皮套	18977
▁看齐	18978
▁空心	18979
▁高山	18980
▁出游	18981
▁娇羞	18982
▁掏空	18983
▁お	18984
▁ス	18985
▁剔	18986
▁壮观	18987
▁沉香	18988
▁玉石	18989
▁福音	18990
▁飞快	18991
▁骂街	18992
▁黄鳝	18993
59	18994
▁童装	18995
▁编曲	18996
▁表带	18997
▁连体	18998
▁役	18999
是处	19000
.26	19001
▁AM	19002
▁小脸	19003
▁柔和	19004
▁腿子	19005
▁螺纹	19006
▁袋鼠	19007
▁认输	19008
▁调动	19009
▁贵在	19010
▁足联	19011
▁迎新	19012
▁容貌	19013
▁清澈	19014
▁烟草	19015
▁睡意	19016
▁自责	19017
▁通宝	19018
▁一无是处	19019
▁低烧	19020
▁割肉	19021
▁月牙	19022
▁格里	19023
▁钱币	19024
▁德国人	19025
▁糖葫芦	19026
▁坪	19027
▁罕	19028
▁天帝	19029
▁拭目	19030
▁新颖	19031
▁施肥	19032
▁种田	19033
▁话吧	19034
▁LX	19035
▁砂锅	19036
▁种花	19037
▁笑傲	19038
▁加温	19039
▁哈维	19040
▁圈地	19041
▁胆大	19042
▁pre	19043
▁拭目以待	19044
▁fs	19045
▁交替	19046
▁大虾	19047
▁水手	19048
▁起泡	19049
▁公办	19050
▁科科	19051
▁职高	19052
▁一曲	19053
▁吹干	19054
▁自选	19055
▁嵌	19056
西斯	19057
▁宏光	19058
▁弯路	19059
▁防具	19060
▁集锦	19061
▁rec	19062
关村	19063
▁兜兜	19064
▁中关村	19065
相怜	19066
▁徒手	19067
▁断腿	19068
▁电网	19069
▁相等	19070
▁连带	19071
▁通吃	19072
▁lgd	19073
▁染色体	19074
▁同病相怜	19075
▁aw	19076
▁排便	19077
▁李钟	19078
▁法制	19079
▁电厂	19080
▁擂	19081
姨子	19082
▁业内	19083
▁杂粮	19084
▁界限	19085
▁眉笔	19086
▁表述	19087
▁驾驶员	19088
▁沼	19089
▁酉	19090
▁冰块	19091
▁切成	19092
▁景甜	19093
▁病院	19094
▁草丛	19095
▁蓝猫	19096
▁转过	19097
▁per	19098
▁一两百	19099
▁IS	19100
▁SP	19101
▁化成	19102
▁水流	19103
▁派对	19104
▁面值	19105
▁3.7	19106
▁癸	19107
▁ri	19108
▁vn	19109
▁冰冷	19110
▁小兔	19111
▁赏金	19112
▁轻点	19113
▁4200	19114
▁ら	19115
▁ci	19116
▁不相	19117
▁团里	19118
▁平分	19119
▁本我	19120
▁苦力	19121
▁逃脱	19122
▁饭堂	19123
▁Day	19124
▁一晃	19125
▁上坡	19126
▁周口	19127
▁错啦	19128
tube	19129
▁一心一意	19130
▁爱吧	19131
▁饥荒	19132
▁作出	19133
▁排放	19134
▁铁丝	19135
得上	19136
▁丝带	19137
▁杂货	19138
▁江门	19139
▁登顶	19140
▁1.9	19141
▁常理	19142
▁当红	19143
▁赫赫	19144
BOYS	19145
▁随心所欲	19146
▁▼	19147
风吟	19148
▁加多	19149
▁快男	19150
▁每条	19151
▁调养	19152
▁NB	19153
▁后路	19154
▁春运	19155
▁晶晶	19156
▁杀鸡	19157
▁监视	19158
▁糖水	19159
▁休学	19160
▁减去	19161
▁斯科	19162
▁脱俗	19163
▁象牙	19164
▁sata	19165
▁啸	19166
▁洱	19167
▁冒昧	19168
▁前奏	19169
▁手气	19170
▁扯蛋	19171
▁血脂	19172
▁说唱	19173
▁辣子	19174
▁运算	19175
▁远光	19176
▁合着	19177
▁宝来	19178
▁小草	19179
▁柔弱	19180
▁计量	19181
▁验血	19182
▁9.5	19183
▁换代	19184
▁漫步	19185
▁boo	19186
▁hifi	19187
▁腺	19188
▁苯	19189
▁sj	19190
▁两月	19191
▁会展	19192
▁平顶	19193
▁征途	19194
▁癫痫	19195
▁皮子	19196
▁路面	19197
▁á	19198
▁柒	19199
不活	19200
德勒	19201
▁BT	19202
▁冬至	19203
▁大跌	19204
▁带土	19205
▁罗晋	19206
▁衔接	19207
▁dream	19208
▁出乎	19209
▁忠告	19210
▁抬高	19211
▁蒙蒙	19212
▁金鸡	19213
▁阑尾	19214
▁李钟硕	19215
顺风	19216
▁鲍鱼	19217
ther	19218
▁XXX	19219
无事	19220
ica	19221
▁全图	19222
▁台山	19223
▁并列	19224
▁排挤	19225
▁架势	19226
▁梧桐	19227
▁母爱	19228
▁物美	19229
▁氨基酸	19230
so	19231
▁透过	19232
▁长跑	19233
▁不见不散	19234
▁国情	19235
▁土星	19236
▁淹没	19237
▁潮州	19238
▁狂暴	19239
▁端口	19240
▁贵重	19241
小板	19242
达内	19243
▁倍数	19244
▁台服	19245
▁急诊	19246
▁服役	19247
▁狐妖	19248
▁高空	19249
▁侦查	19250
▁堆积	19251
▁天行	19252
▁捷径	19253
▁湿疣	19254
▁税收	19255
▁香槟	19256
自主	19257
▁往西	19258
▁绝缘	19259
▁荒野	19260
▁语录	19261
▁跑着	19262
▁TUT	19263
▁偷渡	19264
▁历程	19265
▁太古	19266
▁慰问	19267
▁郑爽	19268
▁119	19269
▁絮	19270
▁严厉	19271
▁马屁	19272
▁鼻塞	19273
▁供应商	19274
▁漩	19275
ire	19276
▁富强	19277
▁平手	19278
▁延安	19279
▁淋漓	19280
▁肠粉	19281
▁谢天	19282
▁雄性	19283
▁首日	19284
▁哲理	19285
▁惹事	19286
▁无缝	19287
▁沧海	19288
▁王家	19289
▁绿叶	19290
▁肉类	19291
▁说呀	19292
▁隐居	19293
▁ち	19294
▁云中	19295
▁孙女	19296
▁未免	19297
▁橘色	19298
▁每期	19299
奈何	19300
▁四面	19301
▁小腹	19302
▁止血	19303
▁波澜	19304
▁老衲	19305
▁肉麻	19306
▁谈到	19307
▁韩式	19308
cs	19309
.24	19310
▁一格	19311
▁代办	19312
▁小面	19313
▁怪异	19314
▁泳衣	19315
▁一路顺风	19316
▁flash	19317
▁上前	19318
▁均码	19319
▁开阔	19320
ka	19321
.23	19322
▁不济	19323
▁帕萨	19324
▁羞辱	19325
▁胥	19326
致富	19327
▁PO	19328
▁两期	19329
▁普京	19330
▁森森	19331
▁死命	19332
▁虎皮	19333
▁踪	19334
▁守住	19335
▁实拍	19336
▁指向	19337
▁推车	19338
▁鱼人	19339
▁sta	19340
▁望远镜	19341
霸王	19342
▁OR	19343
▁军区	19344
▁哈密	19345
▁天书	19346
▁无妨	19347
▁白药	19348
▁老歌	19349
▁兴起	19350
▁拌饭	19351
▁枫叶	19352
▁深层	19353
▁激进	19354
▁金秀	19355
▁PPT	19356
▁咏	19357
▁yp	19358
▁口口	19359
▁掉头	19360
▁环路	19361
▁kp	19362
▁伤痛	19363
▁出面	19364
▁吹过	19365
▁打孔	19366
▁甜言	19367
▁盔甲	19368
▁荨麻	19369
▁还债	19370
▁银耳	19371
▁马德里	19372
▁宝物	19373
▁市委	19374
▁撞墙	19375
▁晒干	19376
▁本尊	19377
▁较少	19378
▁重叠	19379
▁首播	19380
▁col	19381
89	19382
斯基	19383
▁二郎	19384
▁写手	19385
▁刺痛	19386
▁周公	19387
▁妞儿	19388
▁普陀	19389
▁白凤	19390
▁麻袋	19391
▁back	19392
▁beaut	19393
69	19394
▁清迈	19395
▁碰巧	19396
后觉	19397
▁后知	19398
▁拉长	19399
▁蠢货	19400
▁试驾	19401
▁8.8	19402
▁后知后觉	19403
▁取舍	19404
▁外校	19405
▁尘暴	19406
▁输卵	19407
▁速速	19408
▁丞	19409
▁拂	19410
▁信条	19411
▁有感	19412
▁水仙	19413
▁购入	19414
▁伸出	19415
▁出气	19416
▁大字	19417
▁蜀山	19418
▁资本家	19419
▁唬	19420
▁拖地	19421
▁湘潭	19422
▁紫砂	19423
▁膳	19424
▁右脚	19425
▁往东	19426
▁旁人	19427
▁死鱼	19428
▁精辟	19429
▁一家子	19430
▁long	19431
▁篡	19432
▁丛林	19433
▁剑网	19434
▁招手	19435
▁无神	19436
▁精装	19437
▁认命	19438
ys	19439
.21	19440
919	19441
▁全称	19442
▁大幅	19443
▁安分	19444
▁灰熊	19445
▁那头	19446
▁琵	19447
▁悬挂	19448
▁杨梅	19449
▁碘伏	19450
▁药流	19451
ya	19452
▁买三	19453
▁勿忘	19454
▁墙纸	19455
▁流汗	19456
▁节点	19457
▁sou	19458
▁血小板	19459
拉蒂	19460
▁分店	19461
▁制止	19462
▁支出	19463
▁温顺	19464
▁膀胱	19465
▁nfc	19466
▁蕊	19467
▁HR	19468
▁人马	19469
▁尿道	19470
▁诚恳	19471
▁30+	19472
▁旁观者	19473
▁颐	19474
▁两手	19475
▁中转	19476
▁塞班	19477
▁墙壁	19478
▁增压	19479
▁弹琴	19480
▁水桶	19481
▁老高	19482
▁镰刀	19483
▁譬	19484
▁东城	19485
▁尼姑	19486
▁苦难	19487
▁酷爱	19488
▁饭钱	19489
▁清晰度	19490
▁神通	19491
▁脚垫	19492
▁发电机	19493
▁懿	19494
▁💣	19495
▁从容	19496
▁信佛	19497
▁后辈	19498
▁车载	19499
▁马超	19500
▁AK	19501
▁凯旋	19502
▁协助	19503
▁神人	19504
▁职责	19505
不如死	19506
▁生不如死	19507
bt	19508
▁hg	19509
▁家乐	19510
▁药剂	19511
▁试吃	19512
▁深水	19513
▁点醒	19514
▁狼狈	19515
▁议论	19516
取义	19517
言之	19518
▁几亿	19519
▁土鸡	19520
▁安图	19521
▁心肌	19522
▁跑题	19523
▁车速	19524
▁阿克	19525
▁kimi	19526
▁cw	19527
▁全额	19528
▁对接	19529
▁小段	19530
▁抗压	19531
▁棋子	19532
▁歌舞	19533
▁职务	19534
▁自认	19535
▁衣物	19536
▁说破	19537
▁小肚子	19538
▁pi	19539
▁山河	19540
▁提神	19541
▁有劲	19542
▁气管	19543
▁淡水	19544
▁站立	19545
▁考官	19546
▁重男	19547
▁一剑	19548
▁一等	19549
▁占座	19550
▁盛大	19551
▁睾丸	19552
▁阿布	19553
▁鞋带	19554
轻女	19555
▁作废	19556
▁停播	19557
▁西施	19558
▁败笔	19559
▁贪婪	19560
▁起身	19561
▁重男轻女	19562
▁heart	19563
▁反水	19564
▁经贸	19565
▁WOW	19566
▁cha	19567
▁loli	19568
▁渭	19569
血病	19570
▁产出	19571
▁华科	19572
▁却说	19573
▁女娃	19574
▁插口	19575
▁自暴	19576
▁阿西	19577
▁汐	19578
▁鞑	19579
▁引产	19580
▁总和	19581
▁泌尿	19582
▁mon	19583
▁犹太人	19584
▁2007	19585
▁7.	19586
▁丢下	19587
▁共用	19588
▁切糕	19589
▁夏侯	19590
▁大兴	19591
▁开展	19592
▁朱元	19593
▁葵花	19594
▁金水	19595
不顾	19596
▁MS	19597
▁十有	19598
▁团圆	19599
▁战法	19600
▁曲奇	19601
▁四百多	19602
▁@	19603
▁So	19604
▁大卖	19605
▁天机	19606
▁断章	19607
▁日式	19608
▁涨幅	19609
▁素食	19610
▁罗杰	19611
▁腹痛	19612
▁雨中	19613
▁荨麻疹	19614
▁舜	19615
猩猩	19616
▁双肩	19617
▁大胖	19618
▁容颜	19619
▁更早	19620
▁煲汤	19621
▁考拉	19622
▁虚构	19623
▁街边	19624
▁贫民	19625
▁Orz	19626
▁十有八九	19627
EO	19628
▁冷酷	19629
▁早操	19630
▁更小	19631
▁黄皮	19632
▁mat	19633
▁GP	19634
▁偷窥	19635
▁尿频	19636
▁找茬	19637
▁落户	19638
▁题型	19639
▁李世民	19640
▁红霉素	19641
▁莫斯科	19642
▁黯	19643
子怡	19644
▁坟头	19645
▁延时	19646
▁木工	19647
▁问心	19648
▁288	19649
▁OTZ	19650
=3	19651
▁惟	19652
▁cy	19653
▁功放	19654
▁后头	19655
▁密切	19656
▁拉风	19657
▁精心	19658
▁数一数	19659
▁1990	19660
不齐	19661
oud	19662
▁下台	19663
▁丹麦	19664
▁续费	19665
▁血汗	19666
▁风声	19667
▁桑切斯	19668
/6	19669
▁加菲	19670
▁时节	19671
▁满身	19672
▁百事	19673
▁天安门	19674
▁主妇	19675
▁可知	19676
▁触碰	19677
▁黑手	19678
▁缪	19679
▁ir	19680
▁乳胶	19681
▁修补	19682
▁县里	19683
▁古墓	19684
▁埋汰	19685
▁开窗	19686
▁深厚	19687
▁过话	19688
▁麦子	19689
▁730	19690
▁兵力	19691
▁比别	19692
▁1+1	19693
▁嬴	19694
▁卵子	19695
▁构思	19696
▁靠边	19697
▁二十三	19698
▁基督徒	19699
own	19700
▁nt	19701
▁柏林	19702
▁汤姆	19703
▁肋骨	19704
▁青玉	19705
▁pos	19706
▁小姨子	19707
▁筐	19708
▁一课	19709
▁下部	19710
▁幼犬	19711
▁生源	19712
▁肩宽	19713
▁都拉	19714
▁1000+	19715
▁斌	19716
▁华侨	19717
▁套票	19718
▁好戏	19719
▁悦诗	19720
▁盐酸	19721
▁要素	19722
▁bal	19723
▁昧	19724
▁牲	19725
▁先行	19726
▁克莱	19727
▁汗水	19728
▁616	19729
▁from	19730
74	19731
▁斟	19732
师傅	19733
▁酸甜	19734
▁悦诗风吟	19735
▁斧头	19736
▁朝天	19737
▁返校	19738
▁造就	19739
▁齐达内	19740
03	19741
▁无毒	19742
▁狩猎	19743
▁选购	19744
▁鲜明	19745
gt	19746
八十	19747
▁剥削	19748
▁惊奇	19749
▁雷诺	19750
有可无	19751
▁可有可无	19752
▁乐子	19753
▁水杯	19754
▁沉稳	19755
▁真机	19756
▁超速	19757
▁过硬	19758
▁钞票	19759
▁飞机场	19760
▁陇	19761
▁解体	19762
▁诸位	19763
▁近来	19764
▁迫害	19765
▁摄像机	19766
▁新星	19767
▁浩克	19768
▁称霸	19769
▁凋	19770
浩特	19771
▁变量	19772
▁吊坠	19773
▁红帽	19774
▁跑位	19775
▁钢管	19776
▁铭文	19777
▁面馆	19778
▁1988	19779
▁侧重	19780
▁快播	19781
▁浪子	19782
▁被撞	19783
▁799	19784
▁一等奖	19785
▁稠	19786
▁丹东	19787
▁曲折	19788
▁村姑	19789
▁独处	19790
▁运城	19791
▁EMS	19792
▁希特勒	19793
▁曙	19794
怪气	19795
▁万千	19796
▁亲民	19797
▁手足	19798
▁敬佩	19799
▁连环	19800
▁179	19801
▁林心如	19802
▁搽	19803
▁诽	19804
纳德	19805
▁哆嗦	19806
▁堪称	19807
▁抬杠	19808
▁盗贼	19809
▁蒙面	19810
▁行善	19811
▁裁缝	19812
thing	19813
▁沂	19814
▁亲吻	19815
▁分家	19816
▁抠图	19817
▁磁场	19818
▁TMD	19819
▁串联	19820
▁宝玉	19821
▁平复	19822
▁忙活	19823
▁nm	19824
▁人族	19825
▁放电	19826
▁枣庄	19827
▁洪荒	19828
▁耀眼	19829
▁重在	19830
▁赘	19831
▁五谷	19832
▁毁掉	19833
▁红唇	19834
da	19835
123	19836
▁造化	19837
▁web	19838
81	19839
▁⌒	19840
▁俘	19841
▁撮	19842
中矩	19843
▁-`	19844
▁hu	19845
▁中规	19846
▁剥夺	19847
▁泥煤	19848
▁难耐	19849
▁810	19850
▁康师傅	19851
▁章子怡	19852
▁中规中矩	19853
▁套子	19854
▁朱雀	19855
▁滤芯	19856
▁老鹰	19857
蜜语	19858
▁半径	19859
▁宿命	19860
▁就嫁	19861
▁泉水	19862
▁紫檀	19863
▁贪污	19864
▁转学	19865
▁dog	19866
▁repo	19867
▁甜言蜜语	19868
▁阴阳怪气	19869
自弃	19870
▁勾起	19871
▁漩涡	19872
▁登机	19873
▁跳着	19874
▁驱魔	19875
▁自暴自弃	19876
有据	19877
▁乐高	19878
▁冷暖	19879
▁持平	19880
▁摩拜	19881
▁有色	19882
▁煤球	19883
▁跨界	19884
▁张小凡	19885
▁money	19886
是人	19887
而发	19888
▁拖欠	19889
▁里约	19890
▁小霸王	19891
▁无可奈何	19892
▁有感而发	19893
▁劵	19894
▁掘	19895
▁孙权	19896
▁犯人	19897
▁见好	19898
▁譬如	19899
▁通州	19900
▁NPC	19901
▁加特林	19902
▁可信度	19903
▁ez	19904
▁大熊	19905
▁意想	19906
▁特警	19907
▁草坪	19908
mmer	19909
▁syk	19910
▁蔫	19911
▁舅妈	19912
▁汶	19913
后跟	19914
▁上报	19915
▁京城	19916
▁变换	19917
▁导出	19918
▁慌张	19919
▁眼妆	19920
▁SUV	19921
▁压缩机	19922
fe	19923
▁😩	19924
▁ts	19925
▁万幸	19926
▁千秋	19927
▁恩怨	19928
▁整洁	19929
▁树枝	19930
▁缝纫	19931
▁醉人	19932
▁防卫	19933
▁高明	19934
▁脚后跟	19935
OD	19936
念念	19937
▁散户	19938
▁气色	19939
▁6.7	19940
fo	19941
不自	19942
▁fb	19943
▁倩女	19944
▁商铺	19945
▁救助	19946
▁dna	19947
▁sky	19948
▁姊	19949
▁坎特	19950
▁接头	19951
▁机密	19952
▁疏远	19953
▁繁荣	19954
▁言行	19955
▁罒	19956
一世	19957
厚非	19958
▁张扬	19959
▁番禺	19960
▁艳阳	19961
烈烈	19962
▁元首	19963
▁名都	19964
▁小贝	19965
▁探险	19966
▁直系	19967
▁精美	19968
▁试题	19969
▁金光	19970
▁手电筒	19971
▁比利时	19972
▁白血病	19973
▁轰轰烈烈	19974
▁带宽	19975
▁英朗	19976
▁语句	19977
▁长颈	19978
▁无可厚非	19979
▁12000	19980
otoshop	19981
▁斐	19982
▁MX	19983
▁富含	19984
▁条命	19985
▁犯病	19986
▁轻功	19987
▁近乎	19988
▁心心念念	19989
▁孰	19990
▁膘	19991
▁dh	19992
▁全线	19993
▁奥比	19994
▁真货	19995
▁枰	19996
2.0	19997
▁卧蚕	19998
▁汽水	19999
▁滕州	20000
▁卡瓦	20001
▁夏至	20002
▁时侯	20003
▁游走	20004
▁瓷器	20005
▁自贡	20006
▁褐色	20007
▁kkk	20008
▁派送	20009
▁火药	20010
▁真巧	20011
▁¬	20012
▁炕	20013
▁承德	20014
▁降压	20015
▁双打	20016
▁发福	20017
▁太卡	20018
▁开价	20019
▁暂住	20020
▁老贼	20021
▁重组	20022
▁主办方	20023
▁郴	20024
东西	20025
姗姗	20026
▁三宝	20027
▁八哥	20028
▁嗑药	20029
▁狗仔	20030
▁简便	20031
▁连冠	20032
▁184	20033
▁2.7	20034
▁枇	20035
▁成份	20036
▁木板	20037
▁自留	20038
▁顺顺	20039
▁领子	20040
▁1-3	20041
▁△	20042
▁嘣	20043
不入	20044
▁固体	20045
▁扭蛋	20046
▁欠缺	20047
▁破损	20048
▁逗逗	20049
87	20050
▁疹	20051
莫及	20052
▁zy	20053
▁中成	20054
▁依法	20055
▁写实	20056
▁冰火	20057
▁方舟	20058
▁框框	20059
▁桌游	20060
▁电表	20061
▁上药	20062
▁中断	20063
▁中餐	20064
▁出书	20065
▁对立	20066
▁皮毛	20067
▁空乘	20068
▁造福	20069
▁饶人	20070
▁董事长	20071
▁more	20072
▁惋	20073
▁佛爷	20074
▁您看	20075
▁抗性	20076
▁烧香	20077
▁郑大	20078
▁两三百	20079
▁启示	20080
▁天启	20081
▁两三千	20082
▁不外	20083
▁出牌	20084
▁新股	20085
▁泸沽	20086
▁甲鱼	20087
▁监护	20088
▁蜂窝	20089
▁越美	20090
▁阴雨	20091
▁中成药	20092
▁巴基斯坦	20093
▁榕	20094
地亚	20095
▁字符	20096
▁演变	20097
▁语种	20098
▁进军	20099
▁̶	20100
▁践	20101
▁周董	20102
▁收徒	20103
▁胆囊	20104
▁飞度	20105
▁眸	20106
▁卖房	20107
▁本分	20108
▁积蓄	20109
▁一概而论	20110
▁一目	20111
▁习题	20112
▁去处	20113
▁怕人	20114
▁电解	20115
▁肥肠	20116
▁药材	20117
▁江边	20118
▁苍白	20119
▁贵妇	20120
▁博大	20121
▁可观	20122
▁埋线	20123
▁常熟	20124
▁纵容	20125
gram	20126
▁衷	20127
▁元老	20128
▁全无	20129
▁指路	20130
▁死磕	20131
▁洛杉	20132
▁震颤	20133
▁BUG	20134
▁丁宁	20135
▁不休	20136
▁亡灵	20137
▁代售	20138
▁芥末	20139
▁起哄	20140
▁锅盖	20141
▁五彩	20142
▁感知	20143
▁法力	20144
▁不已	20145
▁伤残	20146
▁受精	20147
▁湿热	20148
▁绩效	20149
▁荡荡	20150
▁诈尸	20151
▁桓	20152
▁交界	20153
▁刻苦	20154
▁扳手	20155
▁放送	20156
▁花露	20157
之以	20158
3.0	20159
▁协和	20160
▁打伞	20161
▁穿梭	20162
▁西点	20163
▁闲来	20164
▁洛杉矶	20165
▁sg	20166
▁乱叫	20167
▁压住	20168
▁喷油	20169
▁妖姬	20170
▁怨气	20171
▁龙马	20172
▁骰	20173
▁bf	20174
▁一侧	20175
▁决策	20176
▁历练	20177
▁大姨	20178
▁头衔	20179
▁神曲	20180
▁金城	20181
▁20+	20182
▁岐	20183
▁按揭	20184
▁来者	20185
▁窗台	20186
▁set	20187
▁youtube	20188
▁主帅	20189
▁婆媳	20190
▁文人	20191
▁架空	20192
▁简约	20193
▁黄忠	20194
▁黄龙	20195
▁黑衣	20196
▁318	20197
▁十几二十	20198
▁だ	20199
▁开锁	20200
▁抚顺	20201
▁亚洲人	20202
▁十全	20203
▁擦掉	20204
▁通货	20205
▁魔咒	20206
▁╦	20207
▁先知	20208
▁升学	20209
▁惨烈	20210
▁欢快	20211
▁阳虚	20212
▁fin	20213
彼此	20214
▁周天	20215
▁平房	20216
▁晚班	20217
▁每每	20218
▁积液	20219
▁维斯	20220
▁イ	20221
▁绮	20222
▁fz	20223
▁丫丫	20224
▁打来	20225
▁浪琴	20226
▁痴迷	20227
▁皇族	20228
▁精简	20229
▁网播	20230
▁厢	20231
▁烽	20232
▁辑	20233
化腾	20234
▁兼顾	20235
▁卫浴	20236
▁大热	20237
▁局域	20238
▁弧度	20239
▁靳东	20240
▁阐	20241
无力	20242
生情	20243
▁消气	20244
▁私自	20245
▁美分	20246
▁静心	20247
2017	20248
▁五六十	20249
▁蝌	20250
▁诬	20251
▁]~	20252
▁升天	20253
▁外滩	20254
▁耐磨	20255
▁躲过	20256
orever	20257
▁副业	20258
▁大板	20259
▁大汗	20260
▁排线	20261
▁枇杷	20262
▁温控	20263
▁情不自	20264
ike	20265
▁侠盗	20266
▁卧床	20267
▁大越	20268
▁往回	20269
▁扣除	20270
▁演习	20271
▁虚岁	20272
▁血脉	20273
▁见怪	20274
▁马化腾	20275
▁戆	20276
激素	20277
▁兵役	20278
▁故人	20279
▁用尽	20280
▁白领	20281
▁黄海	20282
▁泷	20283
▁筱	20284
OTA	20285
▁换季	20286
▁散文	20287
▁粘土	20288
▁缩短	20289
▁轩逸	20290
▁007	20291
▁✈	20292
▁撅	20293
▁出奇	20294
▁尸鬼	20295
▁废品	20296
▁摧残	20297
▁朴实	20298
▁绽放	20299
▁满天飞	20300
CC	20301
ci	20302
▁乘务	20303
▁少许	20304
▁春暖	20305
▁杀虫	20306
▁椒图	20307
▁花香	20308
▁衍生	20309
▁15%	20310
▁very	20311
▁inter	20312
▁▂	20313
▁FM	20314
▁hm	20315
▁后院	20316
▁娇小	20317
▁正大	20318
▁鼻头	20319
▁亨利	20320
▁小罗	20321
▁间歇	20322
▁+10	20323
▁zen	20324
油条	20325
▁便于	20326
▁八宝	20327
▁利好	20328
▁惋惜	20329
▁打光	20330
▁来生	20331
▁绝食	20332
▁英镑	20333
▁老油条	20334
▁4800	20335
▁party	20336
▁穹	20337
▁鳗	20338
▁加人	20339
▁包浆	20340
▁另有	20341
▁坏死	20342
▁大鹏	20343
▁成像	20344
▁本领	20345
▁清香	20346
▁生辰	20347
▁不对称	20348
▁托马斯	20349
▁ヘ	20350
▁唷	20351
▁沮	20352
▁卫校	20353
▁琪琪	20354
▁耍猴	20355
▁造作	20356
ior	20357
▁下第	20358
▁依稀	20359
▁塞纳	20360
▁搬迁	20361
▁极乐	20362
▁神功	20363
▁适度	20364
▁美如画	20365
IA	20366
▁↑	20367
▁擀	20368
▁召回	20369
▁后方	20370
▁屏保	20371
▁浓眉	20372
▁防伪	20373
▁ctrl	20374
xi	20375
▁〈	20376
▁滇	20377
▁刹那	20378
▁执事	20379
▁消磨	20380
▁行家	20381
▁谭晶	20382
▁近身	20383
▁捋	20384
▁砰	20385
.27	20386
bye	20387
▁外向	20388
▁桥头	20389
▁欠揍	20390
▁xbox	20391
▁乱讲	20392
▁扑通	20393
▁抽搐	20394
▁梯队	20395
▁深思	20396
▁帕萨特	20397
▁浣	20398
得起	20399
▁匈奴	20400
▁天主	20401
▁桥段	20402
▁淡然	20403
▁关东	20404
▁劳尔	20405
▁忧愁	20406
▁挥霍	20407
▁猛烈	20408
▁破甲	20409
▁诽谤	20410
▁边玩	20411
▁530	20412
▁rr	20413
▁捷克	20414
▁罗湖	20415
▁自负	20416
▁贴近	20417
▁跑道	20418
▁道家	20419
▁雍正	20420
▁17-03	20421
▁android	20422
▁飚	20423
▁养护	20424
▁吊顶	20425
▁擦肩	20426
▁牛人	20427
▁擦肩而过	20428
▁寇	20429
概全	20430
▁中式	20431
▁墓地	20432
▁木质	20433
▁术语	20434
ada	20435
▁唔知	20436
▁打平	20437
▁灵芝	20438
▁预选	20439
▁比基尼	20440
ek	20441
▁求人	20442
▁牙科	20443
▁琵琶	20444
▁白蛇	20445
▁纸片	20446
▁胆量	20447
▁解梦	20448
▁前列腺炎	20449
▁情不自禁	20450
▁蹂	20451
▁年检	20452
▁弱队	20453
▁游击	20454
▁留校	20455
▁站队	20456
▁蜕变	20457
▁香气	20458
梵希	20459
▁下乡	20460
▁学园	20461
▁手相	20462
▁比重	20463
▁淡季	20464
▁皇室	20465
▁西服	20466
▁重头	20467
▁校车	20468
▁片片	20469
▁试玩	20470
▁费事	20471
▁跨度	20472
之不	20473
▁一栏	20474
▁以偏	20475
▁取景	20476
▁年月	20477
▁情谊	20478
▁救赎	20479
▁紫霞	20480
▁而后	20481
▁购票	20482
▁领带	20483
▁以偏概全	20484
打实	20485
dol	20486
elf	20487
▁伴儿	20488
▁姨夫	20489
▁用语	20490
▁实打实	20491
▁朱元璋	20492
▁发家致富	20493
▁劣质	20494
▁张智	20495
▁新增	20496
▁桔梗	20497
▁疗效	20498
▁秀气	20499
▁美院	20500
▁老牌	20501
▁肾炎	20502
▁负数	20503
▁车程	20504
圆圆	20505
▁奇遇	20506
▁建军	20507
▁燃油	20508
▁硬性	20509
▁自立	20510
▁课外	20511
▁韵味	20512
2016	20513
▁td	20514
▁分歧	20515
▁复原	20516
▁清宫	20517
▁用车	20518
▁粒子	20519
▁翻看	20520
▁肺癌	20521
▁雪莲	20522
▁东芝	20523
▁善变	20524
▁坟墓	20525
▁异端	20526
▁彪悍	20527
▁败给	20528
▁幌	20529
▁贰	20530
▁一汽	20531
▁水位	20532
▁留级	20533
▁辨识	20534
▁轰炸机	20535
▁旺季	20536
▁歌王	20537
▁每隔	20538
▁耳聋	20539
▁华强	20540
▁大院	20541
▁萧山	20542
▁速成	20543
▁静止	20544
▁谊	20545
声声	20546
.29	20547
▁专车	20548
▁断流	20549
▁早产	20550
▁酵母	20551
▁黑豆	20552
▁口口声声	20553
pad	20554
▁产能	20555
▁牛顿	20556
▁稳赢	20557
▁练出	20558
▁🐰	20559
▁射速	20560
▁旗号	20561
▁精选	20562
▁芭莎	20563
▁5-6	20564
▁花木兰	20565
▁断章取义	20566
▁五环	20567
▁切片	20568
▁呆子	20569
▁善恶	20570
▁监理	20571
▁良性	20572
▁触手	20573
▁雕像	20574
▁黄体	20575
▁有理有据	20576
02	20577
▁一朝	20578
▁后缀	20579
▁汉朝	20580
▁牛羊	20581
▁的士	20582
▁起亚	20583
▁纪梵希	20584
VE	20585
▁穗	20586
▁定量	20587
▁蜥蜴	20588
▁不能自拔	20589
▁辈分	20590
▁逼人	20591
ance	20592
▁390	20593
▁反串	20594
▁处方	20595
▁白给	20596
▁转生	20597
▁水龙头	20598
▁下游	20599
▁包夜	20600
▁启用	20601
▁地雷	20602
▁密室	20603
▁支教	20604
▁此外	20605
▁此类	20606
▁卢卡库	20607
▁委员会	20608
^2	20609
不足	20610
▁厚实	20611
▁木星	20612
▁药师	20613
▁金砖	20614
▁雨后	20615
gh	20616
▁阉	20617
人为	20618
▁三都	20619
▁亮亮	20620
▁保胎	20621
▁公爵	20622
▁午后	20623
▁大惊	20624
▁张继	20625
▁志龙	20626
▁意图	20627
▁烟雨	20628
nc	20629
▁荀	20630
▁二话	20631
▁全局	20632
▁夏尔	20633
▁连坐	20634
▁风范	20635
▁撒尿	20636
▁金秀贤	20637
▁麟	20638
▁冰山	20639
▁升降	20640
▁早熟	20641
▁真武	20642
▁精明	20643
▁肺部	20644
▁诉说	20645
▁过热	20646
所欲为	20647
▁剂量	20648
▁取经	20649
▁弹道	20650
▁捏捏	20651
▁称赞	20652
▁联名	20653
▁贝儿	20654
▁转职	20655
▁首富	20656
▁套现	20657
▁张子	20658
▁慈悲	20659
▁理赔	20660
▁生冷	20661
▁脱掉	20662
oser	20663
▁司马懿	20664
▁诺贝尔	20665
▁game	20666
▁一厢	20667
▁加时	20668
▁压榨	20669
▁检修	20670
▁西昌	20671
▁一厢情愿	20672
▁为所欲为	20673
▁干预	20674
▁猎豹	20675
▁胸闷	20676
ason	20677
US	20678
yu	20679
▁+3	20680
▁不惜	20681
▁两岸	20682
▁卡带	20683
▁历代	20684
▁后轮	20685
▁多动	20686
▁实训	20687
▁懂行	20688
▁考古	20689
▁蝌蚪	20690
▁起劲	20691
▁风油	20692
▁驻马	20693
ork	20694
▁下药	20695
▁住嘴	20696
▁修真	20697
▁受气	20698
▁脚印	20699
▁蹦极	20700
▁ED	20701
▁健全	20702
▁古文	20703
▁爽爽	20704
▁盘龙	20705
▁石英	20706
▁神武	20707
▁100+	20708
▁再卖	20709
▁厌烦	20710
▁属相	20711
▁撕掉	20712
▁毒性	20713
▁比尔	20714
▁皮衣	20715
▁真累	20716
▁防爆	20717
face	20718
▁暹	20719
▁疝	20720
不由	20721
循环	20722
▁冷艳	20723
▁出山	20724
▁多变	20725
▁手软	20726
▁本国	20727
▁莲子	20728
vs	20729
▁漯	20730
为一	20731
▁多级	20732
▁挤出	20733
▁泡椒	20734
▁萨满	20735
▁und	20736
▁鲵	20737
接再	20738
留情	20739
▁凯子	20740
▁振动	20741
▁清远	20742
▁群殴	20743
▁许晴	20744
▁鬼脸	20745
▁chr	20746
▁再接再	20747
▁0.	20748
▁ST	20749
▁专线	20750
▁大涨	20751
▁契合	20752
▁宫崎	20753
▁巩固	20754
▁庄家	20755
▁强国	20756
▁日程	20757
▁点菜	20758
▁秦国	20759
▁简化	20760
▁请勿	20761
▁顶住	20762
▁黛玉	20763
无刻	20764
▁无时	20765
▁组建	20766
▁630	20767
▁cpf	20768
▁无时无刻	20769
▁ト	20770
▁倚天	20771
▁巡航	20772
▁把好	20773
▁新店	20774
▁泼妇	20775
▁333	20776
▁卡塔尔	20777
▁音乐会	20778
▁擦拭	20779
▁茫然	20780
▁诺亚	20781
▁顽固	20782
▁DOTA	20783
▁主权	20784
▁光剑	20785
▁华西	20786
▁大叫	20787
▁无价	20788
▁烧坏	20789
▁燃料	20790
▁能见	20791
▁霍霍	20792
▁黑皮	20793
▁∇	20794
▁书架	20795
▁富翁	20796
▁方正	20797
▁武帝	20798
▁混子	20799
▁玛莎	20800
▁亚当	20801
▁军师	20802
▁后劲	20803
▁爹爹	20804
▁闪烁	20805
▁体外	20806
▁段落	20807
▁泡澡	20808
▁维尼	20809
▁双腿	20810
▁发根	20811
▁强加	20812
▁死鬼	20813
▁派遣	20814
▁片场	20815
▁逼迫	20816
▁重逢	20817
▁133	20818
▁下沙	20819
▁两轮	20820
▁军工	20821
▁呼啦	20822
▁武艺	20823
▁生菜	20824
▁翻来	20825
▁rbq	20826
▁巴拉巴拉	20827
▁茵	20828
▁反观	20829
▁哟西	20830
▁神探	20831
▁2.6	20832
维亚	20833
▁升起	20834
▁破灭	20835
求是	20836
▁St	20837
▁ae	20838
▁单击	20839
▁吃菜	20840
▁斯坦	20841
▁潜在	20842
▁爱尔	20843
▁蹂躏	20844
▁软化	20845
▁钱钱	20846
▁实事求是	20847
▁汾	20848
▁反向	20849
▁小岛	20850
▁开衫	20851
▁消音	20852
▁陈乔	20853
▁虚荣心	20854
▁╟	20855
▁人偶	20856
▁使徒	20857
▁双性	20858
▁救世	20859
▁词条	20860
▁3.3	20861
▁599	20862
▁局域网	20863
▁ryzen	20864
ID	20865
▁学号	20866
▁小国	20867
▁曙光	20868
▁榨汁	20869
▁野人	20870
▁防冻	20871
▁高下	20872
▁沾边	20873
▁饭团	20874
54	20875
▁亲朋	20876
▁半截	20877
▁宪法	20878
▁日亚	20879
▁气急	20880
▁豆角	20881
▁马鞍	20882
▁-0-	20883
▁釜	20884
诺曹	20885
▁hy	20886
▁亲属	20887
▁仓位	20888
▁发白	20889
▁威尔	20890
▁小妖	20891
▁斑点	20892
▁郴州	20893
▁野狗	20894
▁tgp	20895
▁吸管	20896
▁大千	20897
▁欲罢	20898
▁特辑	20899
▁盼望	20900
▁虞姬	20901
▁谢过	20902
▁蹲点	20903
▁欲罢不能	20904
+8	20905
▁侃	20906
事事	20907
▁=1	20908
▁中韩	20909
▁地沟	20910
▁生于	20911
▁黑鸭	20912
▁lp	20913
▁拟人	20914
▁浮生	20915
▁苏菲	20916
▁龙岗	20917
▁无所事事	20918
▁竭	20919
---	20920
▁八折	20921
▁句号	20922
▁点歌	20923
▁致死	20924
▁飞轮	20925
ment	20926
▁分泌物	20927
▁kill	20928
▁挚爱	20929
▁晚年	20930
▁贴合	20931
▁远景	20932
▁coser	20933
▁公然	20934
▁张震	20935
▁执政	20936
▁源头	20937
▁相克	20938
▁联军	20939
▁辟邪	20940
▁hao	20941
▁mad	20942
▁陈乔恩	20943
▁祺	20944
▁养颜	20945
▁学子	20946
▁有喜	20947
▁泰勒	20948
▁算错	20949
不及防	20950
▁猝不及防	20951
▁下身	20952
▁安息	20953
▁应征	20954
▁拉出	20955
▁接入	20956
▁放眼	20957
▁求学	20958
▁金沙	20959
ways	20960
▁ser	20961
▁长颈鹿	20962
▁问心无愧	20963
▁伤痕	20964
▁开外	20965
▁开窍	20966
▁残暴	20967
▁自如	20968
▁轮椅	20969
▁领巾	20970
▁272	20971
▁gal	20972
▁谢天谢	20973
▁沛	20974
▁古力	20975
▁断裂	20976
▁谢天谢地	20977
▁喏	20978
▁迦	20979
中海	20980
▁卖力	20981
▁和气	20982
▁祖坟	20983
▁说来	20984
▁两万多	20985
▁生殖器	20986
57	20987
▁ev	20988
▁六安	20989
▁味精	20990
▁收复	20991
▁紫菜	20992
▁陈冠	20993
▁雨季	20994
/10	20995
▁~_	20996
▁句句	20997
▁浓妆	20998
▁瞎猜	20999
▁way	21000
▁地中海	21001
av	21002
▁DD	21003
▁书签	21004
▁洪水	21005
▁眼罩	21006
▁臭臭	21007
▁茂名	21008
小怪	21009
▁信封	21010
▁暴君	21011
▁漏油	21012
▁真挚	21013
▁笨笨	21014
▁赋予	21015
▁远去	21016
▁印度人	21017
▁备战	21018
▁女兵	21019
▁1994	21020
▁刮痧	21021
▁惶恐	21022
▁终归	21023
▁迪迦	21024
▁非凡	21025
▁wei	21026
▁二十二	21027
▁痨	21028
▁AV	21029
▁单恋	21030
▁大雾	21031
▁师院	21032
▁持球	21033
▁枯萎	21034
▁眼屎	21035
▁&\#	21036
▁760	21037
▁二十八	21038
▁大惊小怪	21039
▁ˋ	21040
▁>>	21041
▁Lo	21042
▁刘翔	21043
▁塞进	21044
▁寻常	21045
▁秃头	21046
▁记事	21047
▁读懂	21048
▁院里	21049
▁顺德	21050
▁柬	21051
覆去	21052
▁gv	21053
▁作坊	21054
▁安然	21055
▁广安	21056
▁拉丝	21057
▁梳子	21058
▁玩腻	21059
▁风油精	21060
▁彼此彼此	21061
▁翻来覆去	21062
ano	21063
▁农夫	21064
▁凤梨	21065
▁终端	21066
▁结冰	21067
▁雅典娜	21068
▁划掉	21069
▁呐喊	21070
▁奢求	21071
▁西洋	21072
▁辖	21073
▁HE	21074
▁单片	21075
▁呼吁	21076
▁围城	21077
▁怨妇	21078
▁正负	21079
▁沙河	21080
▁间断	21081
▁饭锅	21082
lish	21083
哈尔	21084
esh	21085
▁可动	21086
▁头绪	21087
▁打狗	21088
▁硬气	21089
▁待会儿	21090
▁主治	21091
▁傲慢	21092
▁字帖	21093
▁狂风	21094
▁货运	21095
▁身旁	21096
▁企图	21097
▁刺眼	21098
▁坐船	21099
▁捣鼓	21100
▁煤炭	21101
▁肥猪	21102
▁跟班	21103
▁静养	21104
▁飞走	21105
▁驻马店	21106
▁6300	21107
天乐	21108
▁jc	21109
▁哭闹	21110
▁回校	21111
▁执教	21112
▁板鸭	21113
▁泡芙	21114
▁跑掉	21115
▁重合	21116
▁零头	21117
▁马儿	21118
▁瑾	21119
志龙	21120
▁受虐	21121
▁妇联	21122
▁应景	21123
▁强项	21124
▁插队	21125
▁白手	21126
▁阴虚	21127
KG	21128
▁咗	21129
而易	21130
▁倍儿	21131
▁兽人	21132
▁图样	21133
▁整场	21134
▁爱因	21135
▁退档	21136
▁149	21137
▁れ	21138
▁炽	21139
▁三两	21140
▁只限	21141
▁哗哗	21142
▁喊麦	21143
▁拜访	21144
▁植发	21145
▁武磊	21146
▁海峡	21147
▁答疑	21148
▁翻过	21149
▁辩证	21150
▁风行	21151
▁鸟巢	21152
▁icon	21153
▁两碗	21154
▁互助	21155
▁名下	21156
▁讲完	21157
▁越过	21158
句话	21159
▁BA	21160
▁创始	21161
▁泥垢	21162
▁阿兰	21163
句话说	21164
▁换句话说	21165
▁积极向上	21166
em	21167
▁椎	21168
▁内敛	21169
▁压倒	21170
▁定性	21171
▁拉伤	21172
▁无氧	21173
▁直角	21174
▁药效	21175
▁平顶山	21176
▁三室	21177
▁并发	21178
▁快攻	21179
▁诗意	21180
▁配装	21181
▁剑客	21182
▁晾干	21183
▁江宁	21184
▁运球	21185
▁对话框	21186
▁不了了之	21187
▁never	21188
▁伯伯	21189
▁兑现	21190
▁招来	21191
▁搜集	21192
▁金字	21193
▁akb	21194
▁丝瓜	21195
▁光大	21196
▁尊贵	21197
▁戏子	21198
▁抵触	21199
▁推拿	21200
▁215	21201
闸蟹	21202
:20	21203
▁天魔	21204
▁师太	21205
▁接过	21206
▁携程	21207
▁阿卡	21208
erry	21209
▁古天乐	21210
▁大闸蟹	21211
▁出海	21212
▁反问	21213
▁弄出	21214
▁托管	21215
▁烈日	21216
▁胸肉	21217
▁bar	21218
▁四千多	21219
▁龙卷风	21220
▁多层	21221
▁奉劝	21222
▁幌子	21223
▁弯腰	21224
▁推断	21225
▁江阴	21226
▁法治	21227
▁竿子	21228
▁贤妻	21229
▁资助	21230
▁倾听	21231
▁盾牌	21232
▁街机	21233
▁coco	21234
▁16-10	21235
▁渍	21236
▁出世	21237
▁券商	21238
▁小林	21239
▁市政	21240
▁开光	21241
▁这笔	21242
▁龙女	21243
▁关晓彤	21244
▁加持	21245
▁喷火	21246
▁对准	21247
▁exm	21248
▁帕克	21249
▁朴素	21250
▁枢纽	21251
▁横行	21252
▁稀少	21253
▁芭蕾	21254
▁车险	21255
▁香草	21256
▁黄种	21257
▁匹诺曹	21258
花开	21259
▁RM	21260
▁肇事	21261
▁检察院	21262
▁两亿	21263
▁再婚	21264
▁法网	21265
▁清蒸	21266
▁米高	21267
▁红魔	21268
▁耍耍	21269
▁评选	21270
▁椭	21271
▁JB	21272
▁PD	21273
▁低迷	21274
▁流逝	21275
▁滋滋	21276
▁pay	21277
dy	21278
咧咧	21279
相识	21280
▁移除	21281
▁花光	21282
▁bing	21283
多或	21284
▁发飙	21285
▁同化	21286
▁平日	21287
▁怂恿	21288
▁村庄	21289
▁腥味	21290
▁迪斯	21291
多或少	21292
▁或多或少	21293
RE	21294
距离	21295
▁妖娆	21296
▁开春	21297
▁挤压	21298
▁摇号	21299
▁片酬	21300
▁白醋	21301
▁类别	21302
▁纺织	21303
▁罗技	21304
▁老将	21305
▁遮挡	21306
▁食人	21307
▁1280	21308
▁七大	21309
▁影楼	21310
▁新奇	21311
▁欢欢	21312
▁照常	21313
▁璐璐	21314
▁群雄	21315
▁hiv	21316
▁远距离	21317
▁ຶ	21318
▁东湖	21319
▁离异	21320
▁立交	21321
▁难懂	21322
▁威尼斯	21323
06	21324
IT	21325
▁倦	21326
▁羹	21327
▁腼	21328
▁分寸	21329
▁广元	21330
▁百多	21331
▁gun	21332
三角	21333
莱斯	21334
▁七百	21335
▁寻人	21336
▁心魔	21337
▁条约	21338
▁校草	21339
▁郑元	21340
▁1989	21341
▁1997	21342
▁4+64	21343
▁犟	21344
拉拉	21345
▁团员	21346
▁惊恐	21347
▁掂量	21348
▁数目	21349
▁食疗	21350
▁黄石	21351
▁流水线	21352
▁刁民	21353
▁刮风	21354
▁套用	21355
▁盆腔	21356
[...]
